the 24197544
. 22447344
, 21302127
of 13288681
and 11174716
to 9780303
in 8151681
a 6878025
is 5321715
&apos; 4911468
that 3789805
you 3663822
i 3434513
it 3343297
for 3210873
on 2713574
with 2546341
be 2192709
s 2170958
are 2140029
this 2121033
&quot; 1994267
? 1967113
as 1965830
has 1781229
have 1761793
can 1755386
will 1717416
not 1680070
by 1635878
was 1597220
we 1541862
at 1506766
he 1478021
but 1444364
from 1343517
&apos;s 1325893
t 1272731
an 1202397
or 1045826
more 1042032
which 977622
they 958492
also 944601
all 940282
market 934329
so 876820
its 874771
there 829398
your 826789
new 822436
one 805715
if 793782
what 787646
my 787004
industry 779242
: 775990
me 774779
been 774259
his 742455
time 730356
about 729494
) 722048
China 720009
( 711942
up 708320
out 704600
do 687764
their 651658
% 649433
no 648028
technology 646111
said 641771
year 636122
when 634826
than 633041
development 629913
other 620422
! 599048
were 590052
m 586423
only 577109
some 566941
she 565991
just 551771
first 544678
like 538152
had 536105
know 532191
her 513659
mobile 503683
products 502967
system 495356
don 494116
re 493051
people 491789
our 488974
into 486682
I 481679
two 480838
such 456351
after 454979
many 453783
would 446254
now 439547
... 435708
years 430121
because 428421
how 428159
get 424198
him 420427
them 418863
who 415905
these 413853
should 411686
very 411219
power 387874
well 382469
most 382109
company 381911
world 375664
; 374327
make 372917
still 366123
good 362700
us 356150
use 352583
used 352002
high 345558
according 343835
same 342066
go 340707
may 337240
business 336522
through 334137
right 333811
over 330083
here 329387
billion 325756
production 325747
TV 321329
last 320773
need 320483
think 318895
enterprises 316559
re@@ 315847
see 315542
way 315144
want 314690
could 311963
$ 310252
design 309974
un@@ 309259
even 305093
million 300483
between 295118
take 293278
work 291926
then 290932
data 289046
did 285511
ll 284078
phone 283047
any 276184
manufacturers 274427
back 273502
product 272106
ve 271980
three 269331
price 263614
become 262718
made 260391
chip 259236
information 258414
Apple 258300
got 257925
in@@ 255809
important 254156
come 248485
life 246646
down 246142
yuan 242280
application 241852
before 239576
while 239174
research 238119
different 237964
companies 237270
growth 236492
future 236029
process 234848
ing 234187
much 232204
performance 231294
control 231212
let 230071
however 229911
LED 228874
man 225315
why 224968
sales 223013
next 222074
global 220609
Samsung 219843
long 218222
must 218170
d 217638
going 214477
too 214174
number 211948
addition 211386
equipment 210944
large 209895
Chinese 208912
say 207411
where 207320
look 206555
present 206364
second 206114
own 205392
help 203885
S@@ 203692
energy 203470
ed 201220
able 201175
great 199755
es 199456
er 196974
day 196366
domestic 195891
under 194756
field 194498
end 192648
really 191977
support 189828
off 189069
increase 186092
1 185712
s@@ 184699
since 184161
current 184045
users 183265
order 182230
each 181781
o@@ 181388
d@@ 181242
little 180862
Internet 180110
main 179802
quarter 179511
semiconductor 179371
network 179181
put 179057
home 178519
government 178436
better 176972
demand 175916
industrial 175406
o 175230
small 172915
yeah 172354
k@@ 172326
2 172169
never 171811
both 170453
those 170331
every 169566
rate 169427
cost 169107
Intel 169049
share 168752
B@@ 167827
does 166675
ers 166068
chips 164679
expected 164586
display 164583
C@@ 164442
management 163920
ate 163486
using 163453
another 163210
y@@ 162982
being 162937
find 162698
investment 162681
whole 162644
am 162312
t@@ 161817
always 161378
provide 160151
devices 159960
panel 159903
including 159438
study 159224
give 159173
screen 158592
supply 158427
quality 157808
phones 157608
line 157568
set 157506
without 157355
electronic 156914
needs 156276
10 156133
oh 155794
low 155449
light 155264
less 153693
although 153351
part 153247
change 153074
e@@ 152952
big 152755
based 152646
around 152553
i@@ 151868
level 151800
problem 151675
dis@@ 151179
manufacturing 151146
few 150736
something 150227
e 150190
p@@ 150117
n@@ 149959
c@@ 149858
international 149657
today 149290
smart 148840
tell 148365
g@@ 147605
gonna 146897
ation 146783
en@@ 146573
applications 146345
water 145811
value 145230
P@@ 144505
key 144334
software 143569
point 143161
D@@ 142566
effect 142492
L@@ 142080
y 141452
service 141287
al@@ 140349
major 139688
b@@ 139434
3 138686
A@@ 138530
r@@ 138085
M@@ 138056
h@@ 137817
again 137805
T@@ 137636
an@@ 137625
l@@ 137587
period 137300
method 136467
best 136422
security 136400
money 136193
capacity 136064
half 135905
didn 135869
country 135419
place 135205
found 134677
lot 134446
past 133194
love 133020
R@@ 132878
experience 132299
paper 131825
okay 131241
Huawei 130923
al 130822
old 130510
thing 130267
total 130177
test 128318
generation 128157
economic 127449
show 127407
core 127161
analysis 126629
strong 126298
LCD 125656
problems 125560
foreign 124963
customers 124700
ated 124695
higher 124390
told 124349
improve 124318
model 124218
United 123474
m@@ 123367
ch@@ 123366
H@@ 122949
revenue 122865
during 122534
further 122411
once 122373
project 121877
among 121855
meet 121832
public 121582
f@@ 121046
ted 121011
things 120968
F@@ 120762
integrated 120754
countries 120397
area 120353
operation 120066
&amp; 119670
believe 119632
on@@ 119445
situation 119159
ts 119031
results 118306
away 118209
Technology 118067
E@@ 117770
whether 117741
full 117677
series 117445
real 117434
human 117060
traditional 117026
national 116633
mean 116512
services 116174
compared 115219
recently 115143
thought 115138
mainly 115097
due 114946
5 114207
state 114183
N@@ 114007
G@@ 113785
hand 113581
continue 113299
fact 112520
u@@ 112504
local 112473
four 112258
a@@ 111997
face 111839
lighting 111780
kind 111661
digital 111471
car 111346
third 111275
States 111246
case 111159
4 111126
open 111083
st@@ 110857
ar@@ 110800
report 110800
function 110661
ating 110634
far 110607
top 110439
construction 110359
means 110349
early 110338
chain 109911
per 109866
times 109401
color 109216
recent 109170
er@@ 109165
memory 109004
circuit 108288
20 107931
example 107652
keep 107238
ting 106508
developed 106242
course 106047
financial 105999
OLED 105922
im@@ 105857
against 105477
various 105284
Beijing 105232
working 105177
achieve 105064
might 105013
ic 104948
enough 104860
am@@ 104725
difficult 104714
materials 104286
video 104279
won 104046
ability 104040
standard 103907
leading 103810
structure 103753
general 103673
at@@ 103406
room 103334
platform 103233
largest 102777
feel 102767
came 102732
environment 102675
increased 102620
five 102603
china 102500
v@@ 102465
hard 102109
computer 102101
de@@ 101672
several 101521
makes 101515
left 101256
attention 101247
brand 101069
group 100937
communication 100858
family 100825
or@@ 100690
intelligent 100596
plan 100541
night 100528
therefore 100370
city 100160
innovation 100148
8 99969
media 99737
competition 99575
please 99408
play 99244
related 99100
w@@ 99062
special 98961
announced 98951
days 98884
iPhone 98710
children 98675
school 98570
Qualcomm 98402
reduce 98137
together 98054
doing 98024
systems 97900
shall 97705
yes 97277
already 97082
sure 96812
K@@ 96755
size 96735
components 96672
person 96659
start 96632
capital 96580
6 96381
education 96360
age 96256
ic@@ 96078
output 96009
especially 95896
l 95871
form 95834
often 95674
z@@ 95625
&apos;@@ 95623
making 95256
launched 95222
technical 95072
house 94863
called 94744
call 94562
consumption 94102
ine 93790
space 93724
bring 93663
Group 93581
ro@@ 93561
position 93390
trend 93343
over@@ 92817
profit 92803
efficiency 92686
hey 92669
hardware 92332
speed 92197
millet 92195
develop 92140
ago 92006
yet 91621
view 91533
team 91426
took 91293
ab@@ 91141
IC 91050
30 91041
consumers 90998
content 90815
ever 90464
side 90172
el@@ 89920
resources 89822
en 89807
di@@ 89510
name 89392
cooperation 89306
is@@ 89267
machine 89256
device 88970
pay 88819
says 88768
went 88738
prices 88696
law 88682
body 88534
social 88486
head 88373
co@@ 88019
looking 87921
promote 87645
b 87384
stage 87016
reason 86796
functions 86695
em@@ 86666
j@@ 86512
seen 86441
ates 86369
sp@@ 86350
D 86326
reach 86144
released 85881
os@@ 85849
R 85725
talk 85659
ti@@ 84690
con@@ 84633
n 84563
areas 84522
policy 84496
anything 84425
7 84327
red 84163
ant 83727
role 83561
news 83481
air 83478
forward 83319
US 83185
advanced 83086
board 82948
son 82910
land 82885
reached 82870
almost 82814
W@@ 82608
100 82581
terms 82508
battery 82445
overall 82348
um 82292
ad@@ 82266
as@@ 82221
standards 82190
it@@ 82180
enterprise 82059
sh@@ 81974
possible 81959
lead 81948
led 81912
requirements 81682
until 81667
men 81653
stop 81403
advantages 81307
nothing 81234
ap@@ 81134
months 81091
president 80889
th@@ 80839
done 80680
consumer 80613
king 80591
pressure 80515
ent 80062
students 79903
soon 79790
Japan 79564
changes 79448
objective 79332
operating 79292
job 79184
later 78947
understand 78935
Taiwan 78841
Electronics 78715
ac@@ 78692
single 78575
focus 78471
source 78355
u 78296
economy 78267
provides 78045
launch 77966
scale 77787
es@@ 77654
fully 77634
week 77048
V@@ 77043
material 77032
impact 77024
rapid 76972
3D 76864
close 76799
characteristics 76654
image 76652
buy 76535
try 76521
O@@ 76514
building 76495
&apos;t 76373
integration 76354
within 76148
cause 76089
previous 75991
everything 75835
ol@@ 75761
trying 75724
protection 75713
lower 75694
om@@ 75597
reported 75533
easy 75367
points 75148
p 75128
solutions 75112
relevant 74953
electronics 74613
hope 74490
food 74376
uses 74292
clear 74250
PC 74209
2016 74195
result 74065
common 73960
.@@ 73901
technologies 73853
user 73822
god 73811
ous 73760
wireless 73713
methods 73699
complete 73665
latest 73649
huge 73569
2017 73442
short 73417
processing 73366
k 73348
basic 73289
build 73256
medical 73207
maybe 73206
run 73153
annual 73136
bad 73043
markets 72930
vehicles 72690
factory 72652
certain 72648
ly 72411
costs 72285
shows 72090
ia 72012
above 71881
per@@ 71819
health 71721
ur@@ 71680
someone 71671
matter 71572
tions 71524
began 71439
treatment 71365
month 71301
least 71283
game 71219
3@@ 71164
Industry 71118
strategy 71111
sorry 71061
behind 70967
saw 70914
coming 70775
ies 70772
op@@ 70659
AI 70559
meeting 70546
mode 70467
factories 70462
heart 70255
move 70188
chinese 70183
frequency 70063
A 69961
care 69943
office 69845
actually 69692
pl@@ 69534
il@@ 69508
doesn 69406
Google 68961
turn 68865
ag@@ 68855
units 68776
5@@ 68771
technological 68737
mainland 68722
ul@@ 68700
base 68674
testing 68611
Shanghai 68587
pre@@ 68565
solution 68490
free 68414
gradually 68392
tic 68243
g 68225
father 68223
leave 68213
voltage 68116
seems 68084
getting 68046
wanted 67886
X@@ 67861
manufacturer 67571
women 67557
lo@@ 67485
ir@@ 67469
having 67461
held 67421
ot@@ 67289
live 67244
article 67221
50 67062
I@@ 66994
given 66969
tr@@ 66678
safety 66578
smartphone 66533
temperature 66529
inter@@ 66459
taking 66441
cl@@ 66434
dollars 66318
young 66291
touch 66282
electric 66255
mother 66169
Co 66160
ter 66105
directly 66082
war 66025
force 65907
others 65837
idea 65825
sub@@ 65804
wait 65561
signal 65491
longer 65367
finally 65309
als 65263
ex@@ 65241
friends 65189
developing 65118
automotive 65022
Things 64740
J@@ 64660
Microsoft 64413
2@@ 64385
projects 64382
taken 64314
mr. 64212
started 64169
conditions 64067
6@@ 64032
el 63985
9 63760
plans 63689
rise 63635
history 63617
le 63584
acquisition 63537
progress 63536
conference 63460
be@@ 63447
industries 63423
brought 63378
range 63136
parts 63093
br@@ 62989
se@@ 62875
similar 62792
x 62783
simple 62673
greatly 62598
era 62575
front 62565
sensor 62536
In@@ 62509
mind 62428
car@@ 62404
introduced 62326
5G 62244
rights 62205
id@@ 62106
enter 61911
following 61872
ensure 61870
2010 61813
driving 61792
ten 61760
white 61633
trade 61474
comes 61412
ask 61351
plant 61334
known 61326
increasing 61256
Y@@ 61245
lost 61231
no@@ 61076
property 60913
deal 60892
include 60789
version 60788
effects 60731
book 60657
storage 60625
4@@ 60496
type 60478
loss 60435
2015 60372
nearly 60364
fast 60353
create 60128
access 60109
15 60089
six 60055
believes 59914
ec@@ 59835
action 59803
guy 59793
original 59766
party 59730
charging 59722
cloud 59531
decline 59527
Semiconductor 59525
surface 59432
usually 59400
ha@@ 59346
li@@ 59324
outside 59309
x@@ 59303
ings 59253
brands 59234
step 59157
road 59063
reports 59007
factors 58935
specific 58917
everyone 58849
potential 58771
hot 58663
U@@ 58642
grow 58547
center 58500
ways 58499
terminal 58355
words 58336
processor 58257
smartphones 58247
blood 58182
hold 58079
tive 57992
quickly 57912
le@@ 57736
relationship 57580
par@@ 57502
eyes 57480
film 57416
asked 57387
oil 57380
cut 57353
necessary 57250
patients 57084
science 57058
risk 57033
theory 56989
morning 56928
advantage 56839
pe@@ 56776
itself 56684
pro@@ 56515
voice 56487
c 56437
produce 56352
stay 56328
employees 56302
Lenovo 56284
established 56117
gr@@ 56058
woman 55992
fourth 55974
relatively 55946
si@@ 55926
bo@@ 55885
Shenzhen 55850
ded 55793
th 55752
cases 55699
though 55647
hours 55638
amount 55618
fine 55616
table 55601
personal 55568
heard 55564
vehicle 55497
card 55486
patent 55450
ance 55445
quite 55385
computing 55381
thus 55332
strength 55312
question 55230
bl@@ 55200
popular 55144
to@@ 55109
12 55062
fields 54911
bit 54899
uh 54891
thinking 54868
existing 54814
ist 54797
shipments 54752
training 54748
late 54730
girl 54687
batteries 54617
fl@@ 54610
independent 54603
2008 54484
8@@ 54474
effective 54332
40 54318
ations 54255
” 54201
silicon 54162
net 54147
7@@ 54065
excellent 54061
2011 54023
hear 53984
mar@@ 53966
online 53931
pointed 53895
household 53850
beginning 53834
gave 53831
rather 53790
ator 53787
caused 53780
professional 53646
cannot 53494
growing 53478
wrong 53430
opportunity 53418
average 53371
black 53369
po@@ 53326
2012 53323
available 53305
environmental 53303
lines 53215
American 53105
ong 53064
influence 53042
improved 53041
mon@@ 53033
stock 52921
cell 52906
saying 52904
tion 52816
ding 52681
solar 52588
rapidly 52511
opportunities 52438
Sharp 52426
account 52389
appliances 52381
operators 52265
likely 52253
sensors 52168
ra@@ 52133
guys 52111
basis 51989
remember 51980
bank 51948
International 51926
expand 51830
true 51815
Japanese 51703
along 51701
2009 51682
direction 51655
commercial 51600
needed 51575
fire 51554
provided 51490
ons 51402
est 51309
qu@@ 51301
Android 51260
list 51245
Sony 51191
AMD 51178
id 51147
manager 51136
alone 51130
concept 51092
changed 50982
living 50979
united 50946
out@@ 50899
ds 50843
return 50745
fall 50712
sense 50666
New 50625
response 50586
designed 50526
natural 50406
interest 50385
strategic 50370
sold 50302
measures 50265
ans 50178
joint 50113
ment 49956
wants 49929
death 49892
word 49879
str@@ 49855
agreement 49823
door 49817
friend 49814
society 49734
shares 49693
panels 49682
culture 49650
activities 49638
du@@ 49590
cr@@ 49540
mis@@ 49491
efforts 49489
automobile 49480
et 49419
rest 49409
break 49404
intelligence 49386
widely 49385
happy 49385
states 49367
man@@ 49325
mo@@ 49250
watch 49233
customer 49189
teaching 49140
optical 48903
political 48902
serious 48888
sell 48853
flow 48832
read 48767
ness 48749
orders 48748
sound 48732
sometimes 48726
hands 48724
ma@@ 48721
success 48718
Z@@ 48628
interface 48609
glass 48602
choose 48590
ready 48588
talking 48586
heat 48544
Development 48537
police 48487
Mobile 48431
drive 48398
else 48386
Research 48320
probably 48291
mass 48263
University 48262
bi@@ 48254
department 48216
learning 48198
modern 48148
ity 48144
cells 48094
ig@@ 47996
ar 47994
dead 47949
applied 47879
ors 47858
became 47838
currently 47771
distribution 47749
wife 47692
complex 47662
der 47568
for@@ 47563
private 47514
issue 47502
music 47489
ter@@ 47461
suppliers 47395
computers 47353
9@@ 47324
suitable 47322
internal 47300
packaging 47235
ang@@ 47231
listen 47189
mr 47159
2018 47124
works 47109
solve 47101
fell 47093
child 47089
choice 47066
transmission 46981
ence 46979
ta@@ 46950
under@@ 46773
2013 46763
ice 46756
poor 46665
code 46606
2014 46603
ker 46591
target 46556
Nokia 46499
charge 46496
class 46423
green 46394
exhibition 46356
entered 46355
language 46350
transformation 46347
ang 46291
yourself 46232
ri@@ 46203
module 46193
release 46189
models 46179
rec@@ 46161
su@@ 46158
yesterday 46152
members 46019
ks 45990
near 45983
2007 45969
S 45952
practice 45925
ally 45849
marketing 45846
bed 45773
ism 45758
difference 45753
active 45677
TSMC 45596
isn 45583
limited 45537
crisis 45499
ne@@ 45491
completely 45464
deep 45433
volume 45395
unit 45376
sa@@ 45340
h 45336
boy 45322
og@@ 45320
te@@ 45287
built 45284
inside 45282
profits 45272
scientific 45214
oc@@ 45211
picture 45210
etc 45195
central 45187
ed@@ 45151
reduced 45141
beautiful 45064
tu@@ 45063
the@@ 45053
knew 45045
director 45000
bar@@ 44976
funds 44970
ical 44936
running 44909
improvement 44892
ite 44739
completed 44715
kinds 44668
realize 44663
ph@@ 44603
generally 44543
25 44538
lack 44521
learn 44509
listed 44498
la@@ 44483
achieved 44428
takes 44414
gas 44255
region 44206
program 44182
earlier 44159
sc@@ 44150
The 44140
save 44135
becoming 44133
architecture 43962
television 43903
normal 43804
reporters 43728
processors 43630
ing@@ 43613
Ministry 43601
he@@ 43531
rich 43483
worth 43443
+ 43438
continuous 43361
ship 43263
thank 43235
happened 43186
biggest 43173
knowledge 43173
Information 43162
1@@ 43148
easily 43094
pr@@ 43074
laser 43069
showed 43063
les 43041
National 43033
ground 43023
issued 43007
goal 43006
powerful 42996
looks 42966
sides 42961
tax 42918
ics 42896
ling 42864
ke 42792
wide 42753
himself 42706
planning 42671
Ch@@ 42670
channel 42633
added 42615
projector 42574
flexible 42563
implementation 42504
across 42503
unique 42408
11 42283
recognition 42266
external 42219
mechanism 42208
wasn 42166
parents 42158
kill 42131
ZTE 42090
comprehensive 42088
legal 42010
features 41987
accounting 41934
Science 41851
camera 41829
art 41817
perfect 41813
March 41796
wafer 41792
trans@@ 41784
facing 41780
former 41773
ian 41765
et@@ 41757
President 41752
middle 41746
street 41742
so@@ 41736
flash 41663
Korea 41618
instead 41519
ep@@ 41434
Li 41425
actively 41415
decided 41342
16 41304
Re@@ 41269
baby 41240
received 41199
station 41101
expansion 41081
either 41081
check 41062
ology 41053
themselves 41050
and@@ 41010
overseas 40995
significant 40926
eat 40888
physical 40852
innovative 40808
cor@@ 40795
19@@ 40789
carry 40733
successful 40681
required 40661
ty 40643
investors 40619
U.S. 40557
ev@@ 40533
includes 40512
ver@@ 40506
Electronic 40423
avoid 40411
round 40405
earth 40386
cars 40368
record 40357
layout 40325
maintain 40313
final 40311
60 40286
chairman 40258
June 40211
turned 40190
upon 40186
M 40158
res 40142
story 40136
gone 40128
official 40127
military 40124
cold 40115
input 40017
minutes 40005
hit 39994
nice 39957
monitoring 39939
policies 39932
die 39916
direct 39884
cover 39853
clinical 39825
exchange 39811
engineering 39804
produced 39789
stable 39774
moment 39738
ie 39676
ob@@ 39633
community 39522
reasons 39505
Company 39484
win 39466
tried 39439
flat 39421
f 39411
cities 39339
leader 39327
staff 39318
positive 39305
sir 39283
connection 39237
te 39236
issues 39225
respectively 39213
se 39200
figure 39130
obvious 39044
Q@@ 39019
act 38952
C 38943
invest 38897
anyone 38863
P 38831
sent 38813
box 38774
types 38758
answer 38732
myself 38655
resistance 38645
mom 38584
court 38573
sea 38527
principle 38525
photovoltaic 38509
experts 38452
artificial 38408
patents 38393
export 38389
Europe 38315
paid 38296
income 38255
cu@@ 38167
rules 38162
reduction 38086
South 38080
responsible 38059
ch 38037
improving 37968
au@@ 37939
An@@ 37938
ative 37897
promotion 37814
transfer 37771
E 37761
ants 37741
wall 37737
ok 37725
18 37688
chance 37656
safe 37648
X 37626
stand 37624
micro@@ 37557
appearance 37538
levels 37513
greater 37428
me@@ 37425
decision 37406
affected 37379
met 37296
um@@ 37290
contract 37272
studied 37269
enhance 37248
tools 37234
Wang 37233
understanding 37177
involved 37135
ber@@ 37122
competitive 37108
status 37035
offer 37031
nature 37021
multiple 36977
aspects 36945
VR 36916
goods 36912
DRAM 36912
radio 36900
highly 36892
formed 36887
wave 36830
ish 36829
CEO 36802
brain 36793
traffic 36731
felt 36706
officially 36705
sl@@ 36696
providing 36648
faster 36644
us@@ 36618
gap 36572
partners 36547
ked 36537
tablet 36532
hong 36519
lives 36513
emerging 36481
pretty 36444
ten@@ 36412
concerned 36396
evaluation 36350
rising 36338
ent@@ 36325
opening 36308
European 36256
ahead 36230
seem 36213
begun 36203
consider 36179
r 36133
reality 36125
Foxconn 36117
disease 36109
wouldn 36104
proportion 36104
dad 36066
chief 36045
senior 36043
ou@@ 36043
plants 36006
ma 36000
store 35974
col@@ 35972
tomorrow 35952
Ltd 35895
importance 35893
starting 35876
actual 35868
component 35836
town 35815
1.@@ 35806
studies 35780
cash 35765
Zhang 35759
April 35711
od@@ 35705
effectively 35686
ARM 35668
LG 35644
follow 35637
towards 35631
looked 35618
ality 35610
measurement 35595
metal 35586
200 35552
groups 35462
IT 35388
Toshiba 35381
university 35377
add 35375
enjoy 35337
resolution 35292
bus 35289
dr@@ 35250
V 35243
entire 35206
de 35194
September 35180
western 35177
2006 35152
stability 35134
ide 35121
activity 35100
tablets 35051
super@@ 35020
server 34980
considered 34931
date 34916
wind 34895
ization 34855
os 34843
14 34842
feeling 34791
significantly 34763
questions 34753
killed 34746
analysts 34740
nations 34734
upstream 34627
send 34623
proposed 34580
contact 34550
search 34546
strengthen 34539
workers 34501
basically 34433
ized 34424
site 34341
variety 34308
goes 34286
supporting 34240
Department 34232
chemical 34223
ful 34213
reform 34172
sources 34163
challenges 34143
obviously 34127
bu@@ 34119
ators 34119
failure 34111
conclusion 34101
ho@@ 34083
mainstream 34061
weeks 34055
continued 34055
selling 34048
practical 34046
July 34034
3G 33994
mm 33986
ton 33945
lose 33914
couldn 33910
Con@@ 33904
Technologies 33887
ry 33880
Hong 33868
fight 33853
layer 33843
pa@@ 33791
ise 33754
min@@ 33664
games 33662
sets 33657
factor 33645
80 33611
opened 33602
gu@@ 33597
condition 33580
res@@ 33506
cycle 33497
haven 33495
projection 33478
shown 33431
May 33430
below 33430
robots 33426
trust 33422
ru@@ 33381
thanks 33381
larger 33358
schools 33338
brother 33321
affect 33278
waiting 33231
noise 33230
hi@@ 33228
places 33198
clearly 33197
discussed 33160
ens 33145
successfully 33130
american 33120
ones 33111
System 33108
ary 33086
ying 33075
automatic 33050
ge@@ 33048
T 32980
perhaps 32975
damage 32959
carried 32913
south 32912
english 32817
dynamic 32816
combination 32799
weight 32785
double 32784
invested 32723
500 32687
supplier 32656
dec@@ 32599
playing 32593
phase 32517
her@@ 32501
ill@@ 32482
audio 32462
approach 32452
walk 32429
requires 32393
seven 32391
z 32390
networks 32379
detection 32358
lamp 32345
Hu@@ 32344
TCL 32343
establish 32280
changing 32274
guess 32265
foundation 32219
ps 32183
highest 32174
Center 32152
knows 32143
speech 32099
increasingly 32098
smaller 32090
ard 32077
evidence 32064
Sh@@ 32061
heavy 32050
channels 32020
ents 32011
statistics 32009
tonight 31998
sts 31996
sleep 31991
credit 31991
w 31983
subject 31956
member 31954
fr@@ 31892
ial 31871
eight 31869
Li@@ 31841
Windows 31832
protect 31816
competitiveness 31812
statement 31803
wish 31793
peace 31780
eye 31769
write 31746
understood 31744
weak 31710
October 31709
embedded 31697
worry 31693
worked 31686
ut@@ 31681
realized 31666
ai 31664
virtual 31664
miss 31659
simply 31656
doctor 31634
gets 31632
scheme 31615
organization 31595
ving 31579
World 31568
load 31549
purchase 31532
13 31501
reference 31494
prevent 31479
Korean 31465
G 31417
Institute 31404
hotel 31388
blue 31380
70 31363
expect 31312
press 31270
ters 31267
v 31227
ery 31213
end@@ 31211
degree 31197
institutions 31188
moving 31150
war@@ 31142
engineers 31138
tor@@ 31111
speak 31103
created 31089
individual 31074
ring 31061
we@@ 31012
remote 30997
primary 30995
departments 30987
iPad 30978
ms 30976
combined 30943
sign 30938
driver 30934
der@@ 30858
location 30852
reducing 30844
truth 30842
anti@@ 30824
reading 30792
Ltd. 30790
clean 30784
regional 30776
establishment 30740
learned 30717
hair 30691
purpose 30671
whatever 30636
shot 30634
afraid 30632
style 30617
har@@ 30584
skin 30583
cre@@ 30579
famous 30575
drop 30559
ase 30539
Liu 30537
negative 30536
mature 30502
slow 30501
L 30489
promoting 30483
teachers 30482
shape 30454
pattern 30448
,000 30440
mine 30401
particular 30388
allow 30382
To 30326
estimated 30302
intellectual 30220
sw@@ 30166
crystal 30153
details 30150
na@@ 30132
giants 30097
den@@ 30047
News 30042
banks 30035
file 30023
ordinary 30019
algorithm 30007
challenge 29985
multi@@ 29984
urban 29977
January 29971
remain 29952
tics 29948
90 29944
Network 29942
gold 29910
kids 29908
benefits 29908
signed 29875
benefit 29870
measure 29860
couple 29855
interview 29848
maintenance 29842
pain 29841
despite 29816
ize 29807
survey 29791
mal@@ 29784
ties 29778
event 29766
reliability 29760
of@@ 29657
fish 29649
ideas 29638
cultural 29628
dy 29624
electrical 29622
August 29583
forms 29549
happen 29540
leaders 29532
researchers 29529
Pro@@ 29512
spent 29474
immediately 29468
committee 29460
B 29445
gives 29410
ages 29395
4G 29365
ments 29348
piece 29324
replace 29303
sal@@ 29286
introduction 29283
wh@@ 29266
Al@@ 29258
ming 29256
ah 29245
particularly 29227
Ex@@ 29219
daily 29219
ain 29209
agent 29204
author 29192
term 29185
bs 29170
back@@ 29150
fund 29116
tri@@ 29111
screens 29082
connected 29055
O 29027
supports 28993
vi@@ 28988
circuits 28970
do@@ 28966
additional 28954
waste 28952
tor 28902
regions 28895
officials 28871
24 28870
thousands 28844
spot 28839
speaking 28818
upgrading 28796
IBM 28786
square 28785
ion 28784
fixed 28766
17 28760
pi@@ 28747
Asia 28732
2005 28715
books 28693
India 28688
died 28676
responsibility 28671
av@@ 28643
located 28632
liquid 28616
visit 28612
brightness 28602
hu@@ 28599
electricity 28554
kong 28554
ste@@ 28533
hospital 28524
machines 28510
task 28505
pu@@ 28500
background 28495
exactly 28488
mat@@ 28469
December 28465
ca@@ 28461
spend 28455
dark 28452
hour 28410
vision 28402
distance 28389
OEM 28385
parameters 28324
ze 28319
go@@ 28316
north 28309
master 28279
cards 28212
Hai 28207
abroad 28192
balance 28181
thin 28157
ky 28138
trouble 28123
assets 28113
investigation 28106
message 28103
behavior 28090
visual 28076
previously 28069
firm 28052
husband 28051
website 28048
respect 28028
writing 28026
born 28016
slightly 28012
CPU 27982
ping 27976
il 27941
ol 27923
whose 27920
forces 27905
cur@@ 27903
attack 27896
ball 27860
adopted 27836
dem@@ 27825
efficient 27753
ell@@ 27734
IP 27729
bro@@ 27720
planned 27718
tic@@ 27716
bur@@ 27683
population 27674
parties 27657
personnel 27642
assembly 27618
meters 27615
spirit 27610
america 27604
college 27598
del@@ 27585
rose 27547
raw 27514
interests 27494
ear@@ 27492
dream 27492
engine 27491
giant 27490
eng@@ 27467
port 27466
300 27462
lithium 27445
giving 27432
equipped 27418
scene 27409
vice 27400
Kong 27376
dog 27372
sun 27363
divided 27349
bottom 27341
analyzed 27333
hi 27318
passed 27304
operations 27241
season 27228
communications 27193
payment 27154
wear 27142
ve@@ 27131
welcome 27122
summer 27119
fin@@ 27115
competitors 27111
businesses 27087
configuration 27073
hell 27049
venture 27043
besides 27034
ins 27034
alization 27024
river 27006
tool 26993
text 26923
cameras 26921
executive 26893
processes 26878
recovery 26874
address 26854
wanna 26850
sale 26829
properties 26769
infrastructure 26766
council 26738
izing 26721
10@@ 26713
ely 26702
mer@@ 26695
closely 26687
require 26664
mentioned 26657
ad 26636
switch 26623
stores 26617
adopt 26576
teacher 26573
becomes 26566
century 26553
bright 26551
obtained 26544
eventually 26539
pen@@ 26538
November 26533
continues 26518
tur@@ 26491
adjustment 26479
pass 26478
ble 26469
governments 26447
constantly 26446
catch 26441
train 26434
elements 26418
2.@@ 26400
beyond 26330
begin 26319
if@@ 26311
hua 26289
all@@ 26275
ade 26270
allows 26266
certainly 26245
letter 26241
appear 26240
’ 26229
terminals 26212
da 26206
ba@@ 26187
N 26185
park 26167
forget 26167
Tesla 26151
ill 26150
ys@@ 26129
downstream 26073
inches 26039
accounts 26034
gotta 26000
Ar@@ 25991
motor 25976
nor 25975
significance 25929
steel 25929
stuff 25924
accuracy 25905
ao 25900
acid 25899
ach@@ 25889
exceed 25888
developers 25873
Hon 25842
nuclear 25841
daughter 25821
published 25819
yen 25798
ered 25793
ver 25791
corresponding 25746
Oriental 25739
spring 25738
object 25713
raised 25690
Exhibition 25655
soft 25654
contrast 25627
followed 25626
determined 25621
functional 25598
ke@@ 25590
State 25572
signals 25561
ay@@ 25560
ement 25560
labor 25556
rice 25517
closed 25514
review 25512
uc@@ 25506
familiar 25504
expectations 25502
bought 25493
floor 25489
path 25477
presented 25473
0.@@ 25467
apply 25461
fi@@ 25444
link 25428
believed 25428
critical 25418
integrate 25410
determine 25393
Province 25360
shipment 25337
drink 25324
lord 25311
0@@ 25307
hurt 25295
Telecom 25293
sit 25280
ge 25277
introduce 25271
sector 25255
ore 25245
wei 25234
star 25196
Electric 25192
section 25186
written 25163
instruments 25151
implement 25144
quantum 25137
magnetic 25108
expanding 25079
sur@@ 25029
instrument 25025
fingerprint 25020
initial 25004
calls 25001
cancer 25000
interested 24997
mechanical 24975
ci@@ 24964
cent 24943
join 24942
perspective 24942
aren 24934
sports 24924
fun 24881
fuel 24866
fiscal 24856
kept 24853
gre@@ 24820
fear 24816
raise 24803
capabilities 24800
played 24794
saving 24783
ently 24783
gain 24770
girls 24770
ched 24770
upgrade 24707
ats 24707
dinner 24700
ud@@ 24687
st 24641
4K 24634
ically 24624
accept 24623
ster 24600
ber 24592
North 24583
mor@@ 24582
drug 24580
mu@@ 24561
fierce 24556
somebody 24530
est@@ 24510
travel 24503
index 24500
lie 24485
De@@ 24480
block 24473
leaving 24469
carbon 24463
tree 24458
lights 24456
regard 24453
edge 24453
peak 24445
21 24440
jointly 24398
explore 24394
window 24362
inventory 24350
ously 24331
married 24328
appropriate 24327
healthy 24306
wearable 24275
regulations 24262
grew 24235
ip@@ 24231
28 24227
supposed 24225
east 24215
22 24215
kid 24200
events 24197
alism 24182
bar 24176
Vice 24167
ay 24144
guide 24140
gl@@ 24134
F 24102
players 24077
lies 24060
up@@ 24038
patient 24026
expensive 23989
losses 23984
percent 23981
pieces 23978
hundreds 23965
simulation 23961
shareholders 23950
faced 23924
Com@@ 23923
em 23919
brings 23918
package 23914
maximum 23901
ven@@ 23890
concern 23886
throughout 23884
discuss 23876
remains 23860
PCB 23852
partner 23836
feature 23817
moreover 23802
civil 23783
ological 23725
delivery 23720
19 23715
moved 23711
except 23709
stone 23707
cable 23698
insurance 23695
declined 23684
com@@ 23676
installed 23674
convenient 23669
revealed 23669
corporate 23658
ging 23623
match 23610
sex 23589
mark 23579
considering 23569
ass 23559
plasma 23550
2004 23492
indeed 23489
analog 23481
ancient 23479
resource 23477
soil 23474
AMOLED 23470
appeared 23468
images 23455
retail 23438
pick 23435
ching 23407
failed 23404
rates 23399
ea@@ 23392
cooperate 23384
stopped 23377
track 23374
willing 23364
ders 23357
diagnosis 23348
ash 23347
extent 23341
flagship 23330
entertainment 23321
designers 23320
rule 23301
ines 23282
Power 23281
W 23237
cy@@ 23213
automatically 23189
Meizu 23179
reporter 23159
pure 23158
attracted 23135
accelerate 23112
feet 23110
worldwide 23072
debt 23065
scientists 23063
experimental 23048
broken 23031
yl@@ 23027
holding 23025
receive 23018
ning 23000
ably 22983
cap@@ 22982
character 22982
page 22971
air@@ 22969
exceeded 22927
23 22922
technique 22913
sort 22891
interesting 22887
everybody 22883
Unicom 22878
3.@@ 22875
plus 22858
ile 22854
18@@ 22852
west 22837
advertising 22828
extremely 22826
compete 22811
tw@@ 22807
plate 22802
jobs 22801
un 22794
2020 22792
driven 22781
America 22774
suddenly 22769
ves 22739
ass@@ 22738
achievements 22736
onic 22704
selection 22693
ose 22687
sting 22646
stress 22638
az@@ 22626
cal@@ 22622
Energy 22621
ni@@ 22618
ure 22615
cool 22607
ium 22598
acquired 22588
lay 22581
density 22577
serve 22553
ther@@ 22540
xin 22540
tional 22532
men@@ 22532
switching 22523
student 22509
printing 22508
expects 22499
telling 22498
February 22490
sm@@ 22489
Association 22486
rain 22484
controlled 22476
confidence 22476
eng 22473
pictures 22458
laws 22444
facilities 22440
City 22434
difficulties 22427
sing 22417
sister 22412
trial 22403
forecast 22398
included 22392
crime 22386
ant@@ 22383
por@@ 22378
ren@@ 22377
hopes 22376
portable 22371
prospects 22359
formation 22353
els 22333
band 22319
Commission 22316
fresh 22276
battle 22255
obtain 22252
Co@@ 22237
ley 22233
differences 22224
accounted 22215
increases 22191
coffee 22191
thermal 22185
af@@ 22184
ler 22175
lu@@ 22160
iz@@ 22134
evening 22128
hydro@@ 22126
impossible 22123
16@@ 22114
00 22105
ok@@ 22090
ox@@ 22082
division 22074
fer@@ 22069
participate 22066
tin 22052
comp@@ 22051
sol@@ 22035
steps 22016
non@@ 22014
medicine 21994
educational 21986
secret 21985
spread 21970
boards 21963
standing 21959
millions 21955
connect 21949
ane 21934
minute 21933
Mr. 21930
automation 21913
solid 21905
allowed 21892
ideal 21882
actions 21877
expression 21874
internet 21873
explain 21858
ches 21857
setting 21853
gross 21832
ths 21823
osis 21823
2000 21820
investigate 21813
described 21811
watching 21809
undoubtedly 21799
reliable 21798
ner 21791
backlight 21769
values 21754
En@@ 21747
relations 21746
ture 21718
fucking 21713
accurate 21713
skills 21711
ering 21708
discussion 21704
administration 21698
frame 21666
ended 21651
iron 21648
agreed 21643
Chen 21640
crazy 21636
ser@@ 21608
financing 21603
depends 21584
anyway 21560
clothes 21552
seemed 21551
plays 21549
documents 21549
poly@@ 21543
HTC 21539
sion 21535
effort 21534
note 21513
ised 21507
bridge 21500
tical 21474
worse 21442
plane 21439
seriously 21433
expenditure 21423
20@@ 21414
tests 21414
ns 21397
Panasonic 21388
army 21388
32 21367
province 21358
platforms 21357
announcement 21343
boss 21330
zhou 21323
plastic 21314
logic 21298
gun 21288
identification 21277
limit 21272
rare 21254
ov@@ 21236
Germany 21223
rural 21215
movement 21204
optimistic 21202
ids 21199
supported 21196
dropped 21190
modules 21187
sk@@ 21186
telecommunications 21185
St@@ 21173
ak@@ 21162
Mar@@ 21142
down@@ 21135
named 21134
General 21130
pol@@ 21104
shut 21100
ratio 21092
transportation 21049
secondary 21043
my@@ 21032
weather 21018
typical 20975
talent 20973
nowadays 20968
prepared 20950
recognized 20939
doubt 20933
angle 20933
shortage 20922
tro@@ 20866
ong@@ 20863
ily 20859
reaction 20852
can@@ 20850
mission 20843
clock 20840
Motorola 20839
lock 20837
trading 20834
ast 20822
handle 20814
implemented 20806
&#91; 20804
meaning 20802
cont@@ 20802
sounds 20787
turning 20782
tors 20780
helps 20780
wood 20759
forced 20757
organizations 20756
ess 20744
installation 20737
ets 20733
hom@@ 20719
ranked 20714
Committee 20691
lin@@ 20673
seeing 20672
focusing 20671
ides 20626
otherwise 20620
Analysis 20601
wa@@ 20601
co 20598
advance 20596
accident 20585
conversion 20575
sn@@ 20567
earnings 20564
inf@@ 20553
risks 20549
opinion 20545
adjust 20541
meanwhile 20513
pres@@ 20510
Jun 20496
stronger 20470
causes 20467
entry 20452
sky 20441
nation 20436
lamps 20435
tion@@ 20435
dance 20430
equity 20419
ina 20410
Zhongxin 20401
administrative 20392
ir 20385
pull 20382
12@@ 20377
reasonable 20367
gen@@ 20355
entering 20334
fiber 20319
fault 20315
import 20286
ey 20283
falling 20269
our@@ 20263
animals 20253
helped 20244
pace 20241
error 20240
experiment 20238
operate 20237
Study 20232
fa@@ 20231
Le@@ 20230
approved 20226
pal@@ 20215
selected 20204
analyst 20176
caught 20173
stations 20169
authorities 20163
26 20111
Optoelectronics 20101
expressed 20092
determination 20090
ends 20081
sive 20079
phenomenon 20074
returned 20048
graphics 20042
useful 20038
enti@@ 20017
31 19988
programs 19980
&#93; 19976
Yang 19966
huh 19951
solved 19944
fruit 19934
subsidies 19925
int@@ 19900
bear 19893
winter 19892
continuously 19886
busy 19883
ai@@ 19879
kers 19876
representative 19869
27 19840
ran 19839
medium 19825
inv@@ 19818
broke 19811
ann@@ 19805
dry 19796
characteristic 19782
correct 19778
resulting 19754
rely 19750
island 19744
hor@@ 19734
ga@@ 19698
star@@ 19697
boys 19694
35 19690
mil@@ 19689
ow@@ 19687
talents 19683
Business 19681
signs 19678
warm 19677
trillion 19674
organic 19670
asking 19654
dic@@ 19621
ses 19621
Market 19621
inc@@ 19617
copper 19601
movie 19593
mouth 19563
TI 19559
centers 19550
easier 19539
leaves 19522
mel@@ 19520
ear 19513
bigger 19508
arms 19500
purchasing 19496
song 19481
iting 19472
numbers 19465
twice 19455
insiders 19455
jo@@ 19441
monitor 19425
essential 19420
leadership 19409
interaction 19392
K 19389
enable 19380
ances 19379
Me@@ 19364
map 19346
work@@ 19319
45 19315
margin 19312
committed 19310
bill 19307
sen@@ 19306
joined 19303
shop 19289
ities 19289
robot 19278
istic 19274
sharing 19249
judge 19237
drugs 19231
keeping 19227
cul@@ 19223
HP 19216
species 19210
guarantee 19205
emergency 19191
ory 19185
13@@ 19181
fair 19175
Video 19174
utilization 19167
nobody 19161
creating 19160
promoted 19147
med 19146
controller 19135
fo@@ 19131
Mo@@ 19124
via 19123
post 19121
pollution 19120
database 19111
MCU 19108
ists 19105
don@@ 19094
che@@ 19078
unless 19059
smooth 19051
ue 19047
sharp 19038
showing 19036
listing 19034
rock 19033
fallen 19028
element 19012
flexibility 19004
afternoon 18995
confirmed 18991
push 18951
imagine 18941
head@@ 18933
sustainable 18929
English 18909
gi@@ 18906
seek 18902
reduces 18896
approval 18893
prove 18884
animal 18878
ash@@ 18872
hal@@ 18850
document 18847
shit 18830
beauty 18828
professor 18815
hate 18813
thinks 18813
comparison 18804
files 18790
possibility 18780
player 18777
navigation 18766
historical 18745
Gu@@ 18738
attitude 18725
covered 18708
excuse 18705
optimization 18701
bone 18683
universities 18678
wearing 18675
minister 18673
gate 18671
fore@@ 18665
finished 18662
scope 18644
dangerous 18621
experienced 18615
sta@@ 18609
analyze 18601
objects 18595
replaced 18589
99 18588
om 18583
ened 18581
hand@@ 18564
compensation 18556
forming 18539
notice 18534
placed 18533
request 18529
15@@ 18518
kes 18503
trees 18492
ned 18491
14@@ 18486
tasks 18479
hole 18470
motion 18465
ly@@ 18464
wine 18445
percentage 18435
agree 18429
regular 18423
beat 18419
off@@ 18414
principles 18397
ished 18395
agency 18394
manage 18393
accordance 18391
shipped 18387
birth 18386
equ@@ 18379
straight 18379
momentum 18376
links 18372
acquisitions 18366
focused 18365
revolution 18364
families 18357
ped 18340
finance 18312
hin@@ 18294
Zhong@@ 18283
ranking 18277
web 18276
ist@@ 18275
des@@ 18273
secondly 18266
atory 18249
specifications 18244
post@@ 18238
grid 18236
perform 18235
breakthrough 18224
samples 18224
tea 18214
reaching 18179
severe 18173
Industrial 18164
marriage 18157
bas@@ 18148
Lei 18135
Design 18121
preparation 18105
career 18095
capability 18061
lady 18061
nine 18049
ls 18040
aged 18032
popularity 18020
demonstration 18018
requirement 18013
outstanding 18011
happens 18011
fre@@ 18001
bag 17990
spending 17984
ecological 17980
leads 17980
mostly 17974
separate 17959
mental 17952
exercise 17939
promise 17936
NAND 17928
inspection 17924
uan 17916
ym@@ 17910
acting 17910
aging 17897
shopping 17895
worried 17870
notebook 17867
talked 17862
greatest 17838
gar@@ 17837
ites 17836
unlike 17812
cas@@ 17804
collection 17803
2003 17803
wrote 17801
Car@@ 17773
client 17772
evolution 17771
ou 17765
unable 17750
sensitive 17742
aw@@ 17738
projectors 17737
comm@@ 17730
Intelligent 17724
arm 17724
broadcasting 17699
chapter 17697
Application 17690
fied 17684
ingly 17684
,@@ 17682
alize 17682
claim 17663
contains 17660
regarded 17651
tested 17644
Guangzhou 17643
sitting 17638
views 17634
ency 17630
buildings 17621
Mr 17620
boat 17619
maintained 17618
items 17617
yi 17611
associated 17609
expert 17591
coal 17585
vertical 17559
Le 17558
Millet 17556
fees 17548
disk 17548
slowly 17546
ils 17542
alized 17540
dev@@ 17534
officer 17531
bringing 17515
flowers 17515
Tr@@ 17513
radiation 17512
multimedia 17506
treated 17505
ight 17485
laid 17483
ot 17482
Guangdong 17473
examination 17471
rooms 17465
graphene 17462
syn@@ 17459
therapy 17448
sy@@ 17445
upper 17436
pat@@ 17436
buying 17430
val@@ 17414
aircraft 17412
sil@@ 17405
65 17405
exist 17401
appears 17400
ale 17392
criminal 17392
Inter@@ 17391
flight 17390
tens 17383
foot 17374
bodies 17374
equal 17363
anymore 17357
River 17350
Galaxy 17350
transaction 17337
quick 17336
neither 17309
regulation 17306
ow 17304
putting 17302
beijing 17301
que 17293
fu@@ 17293
hel@@ 17286
ars 17281
stick 17280
AS@@ 17280
zone 17270
bound 17269
positioning 17268
onto 17252
missing 17238
club 17235
ati@@ 17226
path@@ 17225
hum@@ 17223
authority 17213
evaluate 17194
engaged 17194
assistance 17189
ju@@ 17184
ions 17184
pan@@ 17170
truly 17168
names 17167
matching 17165
broadband 17158
ved 17143
adding 17139
founded 17137
definition 17113
detail 17111
guidance 17109
wonder 17107
sick 17102
none 17098
apart 17089
tons 17083
sweet 17083
fighting 17077
equivalent 17075
ess@@ 17073
threat 17062
Qu@@ 17038
deeply 17033
bil@@ 17029
considerable 17029
york 17027
attract 17009
sample 17008
detailed 17006
referred 16996
executives 16990
aware 16980
disclosed 16963
constant 16955
host 16953
ire 16950
careful 16947
offered 16942
q@@ 16925
managers 16912
identify 16909
calling 16907
ace 16907
sed 16903
transport 16903
LTE 16894
H 16884
iness 16868
options 16858
dress 16844
losing 16841
john 16840
tively 16836
exports 16830
alive 16824
cutting 16817
sy 16815
yield 16809
carefully 16808
audience 16790
housing 16790
Conference 16751
Ac@@ 16733
naturally 16731
decrease 16722
topic 16715
structural 16709
aim 16705
cer@@ 16696
surgery 16693
ff@@ 16685
respond 16671
ick@@ 16670
NT 16665
ung 16663
helping 16650
expanded 16647
camp 16631
ech@@ 16623
anc@@ 16621
oma 16621
walking 16619
rid 16610
improves 16607
squ@@ 16593
concentration 16592
command 16591
aff@@ 16587
USB 16581
400 16581
grade 16578
estate 16574
ening 16567
relative 16563
17@@ 16562
ish@@ 16557
thy 16557
automobiles 16553
records 16550
existence 16539
ax@@ 16531
proved 16510
strategies 16505
sec@@ 16499
Col@@ 16493
programme 16482
enemy 16476
loved 16466
length 16462
hyper@@ 16460
ged 16453
GPU 16448
HD 16444
fit 16442
ica 16433
decide 16421
Di@@ 16416
zing 16412
thr@@ 16412
library 16399
trip 16386
laboratory 16377
trac@@ 16376
Chang@@ 16371
copy 16363
certification 16345
pilot 16340
industrialization 16335
hello 16334
measuring 16312
hoping 16308
bal@@ 16304
throw 16298
kin@@ 16296
ious 16294
providers 16274
pur@@ 16273
latter 16272
Trans@@ 16270
radi@@ 16248
ny 16241
freedom 16228
explained 16227
ys 16224
valuable 16220
toward 16220
bandwidth 16219
hol@@ 16216
thesis 16207
enables 16205
OS 16205
delay 16204
hang 16191
alliance 16187
female 16182
jiang 16171
ce 16170
europe 16170
circle 16158
priority 16158
broad 16146
thousand 16143
race 16142
tre@@ 16140
displays 16140
tight 16135
mer 16127
ination 16125
budget 16119
75 16118
ham@@ 16115
sha@@ 16113
9.@@ 16107
totally 16105
desktop 16085
shift 16084
29 16084
deputy 16081
directors 16081
closer 16069
networking 16055
filter 16040
batch 16037
generate 16036
apple 16036
difficulty 16034
hundred 16033
precision 16027
horse 16024
ecosystem 16021
vo@@ 16020
Glory 16019
30@@ 16018
ships 16013
tes 16005
treat 16003
ban@@ 15999
tv 15997
registered 15983
coverage 15976
absolutely 15972
fe@@ 15957
tis 15956
structures 15955
shoot 15953
union 15952
acc@@ 15939
goals 15937
fifth 15936
ited 15921
IC@@ 15914
eness 15904
mixed 15887
yl 15885
soul 15879
integrates 15879
concerns 15861
wire 15841
flu@@ 15837
majority 15832
Bluetooth 15828
fundamental 15819
satellite 15817
OPPO 15816
designs 15814
compatible 15806
yn@@ 15799
fee 15798
fill 15791
shared 15781
form@@ 15781
feelings 15773
carrying 15752
Ziguang 15749
Display 15748
restructuring 15743
Communications 15735
covering 15723
tically 15708
ack 15707
compound 15703
acy 15703
monthly 15699
Ji@@ 15692
Pol@@ 15689
tom@@ 15679
ads 15672
extended 15665
threshold 15664
fly 15660
elling 15649
football 15649
trends 15648
headquarters 15648
ography 15647
Management 15644
village 15642
ears 15633
climate 15623
Chengdu 15620
hall 15615
loc@@ 15615
yang 15611
FPGA 15608
electro@@ 15608
teams 15603
bul@@ 15602
ster@@ 15600
meter 15598
faces 15594
framework 15593
sharply 15578
uring 15563
bit@@ 15562
Television 15561
ome 15556
Lighting 15555
ana 15552
miles 15548
arrived 15538
4.@@ 15530
accepted 15528
justice 15528
consecutive 15518
ceremony 15507
We@@ 15491
sight 15489
ancy 15488
glasses 15483
diseases 15483
transition 15479
advice 15478
grown 15470
cho@@ 15468
mac@@ 15467
procedure 15466
ony 15452
offers 15446
introduces 15441
zed 15438
Infineon 15437
sted 15434
ride 15433
context 15429
japan 15425
assessment 15423
Jin@@ 15422
commission 15422
branch 15416
dual 15410
Amazon 15405
measured 15404
ban 15403
Director 15389
mistake 15386
Bo@@ 15381
suggested 15379
dominant 15377
doctors 15374
lots 15370
breaking 15363
wal@@ 15361
calculation 15349
inal 15339
taste 15333
ford 15330
shouldn 15322
quiet 15308
telephone 15291
Dis@@ 15286
static 15279
claims 15269
Engineering 15268
pul@@ 15267
tired 15264
virus 15259
def@@ 15252
super 15244
detect 15237
tube 15237
generated 15237
meant 15222
servers 15214
milk 15212
ward 15203
remove 15192
interactive 15191
bing 15189
cat@@ 15188
glad 15186
dly 15174
wonderful 15172
ath@@ 15171
0 15171
attempt 15159
land@@ 15158
protein 15157
da@@ 15146
conferencing 15145
encourage 15142
eating 15139
fuck 15132
cheap 15130
extra 15129
breakthroughs 15123
Xin@@ 15113
corner 15103
cross 15098
amazing 15079
sti@@ 15072
maker 15061
predicted 15048
print 15044
comfortable 15040
seat 15036
suggest 15035
ne 15033
nor@@ 15011
participants 15003
schedule 15000
weapons 14999
lived 14999
photo 14997
tered 14996
25@@ 14995
Western 14990
defense 14982
fashion 14978
ur 14966
ading 14965
distributed 14965
rel@@ 14963
Changhong 14952
suffered 14949
ices 14946
centre 14941
ours 14935
fans 14933
breakfast 14923
till 14923
techniques 14921
exposed 14918
BYD 14909
finding 14908
quarters 14905
election 14904
finish 14902
imports 14901
pool 14899
fat 14893
ta 14891
hearing 14890
ition 14886
usion 14879
decisions 14875
wealth 14862
600 14853
consideration 14853
ences 14852
Per@@ 14851
proud 14841
sin@@ 14839
Par@@ 14839
supervision 14833
procedures 14831
express 14828
feedback 14823
predicts 14821
atmosphere 14809
theme 14800
elled 14797
unified 14793
mountain 14784
follows 14782
movies 14779
lucky 14771
ya 14768
cope 14768
draw 14768
theoretical 14766
filled 14766
acts 14758
forest 14746
turns 14743
fil@@ 14739
church 14731
remained 14705
logistics 14703
Party 14702
strange 14689
ational 14686
Education 14674
yours 14668
currency 14665
promised 14653
Economic 14652
tly 14652
Integrated 14651
Baidu 14651
murder 14650
dust 14640
covers 14639
wil@@ 14634
speaker 14630
attractive 14628
anybody 14621
fur@@ 14620
interference 14613
conduct 14609
yellow 14607
merger 14603
Ne@@ 14601
moon 14592
vast 14587
imported 14586
newly 14578
Manager 14577
charges 14569
imaging 14558
seize 14556
select 14543
paying 14530
pos@@ 14530
wedding 14527
Based 14520
impl@@ 14519
reflect 14519
productivity 14514
danger 14510
German 14505
hy@@ 14501
cat 14497
lunch 14493
aries 14491
Taiwanese 14477
zero 14476
Circuit 14476
bre@@ 14476
acquire 14452
gene 14450
tun@@ 14450
anywhere 14448
employment 14443
itation 14440
defined 14437
stupid 14437
matters 14426
row 14420
water@@ 14409
comment 14408
ee 14398
bol@@ 14398
everywhere 14393
ual 14392
mention 14382
Silicon 14381
photos 14372
prepare 14369
stood 14367
estimates 14360
Rec@@ 14354
urgent 14351
concrete 14343
contents 14341
keys 14338
sun@@ 14337
characters 14335
observe 14334
ine@@ 14332
suit 14328
oid 14326
55 14316
interconnection 14301
char@@ 14288
1000 14285
incident 14284
top@@ 14279
DC 14274
agents 14270
mol@@ 14269
talks 14265
represented 14254
earthquake 14254
tim@@ 14252
infection 14246
mid@@ 14243
ease 14237
For@@ 14235
manner 14234
figures 14219
lawsuit 14218
mining 14215
shell 14212
rent 14210
definitely 14209
Ma@@ 14191
novel 14191
aid 14190
feels 14178
tra@@ 14177
reflected 14173
license 14153
mergers 14149
purchased 14141
tle 14140
ever@@ 14140
firms 14138
european 14136
stocks 14131
50@@ 14129
parallel 14123
Gree 14120
deployment 14118
surprise 14108
Philips 14099
tivity 14094
duty 14078
empty 14072
frequently 14065
draft 14049
ick 14039
any@@ 14037
inch 14029
occur 14018
survive 14013
secure 14012
district 14008
amp@@ 14005
bet 13988
bio@@ 13980
iled 13979
composed 13974
li 13973
performed 13970
male 13962
s. 13961
tissue 13958
meat 13951
favorite 13949
wor@@ 13948
Wu 13941
reputation 13937
fuselage 13920
den 13910
injury 13902
root 13898
ii 13895
london 13894
watches 13886
operator 13884
Park 13882
phot@@ 13881
strict 13875
button 13875
exp@@ 13862
reflects 13862
producing 13857
spectrum 13852
Global 13850
decade 13848
East 13846
Th@@ 13838
discovered 13837
bri@@ 13837
studying 13833
vis@@ 13830
aspect 13827
nm 13821
storm 13821
AC 13820
uni@@ 13816
conflict 13808
wing 13806
holds 13798
relation 13794
creation 13792
independently 13786
investigated 13777
shoes 13776
chose 13775
restaurant 13774
oned 13772
new@@ 13766
ros@@ 13766
count 13757
bat@@ 13752
french 13751
AR 13744
originally 13744
lake 13738
rac@@ 13733
Indian 13732
lens 13731
desire 13727
campaign 13721
printed 13721
happiness 13716
RF 13714
saved 13714
replacement 13713
owner 13708
optimize 13702
5.@@ 13695
tough 13688
garden 13688
decades 13683
ive 13683
2019 13679
herself 13679
mit@@ 13678
persons 13669
ular 13654
Digital 13650
accelerated 13647
warning 13644
fan 13643
ultimately 13642
ranks 13641
fun@@ 13629
formally 13627
enhanced 13627
ger@@ 13622
conducted 13621
ll@@ 13620
runs 13614
route 13611
formal 13611
ene 13591
* 13590
literature 13589
houses 13587
illegal 13579
sym@@ 13579
meets 13574
AT@@ 13568
ther 13567
complicated 13566
lat@@ 13564
sign@@ 13555
vendors 13550
idi@@ 13543
controlling 13543
40@@ 13542
accurately 13542
cos@@ 13541
contribution 13541
manufactured 13535
risen 13534
adjusted 13530
nan@@ 13514
od 13513
forever 13506
blow 13497
damn 13493
focuses 13489
protocol 13488
circumstances 13485
agencies 13483
worst 13479
licensing 13477
agricultural 13465
lam@@ 13462
ws 13457
Ru@@ 13454
stories 13449
reverse 13448
managed 13442
spr@@ 13437
bling 13437
represents 13436
passive 13436
penetration 13436
by@@ 13433
recognize 13429
silver 13429
ier 13428
degrees 13427
identity 13426
roll 13418
arity 13414
funny 13404
ple 13402
communicate 13400
painting 13388
linear 13385
TD 13379
ental 13375
tiv@@ 13374
ak 13371
meetings 13360
association 13357
consistent 13355
fastest 13354
pair 13354
lying 13343
stars 13341
ori@@ 13337
PC@@ 13331
quantity 13329
Bank 13322
recording 13322
declining 13320
marks 13309
moral 13308
Im@@ 13299
tives 13299
ourselves 13298
lowest 13296
hidden 13293
ty@@ 13291
Bureau 13291
prevention 13289
apped 13287
friendly 13287
walked 13285
lim@@ 13281
atic 13278
oning 13274
ordered 13270
1.5 13269
affairs 13268
africa 13266
tend 13261
minimum 13258
gift 13252
ements 13251
founder 13251
ide@@ 13249
institute 13247
honey 13236
Investment 13235
angry 13231
tracking 13224
ug@@ 13223
inevitable 13222
ure@@ 13216
county 13215
emergence 13214
hai 13211
stages 13210
steadily 13209
honor 13197
Huang 13196
Guo 13193
sat 13181
invited 13178
absolute 13176
School 13173
Sun 13171
receiving 13171
facts 13165
gran@@ 13147
dollar 13146
positions 13131
Innovation 13128
dr. 13120
ink 13115
observation 13098
overcome 13094
predict 13091
somewhere 13089
properly 13087
grasp 13085
steady 13082
dar@@ 13081
soldiers 13076
strongly 13070
ising 13067
guests 13065
inevitably 13064
prime 13059
affecting 13056
presence 13056
spokesman 13052
oun@@ 13048
puts 13043
counter@@ 13042
accumulation 13042
occupy 13038
prison 13037
hardly 13036
Ericsson 13022
creative 13015
District 13013
heads 13011
authorized 13010
bor@@ 13009
collect 13007
depth 13006
wild 12994
inner 12993
wi@@ 12989
10,000 12984
ore@@ 12982
Hong@@ 12980
seconds 12978
Microelectronics 12975
magic 12974
36 12972
false 12962
wafers 12958
black@@ 12956
ens@@ 12950
hybrid 12948
infrared 12942
cra@@ 12937
mic@@ 12936
indicators 12935
amplifier 12933
ker@@ 12931
grand 12927
repair 12911
golden 12900
subsidy 12897
izes 12891
dra@@ 12884
ole 12882
ust 12882
contain 12877
sor@@ 12865
drivers 12859
Dell 12857
800 12855
ishing 12854
served 12853
are@@ 12847
superior 12847
ici@@ 12842
border 12841
academic 12835
ification 12833
ame 12831
drawing 12830
sch@@ 12824
prof@@ 12816
proper 12814
dro@@ 12813
ari@@ 12812
calm 12809
injection 12802
dig@@ 12801
starts 12800
phil@@ 12797
ese 12789
whom 12788
pulled 12784
dian 12780
upgraded 12779
outdoor 12775
pulse 12772
install 12768
sites 12767
narrow 12767
Fu@@ 12767
pin 12765
refers 12760
likes 12744
conf@@ 12742
experiments 12742
RMB 12741
jack 12740
U 12736
airport 12734
thoughts 12729
— 12728
vote 12726
popularization 12721
NEC 12718
Yu@@ 12717
extend 12715
Core 12708
gal@@ 12707
ff 12705
strengthening 12698
awareness 12691
tide 12686
commitment 12683
customized 12677
bird 12675
connector 12671
gro@@ 12666
concepts 12665
2002 12655
negotiations 12649
fail 12649
rap@@ 12646
assistant 12644
charged 12643
mag@@ 12641
teach 12640
classroom 12636
anda 12634
boost 12633
manufacture 12633
polycrystalline 12631
individuals 12630
Skyworth 12626
federal 12625
cup 12622
smoke 12611
smile 12610
ach 12606
ham 12605
provisions 12602
identified 12597
complexity 12595
150 12593
victim 12589
bun@@ 12581
older 12578
height 12577
subsidiary 12571
heavily 12571
sad 12570
shock 12564
Zhao 12560
british 12558
alternative 12558
vol@@ 12554
boom 12553
apparently 12545
intr@@ 12543
oph@@ 12533
ich@@ 12530
classes 12523
locked 12519
operational 12518
guard 12515
Zh@@ 12514
24@@ 12513
disaster 12499
han 12497
asia 12495
exc@@ 12495
6.@@ 12490
cast 12488
campus 12487
observed 12487
strive 12485
jesus 12476
keeps 12475
southern 12474
1,000 12473
makers 12473
kitchen 12471
messages 12469
tail 12468
presents 12466
patterns 12465
recession 12463
Academy 12461
Nan@@ 12459
dedicated 12459
Texas 12458
compare 12456
jump 12453
captain 12452
reserve 12450
newspaper 12448
Alliance 12437
bo 12434
unfortunately 12423
weekend 12421
preliminary 12416
ful@@ 12413
killer 12409
terrible 12406
programming 12405
distributors 12403
occupied 12401
Si@@ 12400
micro 12397
filed 12397
wisdom 12397
He@@ 12391
Administration 12390
MHz 12386
sensing 12380
completion 12378
sem@@ 12376
one@@ 12373
composition 12372
birds 12370
powder 12369
weren 12360
killing 12359
Central 12359
xing 12358
Haier 12344
films 12342
bes 12342
win@@ 12339
ams 12338
bla@@ 12337
Wen@@ 12331
ades 12329
ben@@ 12323
British 12323
dear 12315
seeking 12304
fix 12303
lets 12302
scheduled 12299
Project 12290
faith 12286
eg@@ 12285
doors 12275
produces 12274
investing 12268
iv@@ 12268
maturity 12267
acute 12266
Phone 12263
genetic 12259
dri@@ 12257
IDC 12243
competing 12232
snow 12232
compl@@ 12230
Nor@@ 12226
nerve 12226
95 12223
offering 12222
delivered 12220
Asian 12219
examples 12216
notes 12207
ending 12204
ign@@ 12195
capable 12190
concentrated 12187
extreme 12187
sugar 12182
ye 12182
indicate 12180
weapon 12179
Yu 12174
ect 12172
&apos;an 12169
extensive 12163
participation 12162
spare 12160
bon@@ 12156
eu@@ 12155
foot@@ 12154
conventional 12149
baseband 12147
colors 12145
listening 12143
entirely 12141
belongs 12134
– 12133
option 12132
blind 12130
Red 12129
sudden 12128
articles 12122
honest 12119
registration 12118
Ha@@ 12117
enc@@ 12116
normally 12109
proposal 12108
monopoly 12101
ential 12101
continuing 12094
ali@@ 12091
decreased 12089
participated 12085
prominent 12084
ication 12082
gener@@ 12081
employee 12080
evil 12078
sters 12077
Commerce 12075
asset 12074
unprecedented 12071
thickness 12069
ip 12068
organized 12067
session 12065
judgment 12064
contrary 12055
hem@@ 12053
categories 12051
carrier 12041
introducing 12040
lev@@ 12039
shooting 12030
ell 12020
tal 12012
arch@@ 12011
fac@@ 12003
qualified 12001
owners 11996
spoke 11989
hasn 11989
rer 11989
bid 11989
Su@@ 11986
48 11974
confident 11965
generations 11962
versions 11957
salt 11952
desk 11952
universal 11951
York 11946
chair 11944
closing 11943
violence 11940
ges 11937
Pre@@ 11937
SoC 11933
GPS 11933
flying 11931
cro@@ 11928
iOS 11926
ank 11925
tis@@ 11921
mos@@ 11919
yu 11910
intention 11906
attached 11896
missed 11895
emerged 11894
appreciate 11891
wr@@ 11877
Huaqiang 11877
soci@@ 11876
consists 11872
beings 11870
Radio 11868
capacitors 11868
drinking 11865
temporary 11864
33 11861
stressed 11860
commonly 11857
represent 11857
specified 11847
Gr@@ 11844
stream 11844
hoped 11841
lawyer 11840
GHz 11839
Control 11833
oral 11830
demonstrated 11826
alarm 11822
survival 11820
Res@@ 11816
annually 11810
remaining 11807
neuro@@ 11807
aling 11805
eth@@ 11795
attacks 11794
walls 11793
CES 11792
Dong@@ 11783
ultimate 11779
struggle 11777
ownership 11776
specifically 11775
secretary 11774
unknown 11774
tering 11773
humans 11772
procurement 11770
feed 11770
instructions 11769
hu 11767
opinions 11765
initiative 11764
sto@@ 11760
cake 11758
atten@@ 11754
lar@@ 11752
Ad@@ 11750
py 11741
dreams 11740
pic@@ 11732
insufficient 11732
waves 11731
transferred 11731
indicates 11727
holiday 11726
ji 11723
Hisense 11704
In 11692
AR@@ 11691
comments 11688
oring 11687
proof 11686
sufficient 11682
favor 11681
displayed 11680
excessive 11676
neck 11673
noted 11673
visited 11671
luck 11671
bel@@ 11661
eless 11658
appeal 11657
parking 11655
converter 11654
tremendous 11647
Wuhan 11639
u.s. 11637
rats 11636
Government 11634
wise 11632
ometer 11628
noticed 11627
controls 11617
surveillance 11616
Min@@ 11614
mail 11611
tism 11608
obama 11606
birthday 11605
partnership 11603
nanometer 11601
ST@@ 11601
liver 11595
biological 11586
2001 11579
zz@@ 11577
conversation 11574
speakers 11568
matic 11568
chosen 11565
prefer 11563
comfort 11560
modes 11559
sions 11557
spl@@ 11553
AD@@ 11553
picked 11552
ures 11549
cop@@ 11545
nec@@ 11545
eliminate 11545
semiconductors 11535
op 11534
dealing 11528
God 11519
representatives 11515
van@@ 11514
aded 11512
surprised 11510
armed 11507
usage 11496
Xu 11495
oxide 11485
itor 11484
mate 11484
convenience 11476
remarkable 11476
rumors 11476
pleasure 11474
update 11468
aimed 11468
verification 11458
satisfied 11455
accelerating 11455
machinery 11450
fol@@ 11446
escape 11446
jun 11439
human@@ 11430
permanent 11426
shan 11425
returns 11424
muscle 11422
Q 11421
tru@@ 11421
vibration 11418
teeth 11418
Olympic 11417
promising 11408
exposure 11394
read@@ 11393
wheel 11384
att@@ 11379
conducive 11373
ack@@ 11361
category 11360
Data 11357
dle 11354
hard@@ 11348
medi@@ 11343
inflation 11341
politics 11338
swe@@ 11337
blo@@ 11334
wake 11331
cleaning 11331
10.@@ 11330
explosion 11328
Cor@@ 11328
ulation 11327
feng 11323
wid@@ 11323
vivo 11320
christmas 11317
falls 11315
electromagnetic 11311
arg@@ 11311
med@@ 11309
No. 11308
Office 11303
heating 11295
suffer 11294
Law 11294
prior 11293
Securities 11289
mad 11289
kets 11288
letters 11285
moves 11282
pushed 11281
MEMS 11277
dominated 11277
scared 11270
involves 11268
High 11267
amed 11263
acted 11260
aims 11259
lit@@ 11249
exciting 11246
38 11245
dissipation 11244
salary 11244
offices 11240
GB 11240
Tian@@ 11237
tures 11233
split 11233
Section 11232
bidding 11232
cli@@ 11232
ple@@ 11223
Youda 11219
Meguiar 11215
colleagues 11214
exploration 11200
7.@@ 11200
cuts 11195
indicated 11195
hypo@@ 11191
sty 11187
transform 11186
downturn 11184
adapt 11182
describe 11180
mouse 11177
80@@ 11174
winning 11174
timely 11174
anger 11164
zation 11159
allowing 11158
relying 11152
ocean 11150
Ro@@ 11149
reg@@ 11135
usual 11129
Gartner 11126
hide 11124
burden 11123
err@@ 11119
agriculture 11116
fire@@ 11113
aps 11110
dogs 11110
chicken 11109
sees 11108
submitted 11103
Council 11103
lif@@ 11102
shareholder 11101
brilliant 11099
Dong 11096
choices 11093
estimate 11090
lin 11090
smoothly 11087
jie 11085
japanese 11085
belong 11076
streets 11074
vigorously 11074
aud@@ 11073
thick 11072
removed 11071
india 11068
attended 11067
youth 11067
citizens 11066
firstly 11061
capacitor 11058
initially 11058
Tencent 11054
mi@@ 11047
separated 11046
iSuppli 11043
papers 11037
AM@@ 11037
click 11034
practices 11029
wel@@ 11027
mal 11026
sensitivity 11021
Shi@@ 11020
indoor 11015
residents 11014
yst@@ 11014
compact 11010
deliver 11004
nervous 11003
landscape 11002
adopts 11002
claimed 10986
compatibility 10986
tiny 10977
optimized 10976
preparing 10976
entrance 10975
.. 10972
nose 10970
ney 10965
powers 10963
rational 10961
grab 10960
AN@@ 10954
euros 10948
ton@@ 10946
vari@@ 10946
title 10945
Hua@@ 10941
cam@@ 10939
apartment 10939
extension 10929
run@@ 10928
duc@@ 10928
contribute 10926
Pro 10924
philosophy 10916
lab@@ 10915
personality 10914
planet 10903
burn 10902
item 10896
courses 10893
oxygen 10891
oss 10890
Chongqing 10889
algorithms 10887
sand 10885
smell 10882
engineer 10882
28@@ 10877
finger 10874
tai 10873
tells 10866
settlement 10863
intensity 10861
sheet 10861
victims 10860
dish 10854
ain@@ 10849
format 10844
poverty 10844
afford 10842
scenarios 10841
Products 10840
belt 10836
causing 10835
fewer 10828
northern 10828
psych@@ 10827
abandoned 10825
israel 10823
ption 10821
ka 10821
perfectly 10816
nevertheless 10810
clients 10808
description 10796
ae 10793
religious 10792
bases 10784
aer@@ 10782
landing 10780
42 10780
Jian@@ 10777
legs 10777
download 10774
Un@@ 10773
agreements 10760
visitors 10760
peripheral 10755
Union 10755
pun@@ 10747
Ta@@ 10746
iter@@ 10746
conditioning 10744
fro@@ 10742
sup@@ 10742
loan 10740
ath 10740
People 10732
logical 10723
occurred 10722
mutual 10721
dies 10720
ible 10712
ware 10711
helpful 10705
sum 10703
telecom 10698
liked 10692
sum@@ 10691
Mon@@ 10689
reaches 10685
troops 10684
massive 10683
possibly 10682
owned 10679
largely 10677
relief 10674
Zhou 10674
affects 10674
suggests 10671
suffering 10671
relationships 10670
liber@@ 10669
wo@@ 10667
spo@@ 10666
iling 10657
damaged 10654
ID 10653
spar@@ 10649
homes 10644
hurry 10642
suggestions 10641
eggs 10638
ata 10635
entrepreneurs 10627
onal 10626
republic 10621
molecular 10620
adds 10618
Jobs 10615
interfaces 10608
ums 10607
ature 10607
ut 10606
CMOS 10605
sustained 10601
transparent 10600
scar@@ 10599
hui 10597
nee@@ 10595
profitable 10591
bled 10591
enthusiasm 10591
protective 10589
ners 10586
Municipal 10578
mul@@ 10575
shadow 10574
Automobile 10571
maintaining 10569
Jing@@ 10566
tations 10565
mistakes 10562
marked 10561
Congress 10561
ha 10560
choosing 10559
substrate 10556
hun@@ 10555
ined 10550
supplies 10550
Stock 10545
journey 10544
provinces 10542
exclusive 10541
demands 10539
recommended 10539
curve 10537
necessarily 10534
drives 10527
jing 10525
windows 10523
essence 10523
ous@@ 10521
Exchange 10516
chronic 10513
cel@@ 10513
Nanjing 10509
leg 10505
pen 10501
Xia@@ 10499
extr@@ 10495
award 10494
pursuit 10489
000 10484
apping 10481
translation 10481
igh@@ 10477
Method 10477
grav@@ 10477
beach 10477
Se@@ 10473
instance 10472
errors 10472
clo@@ 10466
ented 10463
13.@@ 10462
delayed 10461
pack 10450
ural 10443
bles 10438
Factory 10437
matrix 10433
debate 10433
regarding 10430
transistors 10428
Wall 10427
eli@@ 10420
exists 10414
Jiangsu 10411
opposite 10410
brown 10409
connectors 10408
passenger 10404
billions 10404
thin@@ 10399
cheaper 10398
uniform 10393
na 10393
dramatically 10384
laptops 10374
tual 10370
nit@@ 10370
precise 10363
synthesis 10357
chains 10357
march 10354
DNA 10350
calculated 10349
spec@@ 10348
truck 10332
2.5 10331
collected 10331
u. 10326
tan@@ 10326
flower 10321
tile 10317
360 10317
Freescale 10317
ush@@ 10315
bin 10310
8.@@ 10308
meal 10305
frequent 10303
holes 10295
washing 10294
joy 10293
stored 10293
offline 10291
writer 10289
branches 10288
dness 10287
cri@@ 10287
experiences 10283
provincial 10281
coat 10275
yp@@ 10271
UAV 10269
gradual 10267
harm 10267
securities 10265
bow@@ 10262
ft 10261
85 10260
array 10257
IS@@ 10255
acceptance 10253
ticket 10252
environments 10251
quar@@ 10249
stro@@ 10247
succeed 10244
stuck 10241
roc@@ 10241
gra@@ 10240
34 10233
promotes 10233
pin@@ 10231
loans 10231
forum 10228
26@@ 10225
sla@@ 10225
hill 10224
officers 10224
ased 10222
discusses 10217
8.5 10217
rush 10217
balanced 10213
antenna 10213
magazine 10213
directions 10211
accused 10210
mad@@ 10200
acceleration 10198
im 10192
collaboration 10189
tone 10179
profitability 10177
chi@@ 10177
accessories 10174
crowd 10170
victory 10169
mic 10160
Tianjin 10160
Street 10158
tradition 10156
cher 10154
pil@@ 10149
kar@@ 10145
economies 10143
ida 10141
kil@@ 10140
hereinafter 10135
nic@@ 10135
Beidou 10125
namely 10124
11.@@ 10122
score 10122
grain 10121
banking 10117
forth 10115
abundant 10107
ind@@ 10105
involving 10105
knowing 10103
roof 10096
provider 10094
ce@@ 10093
ins@@ 10092
dering 10091
cry 10088
symptoms 10088
refused 10088
suppose 10086
ashed 10085
mood 10084
combining 10076
spots 10071
witness 10066
layers 10064
composite 10064
brief 10063
Jia 10063
manual 10062
EC@@ 10061
admit 10059
arm@@ 10059
California 10055
viewing 10052
roads 10047
eling 10046
beam 10044
queen 10043
Micro@@ 10037
responded 10036
depend 10035
parameter 10035
france 10030
brea@@ 10028
ei@@ 10025
prosperity 10023
rescue 10021
surely 10017
territory 10015
ladies 10015
numerous 10014
domain 10009
ba 10006
qi 10004
habits 10004
Sch@@ 10002
pop@@ 10002
Daily 10001
teen 10000
eti@@ 9997
particles 9994
Electrical 9992
repeatedly 9987
ises 9978
tourism 9974
60@@ 9971
recycling 9971
ained 9969
raising 9968
mrs. 9968
700 9967
designing 9963
stat@@ 9956
real@@ 9955
sending 9954
burning 9950
linked 9949
plenty 9949
Fund 9942
emotional 9933
stake 9933
passing 9931
sleeping 9924
parent 9920
boxes 9917
anch@@ 9916
amp 9913
courage 9913
integrity 9912
eastern 9911
importantly 9909
personally 9901
DSP 9897
pump 9896
fu 9891
wet 9889
invention 9889
loading 9886
Cisco 9884
define 9879
tom 9876
happening 9876
pay@@ 9875
crucial 9874
64 9869
Ph@@ 9864
adult 9861
mark@@ 9860
alities 9857
Kirin 9855
gained 9854
attend 9853
prototype 9853
substantial 9852
long@@ 9849
ID@@ 9846
12.@@ 9844
met@@ 9841
ought 9841
surrounding 9841
IN@@ 9840
bly 9838
sealing 9832
Trade 9831
alist 9828
tal@@ 9828
whenever 9827
nodes 9827
ron 9827
sells 9822
tian 9817
wider 9817
localization 9816
connections 9815
Bi@@ 9808
targets 9806
strengthened 9806
sentence 9803
applying 9802
watched 9801
separation 9800
grass 9795
Huaxing 9780
ee@@ 9780
pipe 9779
conclusions 9777
SM@@ 9772
ate@@ 9770
origin 9768
marry 9764
indispensable 9761
Facebook 9759
ode 9758
occurs 9756
stu@@ 9755
sin 9751
tin@@ 9747
schemes 9746
satisfaction 9741
Model 9729
farmers 9728
ome@@ 9728
grand@@ 9720
ra 9719
psychological 9716
Times 9712
dying 9711
pages 9711
tie 9709
accumulated 9704
combine 9703
tour 9695
ographic 9687
rough 9684
checked 9684
sle@@ 9683
cooperative 9683
regulatory 9682
ball@@ 9682
carries 9678
thro@@ 9675
specially 9672
37 9672
capture 9665
purposes 9664
marine 9662
modified 9662
ound 9661
intends 9661
radar 9657
integrating 9654
cinema 9649
rid@@ 9649
strike 9643
certificate 9643
Delta 9640
CO@@ 9635
privacy 9634
containing 9634
fate 9634
shanghai 9633
self 9631
excited 9630
hear@@ 9624
bus@@ 9619
barriers 9617
Be@@ 9614
treating 9613
Forum 9610
intense 9608
Games 9604
speci@@ 9602
beer 9598
mus@@ 9596
disputes 9594
paint 9594
recover 9589
tain 9589
app@@ 9587
analyzing 9585
aches 9579
settled 9579
dependence 9578
blame 9575
delegation 9573
russia 9572
mountains 9572
dispute 9570
connecting 9569
Instruments 9567
xi 9563
substrates 9555
RFID 9553
enter@@ 9549
fluid 9546
ans@@ 9543
random 9542
mirror 9541
customs 9537
recorded 9537
classification 9536
dia 9535
rob@@ 9535
aming 9533
Appliances 9531
51 9528
50,000 9518
As@@ 9517
mun@@ 9512
arrival 9510
cooling 9508
fired 9508
kin 9506
set@@ 9505
14.@@ 9503
chemistry 9500
explanation 9493
Singapore 9490
effectiveness 9488
bottle 9488
ron@@ 9486
inqu@@ 9481
but@@ 9480
explosive 9474
tape 9471
No@@ 9470
objectives 9469
ately 9464
welding 9462
smo@@ 9459
coordination 9458
Valley 9457
ail@@ 9457
hydrogen 9453
cores 9452
imagination 9450
play@@ 9450
clothing 9445
node 9443
d. 9438
leg@@ 9436
tar@@ 9432
david 9430
mas@@ 9425
dude 9422
weird 9421
infringement 9417
Equipment 9416
brothers 9415
Win@@ 9414
eing 9414
Y 9411
handling 9407
ast@@ 9403
mix 9400
taught 9396
00@@ 9389
cheng 9389
nar@@ 9384
meth@@ 9382
describes 9380
mod@@ 9379
15.@@ 9378
tears 9373
pot 9370
transactions 9369
specification 9368
convention 9366
heaven 9366
destroy 9359
solving 9358
Cool 9353
ress 9352
execution 9347
igg@@ 9347
strictly 9343
ST 9343
PM@@ 9343
dare 9343
tac@@ 9342
quarterly 9340
Op@@ 9333
ep 9332
Siemens 9327
sing@@ 9319
organs 9318
Xi 9314
variable 9313
hot@@ 9311
ken 9310
breath 9310
Har@@ 9307
firmly 9306
phen@@ 9305
yed 9302
Sciences 9300
intended 9298
52 9298
ify 9297
labour 9295
ger 9292
coding 9290
combines 9290
mechanisms 9284
Corporation 9283
reporting 9282
46 9281
tumor 9276
guest 9267
ich 9267
ef@@ 9262
pose 9262
120 9258
wan@@ 9257
programmes 9256
cou@@ 9254
situations 9248
son@@ 9245
excess 9245
unto 9240
mist@@ 9239
mot@@ 9235
pit@@ 9234
legislation 9233
influenced 9230
lesson 9227
with@@ 9225
France 9222
argument 9222
programmable 9221
cour@@ 9220
Kangjia 9212
reviewed 9210
serial 9208
ik@@ 9206
ric@@ 9203
1,@@ 9195
assist 9193
trigger 9191
bankruptcy 9187
sequence 9185
defects 9183
discharge 9183
alcohol 9173
ician 9171
facilitate 9171
visible 9170
Guang@@ 9170
Suzhou 9169
SP@@ 9165
43 9165
suspect 9160
statements 9159
Manufacturing 9145
arranged 9145
establishing 9143
coun@@ 9141
arrangement 9139
americans 9135
bearing 9135
Moore 9132
sul@@ 9131
...... 9119
pon@@ 9116
limits 9113
log@@ 9110
replacing 9106
pursue 9106
ram@@ 9099
girlfriend 9099
OS@@ 9098
relax 9097
ia@@ 9093
you@@ 9092
britain 9092
dor@@ 9084
EU 9082
bond 9081
photography 9081
uncle 9081
Court 9078
coast 9077
Fl@@ 9077
49 9076
ella 9075
taxes 9075
achievement 9070
declared 9067
pers 9067
imp@@ 9058
Xi@@ 9054
Sichuan 9053
autumn 9042
analyses 9041
principal 9037
admitted 9037
Zhejiang 9032
buyers 9030
eas@@ 9030
Or@@ 9029
consensus 9025
qing 9022
destroyed 9015
Hy@@ 9014
bitch 9013
ame@@ 9012
ands 9010
ced 9007
languages 9004
summary 9003
contracts 9000
bits 8994
som@@ 8990
Ga@@ 8989
knife 8983
educ@@ 8981
dot 8980
acks 8980
immediate 8980
sof@@ 8979
discrete 8973
39 8973
ports 8968
transistor 8968
27@@ 8966
bread 8963
thereby 8961
horizontal 8959
Mac@@ 8959
restrictions 8952
mary 8951
russian 8949
confirm 8947
acr@@ 8946
hur@@ 8943
lab 8933
smoking 8933
exit 8929
sheng 8928
beg@@ 8927
sectors 8925
somewhat 8924
ysis 8922
ama 8921
Vi@@ 8919
itary 8917
achieving 8917
vital 8916
highway 8914
pricing 8912
stimulate 8909
standardization 8905
hair@@ 8905
emission 8904
walks 8903
allocation 8902
ison 8902
nom@@ 8898
washington 8896
Bar@@ 8893
xi@@ 8893
lor@@ 8891
ran@@ 8888
Africa 8887
consequences 8885
ble@@ 8882
column 8880
ino 8878
differential 8875
induced 8872
optimal 8871
laptop 8869
thou 8869
realization 8860
fed 8860
bers 8857
supplied 8857
consciousness 8853
person@@ 8852
AP@@ 8848
pt 8846
ection 8845
low@@ 8844
emphasized 8838
answers 8837
Air@@ 8836
formulation 8836
ix@@ 8835
til@@ 8830
scr@@ 8829
lift 8827
eve 8824
ols 8823
fingers 8821
symbol 8815
signing 8810
Zhi@@ 8809
ray 8809
chlor@@ 8808
Tsinghua 8805
surpassed 8799
glory 8797
pile 8796
lion 8787
Wei 8786
agenda 8784
Lin@@ 8783
designer 8781
rival 8781
simplify 8780
kno@@ 8777
breaks 8777
earn 8774
pushing 8772
sar@@ 8770
pet 8768
ek 8762
korea 8762
lessons 8759
contributions 8759
Sha@@ 8758
concentrate 8758
alists 8757
prospect 8756
ute 8756
entr@@ 8755
gy 8753
book@@ 8753
tension 8752
neural 8752
seed 8750
shortcomings 8745
sizes 8744
piles 8741
opposition 8741
cred@@ 8735
cin@@ 8735
trained 8732
swear 8731
settings 8731
Capital 8730
la 8730
ater@@ 8728
singing 8727
valve 8725
default 8725
ishes 8725
fortune 8723
emia 8715
tem@@ 8714
width 8713
surpass 8712
44 8712
pressing 8711
depression 8706
interpretation 8704
outs 8701
revolutionary 8700
Ge@@ 8697
timing 8697
grounds 8696
bottleneck 8694
scre@@ 8693
Luo 8692
ceramic 8690
dil@@ 8686
regardless 8682
pleased 8680
gear 8680
aiming 8678
nearby 8677
tains 8676
gam@@ 8675
worthy 8673
favorable 8672
vacuum 8670
47 8669
diversity 8667
quit 8667
dic 8666
ac 8666
deposit 8666
farm 8666
100,000 8663
impression 8663
stands 8658
concerning 8656
ian@@ 8655
extraction 8654
serving 8646
sam@@ 8646
younger 8645
hat 8644
rat 8641
dam@@ 8641
collapse 8639
Reform 8635
icity 8634
answered 8634
viol@@ 8633
filling 8624
amine 8617
Lu@@ 8614
rolling 8614
broad@@ 8612
conservation 8606
transformer 8606
II 8601
tible 8600
televisions 8599
rear 8589
theories 8588
diversified 8588
hero 8585
suff@@ 8584
log 8581
mice 8575
prov@@ 8574
comparable 8572
exceeding 8571
arts 8559
lea@@ 8554
py@@ 8551
hanging 8549
tel@@ 8545
ji@@ 8540
leakage 8536
direc@@ 8536
accordingly 8535
Po@@ 8533
Ren@@ 8529
qui@@ 8526
pac@@ 8525
initi@@ 8524
profound 8524
bush 8518
joining 8517
netizens 8517
refer 8517
mc@@ 8514
kiss 8510
ough@@ 8508
bonds 8498
incl@@ 8495
concluded 8493
Photoelectric 8492
skill 8491
subjects 8490
assume 8488
Chairman 8486
transmit 8483
hospitals 8482
crack 8480
bacteria 8480
quietly 8478
vers 8478
RAM 8476
hammer 8476
mess@@ 8472
microwave 8472
pot@@ 8470
wang 8467
harder 8467
yard 8465
weakness 8465
din@@ 8464
Am@@ 8462
ministry 8462
differentiation 8461
mess 8460
hood 8460
warned 8458
Mc@@ 8457
ecology 8452
rit@@ 8452
begins 8449
guilty 8447
berg 8445
laugh 8444
criticism 8442
jec@@ 8440
fake 8438
belief 8437
screw 8431
funding 8430
slight 8423
blocks 8423
Smart 8421
MediaTek 8415
instruction 8414
shoulder 8410
classic 8410
tall 8404
tower 8404
democratic 8394
ining 8391
creates 8383
pocket 8381
museum 8381
Russia 8379
finds 8378
unexpected 8377
hearts 8374
stem 8374
requiring 8369
Minister 8368
circulation 8367
earned 8366
distr@@ 8366
Yangtze 8363
kilometers 8360
gun@@ 8359
correlation 8358
dum@@ 8357
contributed 8355
praise 8343
announce 8341
io 8337
accidents 8336
settle 8333
profile 8333
reflection 8330
aching 8328
colour 8328
emphasis 8328
custom 8327
wit@@ 8326
loves 8326
wash 8326
diode 8324
deployed 8322
nation@@ 8321
a. 8319
pri@@ 8318
oms 8317
aside 8316
deb@@ 8314
com 8312
Pr@@ 8311
cute 8311
gathered 8308
string 8304
upset 8304
savings 8301
bot@@ 8295
Sub@@ 8292
16.@@ 8288
Broadcom 8287
amounts 8286
conservative 8285
ensuring 8285
lovely 8279
whis@@ 8279
hydr@@ 8278
bom@@ 8276
bud@@ 8274
england 8273
West 8271
plan@@ 8270
pir@@ 8270
obstacles 8268
fairly 8267
flow@@ 8266
UK 8266
whoever 8265
EM@@ 8263
universe 8259
rated 8257
sake 8254
PCs 8252
nanometers 8252
broadcast 8251
Effect 8249
dirty 8249
Br@@ 8248
portfolio 8247
cream 8244
hea@@ 8243
modeling 8242
stomach 8241
autonomous 8234
railway 8233
rivals 8232
videos 8232
shar@@ 8231
cultivation 8230
forgot 8229
utility 8225
Linux 8223
London 8221
constructed 8218
isolation 8217
rank 8216
expenses 8214
bomb 8213
repeated 8212
native 8212
Cloud 8212
drunk 8210
xiang 8206
burst 8205
suspected 8200
fle@@ 8200
participating 8199
depending 8198
deals 8198
ament 8196
sixth 8195
tter 8194
lands 8192
CS@@ 8189
investments 8188
deduc@@ 8185
pig@@ 8182
cluster 8180
nu@@ 8177
acqu@@ 8174
stri@@ 8170
expertise 8168
managing 8165
figured 8163
perception 8162
tip 8161
protected 8160
constraints 8158
friday 8157
itable 8155
dependent 8155
1.2 8153
luc@@ 8153
photo@@ 8151
88 8149
staying 8149
formulated 8149
develops 8147
pays 8145
phy@@ 8143
Hitachi 8141
antly 8140
membrane 8137
curved 8133
minim@@ 8133
orientation 8129
exception 8128
trace 8128
tionally 8127
prec@@ 8123
LGD 8122
constitu@@ 8122
formula 8121
PS@@ 8120
bec@@ 8118
emerge 8117
rad@@ 8115
chest 8108
facial 8106
sunday 8106
independence 8105
law@@ 8103
appreciation 8101
loads 8098
leaf 8097
ashes 8097
exact 8095
doubts 8094
eager 8094
switches 8093
unlikely 8090
fellow 8087
PS 8087
protecting 8086
Finance 8085
authorization 8082
receiver 8081
boyfriend 8079
similarly 8078
ank@@ 8078
ifying 8074
magne@@ 8073
ains 8073
swimming 8070
loose 8070
commodity 8068
involve 8067
Its 8067
insul@@ 8065
fracture 8064
Home 8064
gentlemen 8062
precisely 8061
jam@@ 8060
enormous 8060
Middle 8058
numerical 8058
shake 8058
enting 8055
adoption 8050
lar 8047
Blue 8041
jud@@ 8041
Vehicle 8041
eries 8039
encounter 8039
ere 8037
Note 8035
cook 8031
IM@@ 8030
idity 8030
tail@@ 8029
35@@ 8029
criteria 8029
collective 8028
ignored 8028
turnover 8027
festival 8024
show@@ 8024
silence 8023
41 8021
responsibilities 8020
municipal 8020
professionals 8020
realistic 8019
drawn 8019
holy 8018
tured 8015
germany 8011
label 8005
Lin 8005
diet 8000
preferred 7999
French 7998
Laboratory 7997
SO@@ 7997
Software 7997
disclose 7991
unt 7990
cus 7985
launching 7985
absence 7976
findings 7975
immune 7975
comparative 7974
detected 7974
shorten 7973
Dr. 7968
SC@@ 7967
tank 7967
fever 7966
daddy 7964
ali 7963
fei 7962
analyzes 7962
plates 7960
behalf 7960
regularly 7959
68 7959
Uni@@ 7953
waters 7952
readers 7951
partial 7948
george 7948
far@@ 7947
tele@@ 7946
lic@@ 7945
counter 7945
dium 7945
ith 7945
forgive 7941
CE@@ 7940
70@@ 7938
transformed 7937
publicly 7937
mes@@ 7936
ases 7936
nursing 7936
iss 7934
verse 7933
dozens 7932
disappeared 7932
improvements 7930
dol@@ 7929
statistical 7929
Platform 7926
So@@ 7926
organize 7924
ove 7922
pregnant 7919
MC@@ 7914
songs 7914
updated 7913
ied 7910
Xiamen 7908
email 7906
wound 7903
Web 7898
abandon 7897
institutes 7895
stepped 7895
commerce 7889
San@@ 7886
Ying@@ 7886
29@@ 7885
innocent 7885
IP@@ 7878
RA@@ 7878
Quality 7878
disrup@@ 7873
El@@ 7873
tain@@ 7871
tory 7868
eliminated 7866
encountered 7863
regulators 7860
register 7857
mA 7855
widespread 7855
tickets 7854
ston 7854
subsequent 7852
CT 7851
dered 7850
Jun@@ 7850
fishing 7849
hen@@ 7849
suspended 7847
arian 7845
arrest 7844
characterized 7844
dr 7844
20,000 7843
66 7843
tog@@ 7841
hon@@ 7841
edition 7837
fusion 7834
recommend 7834
hungry 7834
Financial 7832
ada 7826
surgical 7826
Nvidia 7826
michael 7824
tation 7820
centr@@ 7820
respective 7820
ensures 7817
bia 7816
rubber 7816
ater 7815
encies 7814
alizing 7814
surprising 7814
Marketing 7814
genes 7813
Fujitsu 7808
ord@@ 7808
routine 7806
entrepreneurship 7805
Cer@@ 7803
appointment 7803
countryside 7801
implementing 7801
elderly 7800
ogenic 7794
DS@@ 7793
shirt 7787
habit 7786
monetary 7785
enters 7784
asian 7784
outcome 7783
jumped 7780
s.@@ 7780
friendship 7773
Consumer 7772
correctly 7769
wan 7767
judicial 7766
cultivate 7766
june 7764
Au@@ 7764
minor 7761
highlight 7761
tab@@ 7759
Festival 7753
passengers 7751
economics 7747
arrested 7747
steal 7742
spiritual 7741
prediction 7740
packages 7739
wu 7738
Mi@@ 7738
equally 7737
rub@@ 7735
classical 7733
consultation 7732
prob@@ 7730
1994 7730
17.@@ 7722
withdraw 7716
Tra@@ 7716
tel 7715
enabling 7714
coating 7712
slowed 7712
fel@@ 7705
welfare 7703
touched 7696
CDMA 7696
illa 7693
batches 7689
day@@ 7688
port@@ 7687
cow@@ 7681
keyboard 7680
attach 7680
adjusting 7679
WiFi 7678
backward 7677
Systems 7677
outer 7674
sampling 7674
sought 7672
conce@@ 7671
sons 7669
driverless 7668
denied 7667
tries 7665
derived 7665
Qing@@ 7664
ays 7658
clouds 7657
tification 7655
yun 7654
subsequently 7652
coach 7651
chang@@ 7649
ree 7649
Series 7648
exploring 7648
demonstrate 7644
tied 7643
gs 7641
dancing 7636
lec@@ 7634
Wuxi 7634
Dongguan 7634
lob@@ 7633
abilities 7632
relay 7628
rocks 7625
monitors 7625
NFC 7625
bags 7624
ologic 7622
reserves 7622
gly@@ 7621
buff@@ 7621
comparing 7620
investor 7618
ace@@ 7617
downward 7615
applicable 7610
closure 7610
german 7607
stayed 7604
zhi 7603
Hol@@ 7600
advent 7599
harmful 7599
punishment 7598
sexual 7597
Hefei 7597
passes 7594
tling 7592
competent 7589
usher 7589
Branch 7589
4.0 7588
badly 7582
ette 7582
90@@ 7581
appointed 7580
hao 7579
Da@@ 7578
high@@ 7578
Fe@@ 7577
valley 7576
joke 7574
restore 7574
unusual 7574
fool 7573
institution 7569
Man@@ 7569
je@@ 7565
berry 7561
Computer 7559
presentation 7558
abstract 7556
commun@@ 7555
submit 7555
ples 7554
secrets 7552
silent 7550
Lu 7549
furniture 7545
processed 7543
gang 7542
bell 7541
checking 7541
worker 7538
dialogue 7538
cc@@ 7538
vacation 7537
Line 7536
physics 7536
q 7536
hadn 7535
accompanied 7534
determines 7534
ko@@ 7533
Long@@ 7532
exchanges 7528
uncertain 7526
monday 7525
sel@@ 7525
prim@@ 7523
stroke 7521
discovery 7521
bands 7520
juice 7519
ounds 7516
threw 7516
resist 7515
electron 7514
explo@@ 7513
Zone 7513
recall 7511
ester 7510
wiring 7509
wheat 7508
corn 7507
controllers 7505
Hangzhou 7504
encouraged 7501
iraq 7501
dat@@ 7500
paris 7499
oul@@ 7499
bathroom 7497
rela@@ 7496
scenes 7494
deeper 7492
correspon@@ 7492
competitor 7487
developments 7485
Ver@@ 7482
tran@@ 7481
zo@@ 7481
ion@@ 7480
cop 7479
summit 7479
pole 7478
congress 7477
cellular 7476
Ob@@ 7476
surge 7474
67 7473
cycl@@ 7463
plat@@ 7463
artery 7461
chipset 7461
transmitted 7460
motherboard 7459
bab@@ 7457
substantially 7452
Britain 7449
Report 7448
Ming@@ 7446
contacts 7446
EC 7442
stated 7441
furthermore 7441
coupled 7440
mir@@ 7439
organ 7438
merely 7437
kick 7437
rejected 7437
sport 7436
98 7434
seats 7432
ender 7430
Ap@@ 7430
syndrome 7429
TC@@ 7429
amounted 7428
ped@@ 7428
cotton 7428
precious 7425
freely 7423
chro@@ 7420
Award 7417
anniversary 7417
patri@@ 7417
inity 7414
Rice 7414
56 7414
Pl@@ 7414
Flash 7414
anal@@ 7413
ruling 7409
reli@@ 7407
amping 7406
loaded 7401
returning 7400
reveal 7400
oke 7399
buried 7396
SK 7394
chart 7393
substances 7392
san@@ 7391
backs 7391
ested 7389
crash 7381
ck 7378
1993 7377
religion 7376
ethnic 7376
bones 7376
fy 7374
organizational 7372
vegetables 7370
spoken 7370
gather 7369
declaration 7368
struck 7368
doc@@ 7366
kn@@ 7365
jin 7358
iao 7357
abnormal 7357
intervention 7354
diagnostic 7354
ris@@ 7353
aesthetic 7353
Intelligence 7352
vigorous 7352
swing 7352
pixels 7351
Mat@@ 7351
enforcement 7350
Fr@@ 7346
simultaneously 7345
lung 7342
entary 7341
ake 7339
artistic 7337
lac@@ 7337
pharmac@@ 7335
relating 7333
bull@@ 7331
suspension 7331
websites 7330
bulb 7329
wind@@ 7328
ost 7327
ouse 7325
eting 7323
wow 7322
outlook 7322
Syn@@ 7322
ough 7320
prize 7319
mobil@@ 7316
Sun@@ 7312
dozen 7311
granted 7311
approaching 7310
restricted 7310
strain 7310
publ@@ 7308
african 7307
christ 7307
locks 7305
ti 7303
minds 7302
opens 7302
short@@ 7301
colleges 7300
pap@@ 7299
boundary 7299
democracy 7296
vic@@ 7296
stly 7293
otic 7290
stolen 7289
loud 7288
winner 7287
lip@@ 7286
civilization 7286
attempts 7284
crew 7275
chang 7274
jury 7271
Shang@@ 7270
diff@@ 7270
dressed 7270
brush 7265
actu@@ 7265
jail 7264
emissions 7264
mentioning 7264
compos@@ 7261
handed 7261
candidates 7259
chemicals 7258
laying 7258
awarded 7258
ene@@ 7257
ax 7256
resin 7255
kel@@ 7254
proposals 7253
egg 7253
ref@@ 7252
izer 7251
valid 7247
childhood 7244
bubble 7242
heated 7242
buses 7240
residential 7239
fier 7239
La@@ 7238
guaranteed 7238
act@@ 7237
dilemma 7234
cents 7233
scanning 7230
catal@@ 7230
fal@@ 7230
deserve 7230
cen@@ 7228
cables 7227
peaceful 7227
poses 7227
stones 7225
underground 7225
11@@ 7225
dom@@ 7223
au 7223
Alibaba 7222
sodium 7218
esses 7218
ignore 7218
~ 7216
vel@@ 7216
net@@ 7211
unity 7211
highlights 7207
invite 7206
aluminium 7204
32@@ 7201
ald 7199
pped 7198
thor@@ 7198
producer 7197
ation@@ 7196
delicate 7194
nal 7192
sophisticated 7191
interior 7188
warming 7188
ashing 7186
proc@@ 7184
attacked 7184
contemporary 7183
tural 7182
Taiming 7182
zh@@ 7178
doubled 7177
quantities 7177
combat 7176
grace 7175
sequ@@ 7175
Monday 7172
dominate 7172
bin@@ 7170
instant 7169
enjoyed 7169
pins 7168
org@@ 7164
owe 7162
correction 7158
letting 7157
absorption 7156
dul@@ 7156
chem@@ 7156
topics 7154
substance 7154
72 7153
Poly@@ 7153
za 7152
isolated 7151
after@@ 7151
reader 7150
historic 7150
iced 7149
ena 7149
layoffs 7148
reconstruction 7147
alter@@ 7147
earliest 7146
limitations 7145
somehow 7144
desert 7143
Wh@@ 7141
pe 7139
them@@ 7139
dy@@ 7138
rig@@ 7137
Por@@ 7135
Day 7132
occupies 7129
owns 7128
discussing 7128
eable 7127
tionary 7126
chocolate 7126
editor 7125
valuation 7124
multinational 7120
ces 7119
bunch 7119
han@@ 7117
buddy 7117
balls 7115
barrier 7115
spacing 7113
pop 7112
enemies 7110
ura 7109
headed 7108
graduate 7107
july 7106
construct 7105
usive 7105
oked 7097
remind 7096
wondering 7096
SI@@ 7095
gol@@ 7095
tot@@ 7094
beneficial 7093
phys@@ 7084
62 7083
pec@@ 7080
ky@@ 7079
ights 7079
workshop 7076
mother@@ 7073
converted 7073
Expo 7070
Chip 7070
defect 7068
gray 7067
eff@@ 7066
IoT 7066
visiting 7064
Yong@@ 7062
Mingzhu 7060
stering 7059
vers@@ 7059
abl@@ 7058
Rel@@ 7058
passion 7057
Area 7052
phosph@@ 7052
thir@@ 7052
slowdown 7052
guns 7049
wore 7049
harsh 7045
uncertainty 7044
cooking 7043
Ti@@ 7043
locations 7042
explains 7042
pass@@ 7042
realizing 7042
Te@@ 7042
pled 7041
ologists 7040
wards 7040
Lo@@ 7037
audit 7037
fra@@ 7037
repeat 7035
strip 7034
advances 7033
oting 7033
she@@ 7033
1999 7032
1990s 7030
cooperated 7029
verify 7028
Surface 7028
illary 7027
fibers 7025
bos@@ 7025
standby 7020
upcoming 7013
scenario 7013
unemployment 7011
cap 7010
specialized 7010
van 7010
Cre@@ 7009
facility 7008
paragraph 7007
confused 7007
coordinate 7006
instruc@@ 7005
auto 7004
bureau 7000
icate 6999
posed 6998
imposed 6995
jet 6995
calculate 6995
Chief 6993
100@@ 6972
ems 6970
operated 6970
peter 6970
satisfy 6969
drew 6965
sam 6963
MP@@ 6961
ologist 6960
jian 6959
hiding 6959
password 6959
zer 6958
booth 6957
Fin@@ 6956
purchases 6955
artist 6953
communities 6953
regret 6953
lists 6952
crimes 6952
businessmen 6951
AC@@ 6950
owed 6949
emo@@ 6948
governance 6948
consistency 6945
tative 6942
53 6941
eline 6941
ump 6939
19.@@ 6938
Tuesday 6938
tongue 6938
Dec@@ 6937
briefly 6937
ken@@ 6936
april 6935
acked 6934
unchanged 6932
partly 6931
fying 6927
fails 6927
Security 6926
arrive 6926
exceeds 6926
regi@@ 6926
1.3 6921
hil@@ 6920
separately 6919
abol@@ 6918
informatization 6917
underlying 6916
practic@@ 6915
2.0 6912
inferior 6912
mur@@ 6911
sword 6910
MP3 6910
vitality 6906
painful 6903
colon@@ 6903
qiang 6900
achieves 6899
lips 6898
broader 6896
argue 6895
erg@@ 6894
impressive 6892
ops 6889
zes 6884
contained 6881
Friday 6881
unmanned 6881
Wei@@ 6878
preferential 6878
cure 6877
blocked 6874
discover 6874
Fo@@ 6872
sible 6871
icated 6870
GDP 6869
pris@@ 6869
hired 6869
detective 6868
equation 6866
suite 6864
It 6862
aqu@@ 6861
22@@ 6861
foods 6861
ude 6859
vulnerable 6858
ables 6857
removal 6856
Super@@ 6856
loop 6855
pressed 6851
requests 6850
lined 6850
thirdly 6850
row@@ 6847
stal@@ 6846
illed 6846
ligh@@ 6844
simul@@ 6843
tract 6843
systematic 6843
zy 6842
Spring 6841
vac@@ 6841
tables 6838
rarely 6836
des 6835
icks 6834
boun@@ 6834
Light 6834
illness 6831
velocity 6831
Jiang@@ 6829
enn@@ 6829
ze@@ 6827
photoelectric 6825
mon 6821
acet@@ 6820
4.5 6818
kidding 6817
Generation 6814
rows 6813
taiwan 6813
creativity 6813
candidate 6811
ment@@ 6810
reluctant 6809
wea@@ 6809
menu 6808
politicians 6808
sea@@ 6808
cru@@ 6806
threatened 6804
september 6804
prosecu@@ 6804
Cap@@ 6803
innovations 6803
orph@@ 6800
liqu@@ 6797
Jinli 6797
get@@ 6792
3.5 6790
Yan@@ 6786
yan 6784
fla@@ 6783
tang@@ 6780
Service 6779
induction 6778
snow@@ 6778
zhong 6778
shipping 6778
minimize 6777
inging 6777
updates 6776
itis 6775
uk@@ 6774
liability 6770
tech 6770
toxic 6769
free@@ 6767
mathematical 6765
supervis@@ 6764
conve@@ 6760
inated 6759
lifetime 6756
Ba@@ 6753
adap@@ 6753
copyright 6752
Han@@ 6751
ards 6749
gged 6747
efficiently 6745
elec@@ 6743
compression 6742
les@@ 6741
kingdom 6741
ko 6741
Holdings 6740
surplus 6740
feasible 6738
tender 6738
asleep 6737
corruption 6736
yer 6735
flows 6733
tioned 6732
capacitance 6730
21st 6728
Wednesday 6726
demanding 6725
tization 6725
romantic 6724
landed 6724
seal 6724
repe@@ 6723
behaviour 6722
destruction 6722
permission 6721
58 6721
typically 6718
extract 6717
triggered 6715
plas@@ 6712
parks 6709
kit 6706
ousness 6704
astic 6702
guards 6702
twenty 6701
probe 6700
IT@@ 6700
pounds 6699
Yueting 6697
praised 6696
rum@@ 6696
arti@@ 6696
oming 6693
54 6693
cad@@ 6691
Pal@@ 6690
speculation 6689
plain 6689
Zhuhai 6687
Ethernet 6686
band@@ 6684
convinced 6684
io@@ 6678
oug@@ 6677
Film 6677
add@@ 6676
lou@@ 6674
barely 6674
tled 6673
sav@@ 6673
extraordinary 6672
dom 6672
j 6668
Bas@@ 6667
86 6665
questioned 6665
bow 6665
cloth 6664
ulate 6664
house@@ 6664
urgently 6664
efficacy 6663
arrangements 6663
resolve 6662
circular 6661
missions 6659
Zhu 6658
1996 6657
18.@@ 6656
pping 6655
ared 6655
asis 6654
First 6651
bay 6650
forcing 6649
63 6647
tful 6647
fraud 6646
gg@@ 6645
lan@@ 6645
Du@@ 6644
thee 6643
breast 6641
irs 6638
Star 6636
pain@@ 6636
Em@@ 6634
defeat 6634
een 6634
personalized 6633
iti@@ 6631
micros@@ 6631
pride 6630
brow@@ 6627
iang 6626
taining 6625
College 6625
frozen 6623
secre@@ 6620
fulness 6618
drag 6614
bei 6612
summarized 6612
chances 6612
drove 6610
infl@@ 6609
cognitive 6607
CP@@ 6607
memories 6606
heading 6606
dramatic 6605
Lian@@ 6604
bum@@ 6604
mixture 6604
temple 6604
pulling 6602
AP 6601
january 6596
bath 6596
charm 6595
acquiring 6594
trademark 6593
ling@@ 6592
enhancing 6592
sli@@ 6589
essentially 6586
Ber@@ 6584
actor 6583
Ren 6578
owing 6577
tice 6577
disappear 6576
thers 6576
sho@@ 6575
bra@@ 6574
migration 6574
luxury 6573
vul@@ 6571
rist@@ 6570
fication 6569
casting 6568
fon@@ 6566
Shanzhai 6566
withdrawal 6563
everyday 6563
metals 6561
technicians 6560
Tong@@ 6560
refuse 6560
drinks 6560
oscopic 6558
Product 6558
acceptable 6555
neur@@ 6555
tunnel 6553
prince 6552
noting 6552
agu@@ 6552
saturday 6551
relies 6550
manif@@ 6549
atomic 6548
gotten 6548
gathering 6547
nuts 6545
centralized 6545
examine 6544
nest 6541
literary 6539
disgu@@ 6538
dun@@ 6537
turing 6537
recur@@ 6536
mineral 6534
Bu@@ 6534
sanctions 6533
oured 6532
formulate 6531
injured 6529
hop@@ 6529
main@@ 6528
recovered 6527
roles 6526
CM@@ 6524
ven 6522
assess 6521
orderly 6520
cautious 6519
lonely 6518
interviewed 6517
backup 6517
sooner 6515
probability 6514
developer 6514
Construction 6513
waited 6510
radical 6509
outbreak 6508
discussions 6508
standardized 6505
GE 6504
ck@@ 6504
california 6503
conven@@ 6501
individu@@ 6501
i. 6500
rebound 6499
bite 6499
Sheng@@ 6499
compounds 6497
e. 6496
Hailishi 6496
acking 6496
scholars 6495
Datang 6494
ounding 6494
pel 6494
rail 6492
climb 6489
automated 6487
zi 6486
coll@@ 6486
Nu@@ 6486
inhib@@ 6485
maximize 6484
engines 6483
lawyers 6482
list@@ 6482
flat@@ 6480
orange 6479
fears 6478
patented 6477
Cy@@ 6476
frank 6476
compar@@ 6476
cops 6475
clin@@ 6475
esis 6474
affir@@ 6473
oping 6473
abuse 6473
thinner 6472
ranging 6472
provision 6471
eled 6471
2,000 6468
porting 6465
islands 6464
canada 6462
olympic 6462
dioxide 6462
blog 6461
diver@@ 6460
bars 6458
approaches 6458
feeding 6456
refer@@ 6456
Figure 6455
buyer 6454
satisfactory 6453
bao 6452
eon 6452
conflicts 6449
horses 6448
naked 6448
forefront 6447
adults 6445
complaints 6445
vocational 6445
saves 6443
guidelines 6442
breathing 6442
250 6442
mile 6441
Australia 6440
coefficient 6440
psychology 6439
keen 6435
organ@@ 6433
ona 6432
crying 6432
sand@@ 6431
eye@@ 6431
deploy 6430
newspapers 6428
reck@@ 6428
cav@@ 6426
seeds 6426
tolerance 6425
ASIC 6423
wen 6423
borne 6421
rolled 6420
“ 6420
pep@@ 6420
convergence 6420
mall 6419
dre@@ 6418
tex@@ 6417
burned 6414
Net@@ 6413
emp@@ 6413
globalization 6412
John 6411
bad@@ 6411
violent 6411
devoted 6409
membership 6409
jia 6409
auto@@ 6408
regime 6407
pants 6406
20.@@ 6406
deficit 6405
Ab@@ 6404
resulted 6404
discipline 6403
gh@@ 6403
SD@@ 6402
bullet 6402
proves 6400
bon 6399
Italian 6396
chamber 6396
inde@@ 6396
nam@@ 6394
australia 6392
convert 6391
ush 6388
stack 6385
Station 6385
boo@@ 6385
ishment 6385
mystery 6384
ap 6382
CRT 6381
diameter 6379
art@@ 6379
pine 6379
ren 6378
stom@@ 6377
1.4 6377
forgotten 6377
Pe@@ 6375
worn 6375
constitution 6374
shine 6373
ki 6369
DLP 6369
limitation 6368
publicity 6367
pipeline 6366
innovate 6364
codes 6363
fresh@@ 6363
tends 6362
darkness 6362
Mor@@ 6362
wages 6359
anced 6356
LGDisplay 6355
suicide 6353
discre@@ 6352
flav@@ 6348
particle 6347
essed 6347
tendency 6346
adequate 6344
itated 6344
peri@@ 6343
author@@ 6343
debugging 6343
earing 6341
leap 6341
8K 6341
sa 6340
Jingdong 6340
ey@@ 6340
feasibility 6339
integral 6338
curriculum 6338
alloy 6337
shops 6336
aking 6336
Fig 6331
idal 6329
Fujian 6329
Standard 6325
variation 6324
soldier 6323
fought 6323
variables 6322
intellectualization 6321
throat 6321
fatigue 6320
aled 6319
intend 6318
stole 6317
rever@@ 6316
let@@ 6315
Plus 6315
temporarily 6314
capit@@ 6311
segment 6309
hyp@@ 6308
Char@@ 6308
rating 6308
bulbs 6307
virtue 6306
vessels 6306
ider 6305
lows 6304
61 6304
bedroom 6303
regulator 6301
tariff 6300
imag@@ 6300
contrac@@ 6299
steam 6298
equality 6297
Sea 6294
san 6292
chat 6292
ki@@ 6291
Vir@@ 6291
reply 6289
iguang 6289
County 6287
pros@@ 6287
challenging 6283
judging 6282
capacitive 6282
pressures 6281
gall@@ 6280
Power@@ 6278
informed 6276
gifts 6276
acceler@@ 6275
USA 6274
cement 6274
humidity 6273
Ali 6268
safely 6266
shed 6265
Her@@ 6265
ead 6264
fluorescent 6264
serum 6262
essi@@ 6262
school@@ 6261
pus 6258
grap@@ 6255
pho@@ 6253
civilian 6249
AB@@ 6246
Year 6246
spatial 6243
Summit 6242
dragon 6240
movements 6240
ots 6240
p.m. 6239
premise 6239
roots 6238
serv@@ 6238
arrange 6236
worries 6235
here@@ 6231
hung 6230
depressed 6230
households 6228
Liang 6227
electr@@ 6227
Agilent 6227
october 6226
valued 6225
CC@@ 6225
nut 6221
tropical 6220
2025 6217
assi@@ 6216
distinct 6215
Materials 6215
discount 6211
sole 6211
texture 6210
LT@@ 6210
69 6210
pig 6208
dial@@ 6208
royal 6205
institutional 6203
lied 6202
ceiling 6199
celebrate 6199
serves 6198
payments 6196
fruits 6196
expectation 6196
edly 6196
december 6192
quantitative 6192
cabinet 6192
mask 6189
inate 6187
finite 6187
arily 6187
filters 6186
offset 6182
bike 6182
glo@@ 6181
journal 6180
reads 6179
dig 6178
los 6176
tooth 6175
Yun@@ 6173
examined 6170
incentive 6168
dynasty 6164
anno@@ 6163
autopilot 6163
marking 6163
shower 6163
strongest 6162
stra@@ 6157
therapeutic 6157
tum@@ 6155
occasion 6155
container 6152
ts@@ 6150
was@@ 6150
Phil@@ 6150
oper@@ 6148
Eastern 6147
booming 6146
Str@@ 6146
Zheng@@ 6144
bicycle 6140
publishing 6139
flag 6139
Shi 6136
classified 6136
etic 6135
differentiated 6135
sor 6130
iner@@ 6126
metric 6126
# 6125
Tri@@ 6124
gal 6124
revised 6123
crops 6119
commodities 6119
engage 6117
poetry 6115
2G 6114
sheep 6113
tl@@ 6113
harmonious 6112
ugly 6112
gay 6112
diagram 6112
aying 6109
xia 6109
resem@@ 6107
Vol@@ 6106
fron@@ 6102
ution 6100
Cook 6099
wings 6098
Tur@@ 6097
pup@@ 6097
performing 6097
saturated 6096
aluminum 6096
pick@@ 6094
telecommunication 6093
modular 6093
anding 6092
generator 6091
anxiety 6091
MOSFET 6090
1995 6089
inary 6089
oste@@ 6088
ital 6087
disorder 6087
interact 6085
lowered 6085
distinguish 6085
judges 6085
struggling 6082
muscles 6081
bean 6079
rings 6079
3000 6078
searching 6076
hit@@ 6075
endless 6074
flood 6074
5,000 6072
76 6071
compliance 6070
taxi 6070
circles 6070
To@@ 6069
tox@@ 6069
ms. 6068
fibr@@ 6067
succeeded 6066
thoroughly 6065
tum 6063
57 6062
endurance 6062
divorce 6061
destination 6061
legitimate 6060
prop@@ 6058
reception 6056
targeted 6052
socialist 6052
emotions 6051
Plan 6050
gang@@ 6049
red@@ 6047
merged 6045
plug 6045
silk 6044
aggressive 6044
tuesday 6043
productive 6041
wishes 6041
paul 6038
kings 6036
vibr@@ 6035
fitness 6034
craft 6033
hero@@ 6030
ruled 6030
innov@@ 6029
Tang 6029
ro 6024
Shandong 6024
globally 6023
inspec@@ 6021
duties 6017
axial 6017
pointing 6017
eu 6016
phenomena 6016
invented 6011
vessel 6010
cerebral 6009
warehouse 6009
grave 6008
polymer 6007
cheese 6006
whoa 6006
microelectronics 6004
pixel 6002
Air 6000
eller 6000
dos@@ 5998
disadvantage 5997
worrying 5997
humanitarian 5996
obstacle 5994
flo@@ 5994
Enterprise 5993
hang@@ 5993
MO@@ 5993
ca 5989
PA 5987
renewable 5987
ON 5984
courts 5982
designated 5981
modern@@ 5980
moments 5980
Ke@@ 5980
5V 5979
3.0 5978
graduates 5978
tat@@ 5977
Del@@ 5976
5.5 5976
auxiliary 5976
slide 5975
San 5975
Tokyo 5974
correc@@ 5973
corporation 5971
frequencies 5970
amaz@@ 5970
quoted 5969
ea 5968
leather 5968
dating 5968
sapphire 5968
tery 5966
folk 5965
league 5964
mayor 5961
molecules 5960
ires 5960
issuance 5959
entitled 5958
calibration 5956
nate 5956
absor@@ 5955
stop@@ 5955
availability 5954
Pacific 5953
margins 5952
vector 5952
kit@@ 5951
stum@@ 5948
orth@@ 5946
recommendations 5944
elsewhere 5944
dealers 5943
sheets 5942
canc@@ 5941
soup 5938
Time 5937
crude 5936
div@@ 5936
77 5935
graph 5932
fashionable 5932
bills 5930
icking 5929
collecting 5929
encouraging 5929
outsourcing 5928
Great 5926
huang 5926
biology 5925
expecting 5924
mitting 5924
disadvantages 5923
ES@@ 5921
indian 5920
andy 5920
entity 5919
disposal 5918
packaged 5917
spe@@ 5916
thes@@ 5911
retain 5911
drama 5910
eds 5910
sections 5909
pers@@ 5907
acker 5906
than@@ 5905
tened 5904
ired 5900
employed 5897
awards 5891
DM@@ 5888
elected 5886
Met@@ 5886
angel 5886
phosphate 5884
specify 5883
hydraulic 5883
23@@ 5883
olog@@ 5882
authors 5881
resume 5881
und@@ 5881
65@@ 5880
intensive 5878
aviation 5878
incandescent 5878
We 5878
uph@@ 5877
Mil@@ 5877
robotics 5874
Cup 5873
cord 5872
schem@@ 5868
Mer@@ 5867
producers 5867
carcinoma 5865
governor 5865
aining 5864
heart@@ 5863
slowing 5862
smallest 5860
threats 5859
binding 5857
cher@@ 5856
quad@@ 5856
thrown 5855
Executive 5855
dynamics 5855
HK 5855
decom@@ 5854
hes@@ 5852
planes 5852
78 5851
babies 5851
iran 5850
signature 5850
pleasant 5845
graphic 5844
parti@@ 5844
exam@@ 5841
ession 5840
Media 5839
Sil@@ 5838
beside 5838
sessions 5837
exported 5836
overnight 5835
electrode 5834
counting 5832
metr@@ 5832
GP@@ 5830
ret@@ 5830
shorter 5830
repl@@ 5830
indicator 5830
Greater 5829
Pearl 5829
roughly 5828
minority 5828
authentication 5828
locate 5827
lessly 5827
emphasizes 5826
va 5825
tune 5822
shots 5821
typ@@ 5821
bleeding 5820
logo 5819
attributes 5819
Lexus 5818
mortgage 5817
defend 5815
3C 5814
lag 5813
promises 5811
mike 5811
Yi@@ 5808
care@@ 5806
Treatment 5805
gains 5804
microcontroller 5803
conqu@@ 5802
junction 5801
dless 5799
Er@@ 5799
shrinking 5798
ric 5797
One 5797
motors 5797
coinc@@ 5796
junior 5796
Solar 5795
palace 5792
og 5790
uk 5789
boring 5789
stre@@ 5788
dates 5788
sne@@ 5784
deformation 5783
lawsuits 5781
pioneer 5778
agr@@ 5778
MW 5777
TO@@ 5777
trick 5776
73 5775
Hall 5774
panic 5773
shortly 5772
tourists 5771
chil@@ 5771
attracting 5770
purple 5770
wat@@ 5769
Ste@@ 5769
diamond 5767
script 5765
ini@@ 5765
activated 5764
lighter 5764
Road 5763
grey 5762
passage 5762
Storage 5760
NE@@ 5760
anta 5760
motor@@ 5759
towns 5756
harmony 5755
posted 5755
restr@@ 5754
shocked 5753
euro 5751
US@@ 5750
captured 5747
compu@@ 5747
borrow 5745
WiMAX 5745
rivers 5744
cock@@ 5743
vascular 5743
Secretary 5742
AV@@ 5741
Dalian 5740
faults 5740
ager 5738
influences 5737
anning 5737
welcomed 5737
las@@ 5737
realizes 5736
call@@ 5736
jacket 5735
diodes 5734
flux 5733
crowded 5733
publication 5729
demonstrates 5728
woods 5728
96 5728
tariffs 5727
crow@@ 5725
absorb 5725
night@@ 5724
axis 5723
1.6 5723
consulting 5722
reforms 5722
Xiao 5722
TE 5721
reward 5721
ket@@ 5720
mexico 5719
opol@@ 5718
rigid 5718
experiencing 5718
Cu@@ 5717
modi@@ 5717
Hynix 5714
sim@@ 5714
grant 5712
pan 5712
prints 5711
Consulting 5709
Show 5705
dividend 5703
indicating 5703
urg@@ 5703
bility 5703
moderate 5701
august 5701
foun@@ 5701
possibilities 5698
cow 5697
anim@@ 5696
1.1 5695
preventing 5695
modulation 5695
orous 5694
catching 5694
wars 5694
cia 5693
cab@@ 5693
brave 5693
nur@@ 5692
dge 5690
health@@ 5690
Hu 5686
shr@@ 5686
Thursday 5686
tance 5686
prote@@ 5685
Lexin 5684
guar@@ 5684
drops 5684
1980s 5683
dys@@ 5682
exam 5681
lasting 5680
prev@@ 5679
cultures 5677
chat@@ 5676
ER@@ 5676
iss@@ 5676
recruitment 5675
eliminating 5672
Medical 5671
litigation 5670
restaurants 5670
treasure 5669
scratch 5668
diverse 5667
Wi@@ 5665
handheld 5664
elections 5664
blade 5664
riding 5661
bulk 5660
rhythm 5659
elev@@ 5659
spon@@ 5659
trusted 5657
encryption 5657
smith 5655
mankind 5654
measurements 5654
Ag@@ 5654
nitrogen 5654
emotion 5653
turn@@ 5652
Italy 5652
floating 5651
upward 5649
lacks 5649
wires 5646
Ser@@ 5645
Jiang 5643
fortunately 5643
ulated 5642
MA@@ 5641
matches 5640
robotic 5640
1998 5640
stric@@ 5639
assigned 5638
sealed 5638
lig@@ 5637
My@@ 5635
ests 5633
ship@@ 5631
HDMI 5630
foil 5630
fuzzy 5627
seminar 5627
mathematics 5625
pel@@ 5624
surrounded 5624
escence 5623
enhancement 5622
cum@@ 5621
tear 5621
terri@@ 5620
google 5617
MI@@ 5617
economical 5617
900 5616
Senior 5615
eted 5614
italy 5614
existed 5614
fabric 5614
necessity 5613
acti@@ 5611
Jia@@ 5610
Fair 5608
ips 5608
rot@@ 5607
di 5607
SSD 5606
venue 5606
BC 5602
scal@@ 5602
castle 5602
proteins 5602
Canada 5602
rus@@ 5601
theater 5601
bilateral 5599
ogram 5599
plo@@ 5599
ero@@ 5596
functionality 5596
mates 5595
He 5593
alright 5593
2.4 5593
polysilicon 5592
gesture 5589
UAVs 5589
Qi@@ 5588
requested 5588
oh@@ 5587
packing 5585
checks 5584
diabetes 5584
drag@@ 5581
lumin@@ 5580
gravity 5580
guiding 5580
shaft 5580
rein@@ 5580
plex@@ 5580
coastal 5578
Base 5578
subscri@@ 5576
uation 5576
Russian 5575
battlefield 5574
ided 5573
operative 5573
elegant 5572
sha 5571
harry 5571
dam 5570
delicious 5570
insulation 5569
lee 5568
hire 5567
TC 5567
pit 5567
actors 5565
inn 5563
ew 5562
decoration 5562
pink 5562
Sol@@ 5562
bold 5562
oneself 5561
obs@@ 5560
planted 5559
TE@@ 5558
micron 5557
bother 5557
contest 5556
withstand 5556
influential 5556
tap 5548
distortion 5547
1.8 5546
premium 5546
researcher 5545
ull 5544
propaganda 5544
aerospace 5542
traveling 5541
inherent 5540
allo@@ 5540
refin@@ 5539
&apos;m 5539
ference 5537
Communication 5536
4S 5536
homework 5536
ib@@ 5534
inspired 5533
tool@@ 5532
thursday 5531
sou@@ 5531
adverse 5531
cot@@ 5530
conducting 5528
Ri@@ 5527
stereo 5527
origin@@ 5526
pursuing 5526
6th 5526
aire 5525
avoiding 5525
renal 5525
folding 5525
pa 5524
negotiating 5522
tips 5522
nucle@@ 5520
calcul@@ 5519
Jo@@ 5519
pie 5519
decisive 5519
cumulative 5518
gy@@ 5518
IHS 5517
cau@@ 5514
maps 5514
Hai@@ 5514
calcium 5513
Cal@@ 5512
ups 5511
iest 5508
deposits 5508
Rob@@ 5507
age@@ 5507
synchronous 5507
onom@@ 5504
Wan@@ 5502
descen@@ 5502
ounded 5500
HD@@ 5500
endor@@ 5499
humanity 5498
impressed 5497
nas@@ 5497
ui 5497
holder 5496
icians 5495
fantastic 5495
basketball 5495
poss@@ 5495
Health 5494
miniaturization 5494
break@@ 5493
bian 5493
divide 5493
golf 5493
bear@@ 5492
ision 5492
metry 5492
infected 5492
fold 5491
Robot 5489
eland 5489
aspir@@ 5489
dial 5488
shrink 5488
chin@@ 5486
involvement 5485
gender 5483
consume 5482
ety 5481
ually 5480
aroused 5479
92 5477
Mal@@ 5476
oes 5476
fted 5475
AT 5474
mysterious 5473
crop 5471
certified 5471
NVIDIA 5469
Public 5468
chol@@ 5467
invisible 5466
trap 5466
piano 5465
drow@@ 5464
refrigerator 5462
a.m. 5460
Mel@@ 5459
resolved 5458
mount 5454
Zhen@@ 5454
burg 5453
stere@@ 5453
Xiaomi 5452
LP@@ 5451
umin@@ 5451
scientist 5450
Cam@@ 5450
ongoing 5447
brains 5447
posts 5446
sco@@ 5445
ah@@ 5445
grateful 5443
LE@@ 5443
printer 5441
notebooks 5440
ells 5440
there@@ 5440
LC@@ 5440
MT@@ 5438
ghost 5437
hotels 5437
accomplished 5435
seized 5432
italian 5432
condi@@ 5431
thermo@@ 5428
bal 5428
swim 5428
lad@@ 5428
tial 5427
asser@@ 5426
ills 5425
vitro 5424
joe 5424
stagn@@ 5423
Peng 5423
advertisement 5422
conserv@@ 5422
impe@@ 5421
chloride 5421
grou@@ 5420
RO@@ 5420
eric 5418
appliance 5417
Mate@@ 5416
modem 5416
rod 5416
hab@@ 5416
sunlight 5414
shield 5412
toys 5411
Program 5411
periods 5409
critics 5409
compromise 5408
Spec@@ 5407
know@@ 5406
negotiation 5406
applies 5405
escent 5404
nights 5404
Z 5401
conver@@ 5400
Acer 5400
ock 5396
coordinated 5395
cross@@ 5395
shame 5395
Promotion 5395
accoun@@ 5394
handled 5394
encing 5393
fluor@@ 5392
gras@@ 5392
rhe@@ 5390
suggestion 5390
transmitter 5389
avi@@ 5389
Jin 5388
modification 5387
god@@ 5387
invitation 5386
predic@@ 5385
tap@@ 5384
quot@@ 5382
tax@@ 5381
Water 5379
White 5379
chop@@ 5377
adaptive 5377
ogenesis 5376
rev@@ 5375
TS@@ 5373
ex 5373
30,000 5370
november 5370
SA@@ 5370
intermediate 5367
emperor 5367
stor@@ 5366
departure 5366
var@@ 5365
nurse 5363
wage 5361
temperatures 5360
vable 5359
compulsory 5359
penalty 5358
protec@@ 5358
locking 5357
customization 5356
dist@@ 5356
hob@@ 5354
incentives 5354
succession 5354
sunshine 5353
operates 5353
ached 5352
Touch 5351
71 5350
ink@@ 5349
Wiku 5349
dominance 5349
pray 5349
knock 5348
injuries 5348
inher@@ 5348
wednesday 5348
incredible 5346
portion 5345
ethics 5344
assembled 5340
tennis 5340
fish@@ 5339
Mac 5338
clu@@ 5336
ab 5336
Sal@@ 5335
ix 5335
forecasts 5335
charger 5334
facil@@ 5334
aw 5333
chaos 5333
neighborhood 5332
cobalt 5332
distribu@@ 5331
generous 5331
apologize 5329
traction 5328
scores 5328
reorganization 5327
picking 5327
dawn 5326
coupling 5325
matched 5325
proven 5325
deepening 5324
astr@@ 5324
clinic 5323
tos@@ 5323
kernel 5322
ado 5321
apparent 5320
petro@@ 5319
num@@ 5317
RF@@ 5317
rises 5315
aunt 5315
positively 5314
ffs 5313
Haixin 5312
guided 5312
confusion 5312
unlimited 5310
Miaolong 5309
38@@ 5309
affair 5309
anna 5308
priv@@ 5306
gates 5305
optim@@ 5305
iping 5304
Cha@@ 5304
91 5304
Mic@@ 5303
holidays 5303
crystalline 5303
copies 5302
rep@@ 5302
Crystal 5300
licensed 5300
sued 5300
shutdown 5299
disappointed 5299
knee 5297
otong 5296
DVD 5296
reservoir 5294
egypt 5292
noteworthy 5291
shi 5287
goodbye 5287
rif@@ 5286
thi@@ 5286
meaningful 5284
valid@@ 5284
cruel 5284
obe@@ 5284
patch 5283
inform 5282
writers 5282
epid@@ 5282
bert 5280
tably 5279
contradiction 5279
maxim@@ 5278
debts 5278
diversification 5278
inst@@ 5276
flowing 5275
upstairs 5275
benchmark 5274
Ming 5274
Division 5272
impedance 5272
audiences 5270
vas@@ 5270
nutrition 5270
infinite 5269
scattered 5266
aph@@ 5266
xes 5266
kidney 5265
bowl 5264
Different 5262
Chr@@ 5262
patience 5262
King 5261
7.5 5261
slip 5261
expense 5261
proph@@ 5260
may@@ 5260
anny 5260
requ@@ 5259
masses 5259
kins 5258
adv@@ 5258
lay@@ 5258
how@@ 5257
bureau@@ 5256
tes@@ 5253
ayed 5252
82 5251
afghanistan 5250
ond 5249
MIPS 5249
voting 5248
mounted 5248
bag@@ 5247
voices 5247
tobacco 5247
nan 5245
publish 5244
lap@@ 5243
saturation 5242
treaty 5242
dose 5242
ote 5242
protocols 5241
styles 5241
hence 5237
200@@ 5236
Go@@ 5236
tility 5236
arc 5236
Brazil 5235
modernization 5233
procee@@ 5231
iously 5231
tag 5231
chi 5230
J 5229
ultrasonic 5226
Process 5226
fet@@ 5224
pleas@@ 5223
yo 5223
ipping 5223
Tai@@ 5223
criticized 5219
admir@@ 5219
HDR 5218
adjustments 5218
asks 5217
obligations 5214
colorful 5212
domin@@ 5212
unnecessary 5211
relatives 5211
transient 5210
respec@@ 5210
Ed@@ 5209
synchronization 5208
Nov@@ 5208
Sa@@ 5208
1997 5207
mation 5204
Performance 5203
cancel 5202
conductive 5201
test@@ 5200
ili@@ 5199
&apos;re 5199
TM@@ 5198
tability 5198
xin@@ 5198
mapping 5197
bir@@ 5197
bloody 5196
gas@@ 5195
thread 5195
pati@@ 5193
constitute 5193
BlackBerry 5192
ambition 5191
strang@@ 5191
mill@@ 5190
plication 5190
tire 5190
induc@@ 5189
pregnancy 5189
breeding 5189
key@@ 5188
Zhongmou 5187
lover 5186
tus 5186
Cur@@ 5185
lane 5185
Kin@@ 5184
math 5184
alistic 5182
enjoying 5182
tex 5181
thri@@ 5180
sured 5179
suppl@@ 5178
fea@@ 5177
mama 5176
dated 5176
popul@@ 5176
advertisements 5174
jus@@ 5174
crap 5171
IA 5170
collec@@ 5170
occasions 5170
Fi@@ 5169
desired 5169
oscopy 5167
representation 5167
IPO 5167
vary 5167
LG@@ 5167
angu@@ 5165
bitter 5164
elastic 5164
earning 5164
journalists 5163
wired 5163
unfair 5161
lun@@ 5160
cooperating 5160
lithography 5160
artists 5160
cit@@ 5159
ef 5159
tourist 5159
bac@@ 5159
rotation 5156
ophy@@ 5154
tent 5153
investigating 5153
2,@@ 5152
synthetic 5152
aster 5151
distant 5151
defence 5150
diplomatic 5150
cool@@ 5149
SE@@ 5148
neighb@@ 5147
pillar 5147
robust 5146
inten@@ 5146
bending 5146
This 5145
mere 5145
shifted 5145
bare 5144
Mei 5142
coil 5139
ult 5139
plac@@ 5138
spaces 5138
cycles 5137
harvest 5137
rabbit 5136
ander 5136
odd 5135
silly 5134
concert 5133
stops 5132
interconnected 5131
adjacent 5127
attaches 5127
blank 5126
paste 5126
extrac@@ 5126
peoples 5126
luminous 5124
isation 5124
En 5123
PP@@ 5121
recogn@@ 5121
clar@@ 5121
internationalization 5120
alk@@ 5120
neutr@@ 5120
chen 5120
hmm 5120
acoustic 5119
complaint 5119
Hydro@@ 5118
Sem@@ 5118
mud 5117
LO@@ 5117
pretend 5117
reviews 5117
oblig@@ 5116
dition 5115
avoided 5114
worm 5113
decreases 5113
ula 5113
immer@@ 5113
lean 5113
ign 5112
legislative 5112
dimension 5111
civil@@ 5110
concei@@ 5110
seller 5109
laboratories 5108
olic 5108
Guo@@ 5107
propose 5107
110 5106
ians 5105
miniature 5104
RIM 5104
toilet 5103
objec@@ 5103
curious 5103
edges 5102
icing 5102
frames 5101
pal 5101
ka@@ 5100
ho 5100
singer 5100
mao 5099
deny 5099
opposed 5099
MS 5096
onia 5096
eaten 5096
shore 5096
tening 5095
polar@@ 5094
Gen@@ 5094
House 5093
blast 5092
studio 5090
struc@@ 5089
icit 5089
technically 5088
ories 5088
stic@@ 5088
banned 5088
inger 5087
organiz@@ 5086
hunting 5085
inadequate 5083
ADI 5083
manip@@ 5082
jac@@ 5080
deser@@ 5078
flies 5078
sacrif@@ 5078
alling 5077
beneath 5076
bury 5076
doub@@ 5076
thetic 5075
curtain 5074
optimizing 5073
speeding 5072
i.e. 5072
microphone 5071
bel 5071
Precision 5071
packed 5071
crown 5070
Property 5068
power@@ 5067
tam@@ 5066
tained 5066
refr@@ 5066
lo 5064
princess 5063
emphasize 5063
unclear 5062
performances 5062
paral@@ 5062
tioning 5060
flesh 5058
bes@@ 5057
interpre@@ 5057
www.dzsc.com 5056
furnace 5055
det@@ 5055
sacrifice 5053
adopting 5053
pad 5052
genuine 5051
Chimei 5051
experim@@ 5049
query 5048
clever 5046
purity 5046
compris@@ 5046
600@@ 5046
DS 5046
authoritative 5046
grows 5043
cann@@ 5042
tif@@ 5042
leisure 5042
ece 5041
directed 5041
keeper 5040
cargo 5040
Production 5040
counts 5040
ES 5039
modify 5038
thick@@ 5038
Pat@@ 5037
screening 5037
teenth 5036
indi@@ 5036
bron@@ 5036
reactions 5036
microprocessor 5035
arsen@@ 5032
tious 5031
garbage 5030
relaxed 5028
rushed 5026
Wireless 5026
reflecting 5025
ves@@ 5024
mo 5022
occurrence 5021
aver@@ 5021
Xiao@@ 5021
brid@@ 5020
remembered 5020
sal 5019
va@@ 5019
97 5017
ail 5016
scenery 5015
c. 5015
presidential 5015
bang@@ 5014
james 5014
IGBT 5013
gar 5013
mented 5011
app 5010
icular 5010
87 5009
SE 5009
Vietnam 5008
po 5007
safer 5007
aus@@ 5005
strian 5004
igu@@ 5003
bang 5003
rope 5002
Cl@@ 5001
74 5000
Mag@@ 4999
osa 4998
leng@@ 4998
skilled 4998
throwing 4998
orate 4998
advis@@ 4998
porter 4998
bra 4997
esting 4996
commented 4996
3,000 4996
auction 4995
cardi@@ 4994
ph 4994
197@@ 4993
eps 4992
inspiration 4991
tiger 4991
aur@@ 4990
crystals 4990
dimensions 4990
fam@@ 4989
accomplish 4989
Sales 4989
exhibitions 4989
Provincial 4989
disc 4988
Ali@@ 4988
compensate 4988
varieties 4986
You@@ 4985
bed@@ 4985
witnessed 4985
shapes 4983
determining 4982
arly 4981
cook@@ 4981
temper@@ 4981
ified 4979
idiot 4979
1.0@@ 4979
Laser 4978
oxidation 4978
evaluated 4977
Christmas 4976
slept 4976
sna@@ 4975
sliding 4973
adver@@ 4972
asses 4971
conductivity 4971
fast@@ 4971
chron@@ 4970
addi@@ 4970
Earth 4969
slope 4969
Qingdao 4967
20th 4966
Ma 4966
empire 4966
useless 4966
simulate 4965
breathe 4965
mixing 4964
Standards 4964
negotiate 4962
loyalty 4962
unc@@ 4961
Zhipu 4961
segments 4961
primarily 4960
cattle 4959
TV@@ 4959
spray 4957
termin@@ 4957
techn@@ 4957
analytical 4956
ascen@@ 4956
Note@@ 4956
ulating 4955
84 4954
plum@@ 4954
representing 4954
nonlinear 4953
attorney 4952
decor@@ 4952
tong 4952
RE@@ 4951
gen 4950
Wu@@ 4950
lifting 4949
Weibo 4949
fix@@ 4949
apolog@@ 4949
LEDs 4948
Feng 4946
Direc@@ 4945
vivid 4945
Han 4944
stir@@ 4943
osphere 4943
commander 4940
ogen 4939
kidn@@ 4938
scot@@ 4937
see@@ 4936
lateral 4933
won@@ 4933
addressed 4929
interviews 4928
nowhere 4928
veness 4928
94 4928
insisted 4928
rail@@ 4927
darling 4926
Yan 4926
classi@@ 4926
door@@ 4925
Watch 4925
gla@@ 4924
controversy 4924
gentle 4924
comprehensively 4922
persu@@ 4921
rup@@ 4920
lecture 4920
vy 4920
ushing 4919
drilling 4919
buttons 4918
ood 4918
boundaries 4917
tant 4916
Journal 4916
immuno@@ 4916
conc@@ 4915
notic@@ 4915
ipped 4915
licenses 4915
impose 4915
hall@@ 4914
visits 4914
receives 4914
remarks 4912
insist 4912
tiveness 4911
59 4910
refu@@ 4909
enders 4909
failures 4908
conscious 4907
check@@ 4907
Lake 4906
Multi@@ 4906
nail 4905
mut@@ 4904
stealing 4904
dou@@ 4903
electrodes 4903
touching 4903
consolidate 4901
motivation 4898
ola 4897
CN@@ 4896
displacement 4896
Agency 4896
economists 4896
assurance 4894
Xu@@ 4894
streaming 4894
verified 4892
DisplaySearch 4892
dan 4890
surfaces 4890
wherever 4890
class@@ 4890
sively 4889
powered 4889
Ju@@ 4887
autom@@ 4885
crossed 4885
punc@@ 4883
updating 4882
88@@ 4880
ials 4878
concentr@@ 4878
removing 4878
devil 4878
que@@ 4878
assure 4877
ben 4876
projec@@ 4876
zones 4875
dles 4874
bacterial 4874
ues 4874
brigh@@ 4873
ner@@ 4871
sid@@ 4869
fox 4868
Dynasty 4867
bie 4867
clean@@ 4866
Sim@@ 4866
cave 4866
Resources 4864
complain 4864
Zhongguancun 4864
needle 4863
ser 4862
lot@@ 4861
tage 4860
regul@@ 4860
corrosion 4859
xed 4859
Pur@@ 4858
qualification 4857
comman@@ 4857
olig@@ 4857
moisture 4857
selec@@ 4856
musical 4856
shor@@ 4855
docum@@ 4854
lightning 4854
Obama 4852
Shu@@ 4851
alert 4851
elimination 4849
bears 4847
Gao 4847
unstable 4846
considerations 4843
transparency 4843
inquiry 4843
24.@@ 4843
buffer 4842
directional 4841
enabled 4841
oids 4840
sen 4840
jane 4840
concl@@ 4840
qual@@ 4840
oversupply 4839
gods 4839
fig@@ 4838
academ@@ 4838
collaborative 4838
26.@@ 4837
Southeast 4837
udes 4837
ushered 4837
voters 4836
retailers 4833
qi@@ 4832
inver@@ 4830
fancy 4830
ility 4829
angi@@ 4829
lit 4828
bis@@ 4827
1.7 4827
memor@@ 4827
fts 4827
sweat 4826
tar 4826
ram 4825
pacific 4824
observers 4822
tch 4822
wed 4821
Ther@@ 4821
retri@@ 4820
issuing 4818
founding 4817
ego 4816
revol@@ 4816
bent 4815
outlet 4811
degradation 4809
flag@@ 4809
rop@@ 4808
Dem@@ 4808
greek 4808
Mitsubishi 4807
Suning 4807
bi 4806
Steve 4806
cats 4805
ectomy 4805
basin 4804
where@@ 4804
dent 4803
willingness 4802
Shen@@ 4801
Store 4801
seasonal 4800
itors 4797
reprint 4797
1992 4797
genius 4797
maintains 4797
e.@@ 4796
ape 4796
FF 4795
alt 4795
occasionally 4794
merge 4793
stock@@ 4793
transplantation 4793
mobility 4793
quan 4791
93 4790
undertake 4790
plot 4790
jum@@ 4790
Yinlong 4789
Trump 4789
maj@@ 4787
incomplete 4787
dishes 4787
router 4787
flame 4786
Cai 4786
guarantees 4784
sex@@ 4784
restrict 4783
backbone 4782
interven@@ 4781
embarrassing 4781
recommendation 4781
rendering 4781
lear@@ 4780
400@@ 4780
ku@@ 4779
positioned 4779
rain@@ 4779
hopefully 4779
initiated 4777
simulated 4777
deserves 4777
intuitive 4777
gers 4776
climbing 4775
discrimination 4775
Sup@@ 4775
striving 4775
resis@@ 4773
libraries 4773
glorious 4771
construc@@ 4771
ambitious 4771
loving 4771
mono@@ 4770
cs 4769
tan 4768
expressions 4766
circum@@ 4765
road@@ 4765
researches 4764
eval 4763
muc@@ 4763
manship 4763
oration 4760
mou@@ 4759
mem@@ 4759
ean@@ 4759
thered 4757
lik@@ 4756
eh 4756
Star@@ 4755
scan 4755
medic@@ 4755
grinding 4754
lately 4753
champion 4752
spanish 4751
pav@@ 4749
Advanced 4749
routes 4748
pip@@ 4747
tz 4747
adhere 4745
LM@@ 4744
tness 4744
slower 4743
ycl@@ 4742
oon 4742
23.@@ 4742
substitution 4741
calculating 4740
toy 4739
nia 4739
spin 4738
idle 4738
sta 4737
use@@ 4737
atri@@ 4737
potentially 4736
CA@@ 4735
refugees 4735
Made 4734
adher@@ 4734
refresh@@ 4733
frag@@ 4733
elite 4732
funeral 4732
paintings 4731
sey 4730
Bro@@ 4730
ultrasound 4729
trav@@ 4728
side@@ 4728
lifted 4728
severely 4726
130 4725
spy 4724
Xing@@ 4724
dog@@ 4724
mp@@ 4723
mercury 4722
Federal 4721
counted 4721
attraction 4720
Reuters 4718
clearer 4718
petroleum 4718
connectivity 4718
alled 4718
oth 4718
stimulus 4716
APP 4714
defl@@ 4714
Cr@@ 4714
Broad@@ 4714
Big 4711
geographical 4711
epitaxy 4710
catalyst 4710
gir@@ 4710
cell@@ 4709
desperate 4708
heng 4708
complement 4708
ody 4707
OR@@ 4707
qualities 4707
NANDFlash 4707
incidents 4706
associations 4705
UHD 4700
bucks 4700
2.3 4700
deliber@@ 4699
steering 4699
ptions 4697
oth@@ 4697
seventh 4696
separ@@ 4694
imagined 4694
ani 4694
81 4694
audi@@ 4693
detector 4693
int 4692
complementary 4691
p. 4691
assumed 4689
shoulders 4688
ard@@ 4687
2.1 4687
Super 4686
istics 4686
intra@@ 4685
Ox@@ 4685
excluding 4685
stepping 4685
lip 4684
combustion 4683
bias 4683
tragedy 4681
Xie 4681
navig@@ 4679
cking 4679
Moun@@ 4678
friction 4676
hook 4673
reveals 4672
analysed 4671
permit 4671
The@@ 4671
commit 4670
36@@ 4669
congratulations 4669
overcapacity 4668
clay 4667
Plant 4667
centuries 4666
amped 4665
lasted 4665
ultraviolet 4663
citizen 4662
elial 4661
GaN 4659
afterwards 4659
fundamentally 4659
tify 4657
illumin@@ 4657
Gre@@ 4657
.... 4655
electrons 4653
argues 4653
IR 4653
understand@@ 4651
gor@@ 4649
headache 4647
anth@@ 4647
aria 4646
mines 4646
simpl@@ 4646
pulmonary 4645
du 4644
sit@@ 4643
pakistan 4643
oti@@ 4641
circul@@ 4641
seldom 4641
spreading 4639
korean 4636
violation 4636
iny 4636
palm 4635
Ben@@ 4634
liquidity 4634
ike 4632
athle@@ 4632
retirement 4631
carriers 4630
0.0@@ 4630
breakdown 4629
fingerprints 4628
New@@ 4628
aids 4628
Ku@@ 4626
sends 4626
Asus 4626
villages 4625
appe@@ 4625
initiatives 4625
charity 4623
anytime 4623
lending 4623
spain 4622
elines 4622
excitement 4621
contacted 4620
atoms 4619
handsome 4618
ingredients 4617
cardiac 4616
physiological 4616
listened 4615
snake 4615
2.2 4614
gases 4614
ouring 4613
83 4610
lith@@ 4609
anxious 4609
detecting 4608
fiction 4607
directory 4607
hus@@ 4606
oscillator 4606
traits 4605
sue 4603
regards 4601
arise 4601
atures 4601
tec@@ 4600
sus 4600
trapped 4600
collision 4600
craw@@ 4600
accompl@@ 4599
Zhengfei 4599
ridiculous 4599
Technical 4598
Americans 4598
subsidiaries 4597
Patients 4595
rumored 4595
spirits 4595
reduc@@ 4595
Out@@ 4595
beds 4594
excl@@ 4593
controversial 4593
hou@@ 4593
seemingly 4592
fa 4591
pets 4590
clarity 4590
wins 4590
virtu@@ 4590
Washington 4588
wooden 4587
exten@@ 4586
Xinjiang 4586
hunt 4586
nie 4586
quick@@ 4584
physi@@ 4584
CD@@ 4584
fluctuation 4583
ypes 4582
itating 4582
IS 4582
milestone 4582
ete 4582
ees 4582
Play 4581
distributor 4581
LSI 4579
stabilize 4577
osp@@ 4577
deteri@@ 4577
rumor 4577
nt 4577
shel@@ 4577
mium 4576
nos@@ 4575
loyal 4575
lex 4574
resonance 4573
79 4572
fores@@ 4571
mounting 4571
vag@@ 4571
restored 4570
tracks 4570
tier 4570
spell 4569
arab@@ 4569
attracts 4569
ming@@ 4569
Huahong 4568
sticks 4568
enzyme 4566
wood@@ 4565
proposes 4565
favour 4565
arguments 4564
therm@@ 4564
crossing 4564
parliament 4564
heter@@ 4563
ales 4562
laughing 4562
ministers 4562
respon@@ 4561
observ@@ 4561
duration 4558
25.@@ 4558
fting 4557
hills 4557
Zheng 4556
junc@@ 4556
paths 4556
mothers 4552
insur@@ 4552
convince 4552
dense 4551
oscill@@ 4551
flew 4550
meantime 4550
ste 4550
prud@@ 4548
greg@@ 4547
nationwide 4547
opera 4546
favored 4545
ita 4545
tooth@@ 4544
thorough 4544
ope 4543
viewed 4542
yin 4542
apples 4540
painted 4538
tigh@@ 4535
trim@@ 4534
sink 4534
transforming 4533
stringent 4533
jim 4532
lation 4532
associate 4531
Quan@@ 4530
magn@@ 4530
Green 4529
Officer 4529
0.5 4529
insider 4528
chipsets 4528
amy 4527
recre@@ 4527
thirty 4526
NXP 4526
failing 4525
hunger 4525
89 4524
public@@ 4524
lenses 4524
nickel 4523
intensi@@ 4523
Structure 4523
knocked 4522
gene@@ 4522
Des@@ 4522
subscribers 4521
Israel 4519
osity 4519
mers 4517
fuc@@ 4517
countless 4516
itory 4516
Characteristics 4516
cros@@ 4515
rocket 4515
disman@@ 4515
Professor 4515
dots 4513
idge 4513
sauce 4512
pathetic 4512
comply 4512
App 4512
attribute 4510
chess 4510
peace@@ 4510
troubles 4509
34@@ 4509
jection 4508
dicine 4508
magnitude 4505
si 4503
murdered 4502
merchants 4502
eth 4502
turkey 4501
differently 4499
22.@@ 4499
AS 4498
his@@ 4498
headphones 4498
servant 4497
defines 4497
cigarette 4497
approached 4496
bular 4496
usi@@ 4496
Bel@@ 4496
farmer 4496
activation 4495
trem@@ 4494
promulgated 4493
X86 4492
pitch 4491
War 4491
solves 4490
sanc@@ 4489
cathode 4487
bet@@ 4487
10th 4486
zheng 4485
astronom@@ 4485
cks 4485
optional 4484
ala 4484
confirmation 4482
erup@@ 4482
m. 4482
outw@@ 4480
TFT 4480
agon 4480
headquartered 4479
claiming 4479
tifying 4479
nov@@ 4478
tissues 4477
consum@@ 4477
condens@@ 4476
beating 4475
fatal 4475
lacking 4474
ventures 4473
folks 4473
deep@@ 4473
crip@@ 4472
angel@@ 4471
frontier 4470
shoe 4469
Sen@@ 4469
Ka@@ 4468
Projector 4467
heritage 4464
lt@@ 4462
february 4462
decent 4462
commercialization 4461
embrace 4459
responses 4458
MX@@ 4457
ailing 4456
uous 4456
transit 4456
ods 4454
washed 4453
dled 4452
vegetable 4452
rental 4452
elevator 4451
cheer@@ 4450
dant 4448
glance 4446
iding 4445
uck 4444
mam@@ 4444
structured 4444
As 4443
SD 4442
recip@@ 4441
Board 4441
meg@@ 4441
amplifiers 4441
ordinance 4440
Memory 4440
orial 4439
witnesses 4439
cancelled 4438
Contin@@ 4438
mrs 4438
atively 4437
atives 4437
rick 4436
kl@@ 4436
eter 4436
complications 4436
stimulated 4435
Oracle 4434
Yuanqing 4434
ench@@ 4434
neph@@ 4434
stun@@ 4433
descri@@ 4433
venues 4432
ench 4432
rome 4432
destiny 4431
resistors 4430
restriction 4429
igh 4429
fit@@ 4428
ardi@@ 4428
leak 4428
terrorism 4428
formats 4428
genus 4427
Fre@@ 4427
tubes 4426
Protection 4426
beans 4424
zhen 4423
abr@@ 4422
manpower 4422
placement 4421
roman@@ 4419
beef 4419
ga 4417
prisoners 4417
legend 4417
angles 4416
neutral 4416
considers 4416
noble 4415
lifestyle 4414
comfor@@ 4414
pas@@ 4414
triple 4413
addic@@ 4412
draw@@ 4411
simplified 4410
assuming 4410
pity 4409
good@@ 4409
cleared 4408
symbol@@ 4408
awful 4408
Computing 4407
preparations 4406
filtering 4406
Toyota 4405
inations 4404
intestinal 4404
anism 4402
stand@@ 4400
photographs 4399
ethical 4398
haw@@ 4398
spectr@@ 4398
tiles 4398
lowing 4398
furn@@ 4397
itely 4396
dest@@ 4396
reserved 4394
intim@@ 4394
aden@@ 4393
Wil@@ 4393
LC 4393
8th 4392
residual 4392
retro@@ 4392
twelve 4391
holders 4390
interfer@@ 4390
cand@@ 4390
ateral 4388
och@@ 4388
brake 4387
wolf 4385
gamut 4385
neurons 4384
ives 4383
teen@@ 4382
ules 4381
exquisite 4381
mass@@ 4380
lations 4380
EUV 4379
miracle 4379
64@@ 4378
exhibitors 4378
stranger 4378
nucleus 4378
rehabilitation 4376
disclosure 4376
proprietary 4375
phrase 4375
six@@ 4374
treas@@ 4374
dong 4373
horrible 4373
upgrades 4371
evaluating 4371
seas@@ 4370
accessible 4369
Grid 4368
installing 4367
ski 4366
Electro@@ 4366
bou@@ 4365
obligation 4365
dealt 4365
sman 4363
fits 4363
iles 4362
monster 4360
EM 4359
speaks 4359
terrorist 4357
tioner 4356
fabrication 4354
retired 4353
downtown 4352
Mul@@ 4352
ET@@ 4352
midnight 4351
athletes 4351
executed 4349
ert 4349
plating 4348
laughed 4348
varying 4348
cle 4348
ech 4347
tia 4347
activ@@ 4346
celebr@@ 4346
stabil@@ 4345
cavity 4344
posing 4344
stream@@ 4343
icul@@ 4342
conception 4342
garage 4341
Hel@@ 4340
flap 4339
seamless 4338
frankly 4336
dropping 4336
ferr@@ 4335
analyzer 4335
mild 4335
non 4334
percep@@ 4334
Chang 4333
lav@@ 4333
validity 4333
winding 4333
supporters 4332
honey@@ 4330
Rong@@ 4328
refrigerators 4328
decreasing 4327
mud@@ 4327
Fer@@ 4326
winners 4324
gentleman 4324
wrec@@ 4323
deaths 4322
generating 4322
jurisdiction 4321
bic@@ 4321
rem@@ 4321
Ter@@ 4320
sist@@ 4319
blew 4317
nity 4316
stamp 4315
Kodak 4315
ternary 4314
highlighted 4312
continental 4310
ticism 4310
ques 4308
cin 4307
wis@@ 4304
sorts 4304
unexpectedly 4304
wheels 4304
brazil 4303
anticip@@ 4303
iring 4303
sounded 4303
sep@@ 4302
funded 4302
xun 4301
missile 4301
green@@ 4300
erc@@ 4300
EE@@ 4299
escal@@ 4299
whit@@ 4298
particul@@ 4298
employer 4297
ani@@ 4296
ady 4294
ria 4294
350 4294
tu 4293
ini 4291
Xiang@@ 4290
shop@@ 4290
appraisal 4290
secretariat 4289
netbooks 4289
validation 4289
fem@@ 4288
sponsored 4287
… 4286
indirect 4286
Solutions 4285
wealthy 4285
magnet 4284
equations 4284
wn 4282
bid@@ 4282
henry 4282
foreigners 4282
EMC 4280
visibility 4279
ri 4279
kicked 4279
gaining 4278
embry@@ 4277
PLC 4277
Cypress 4277
eak 4277
AN 4276
chasing 4276
Hor@@ 4275
itting 4274
rs 4274
tops 4273
home@@ 4273
NO@@ 4273
plain@@ 4273
vaccine 4271
enz@@ 4271
iPod 4270
punished 4270
reservation 4269
iro 4268
estimation 4268
bench 4267
Cul@@ 4267
Ra@@ 4266
stretch 4266
fragr@@ 4266
illing 4266
GB@@ 4264
Eff@@ 4264
evolved 4263
aug@@ 4263
poem 4262
releasing 4260
organisms 4260
ICInsights 4260
distor@@ 4259
Measures 4259
startup 4259
scor@@ 4259
surpassing 4257
charlie 4257
distribute 4257
illumination 4257
tedly 4256
optoelectronic 4256
Ling@@ 4256
christian 4256
ift 4255
mommy 4255
disasters 4254
tony 4254
heights 4253
perfec@@ 4253
purification 4253
identical 4252
vit@@ 4252
Test 4250
microcontrollers 4250
ications 4249
comb@@ 4248
quotation 4248
Henan 4247
cham@@ 4245
lean@@ 4244
XML 4243
gli@@ 4243
ei 4243
arch 4243
attributed 4242
aband@@ 4242
evident 4242
cylinder 4241
animation 4240
min 4240
possess 4239
stopping 4238
detec@@ 4238
fuse 4237
GM 4237
21@@ 4237
hat@@ 4237
stan@@ 4236
rich@@ 4236
substitute 4236
cris@@ 4235
exercises 4234
camps 4234
Pres@@ 4233
shelf 4232
pling 4231
explored 4230
harmon@@ 4228
compens@@ 4228
ergy 4227
persistent 4227
allevi@@ 4227
subtle 4227
suits 4227
zhang 4226
vacc@@ 4224
step@@ 4224
rotating 4223
catalogue 4223
offensive 4222
opia 4222
gently 4222
diesel 4221
dead@@ 4221
awesome 4220
Altera 4219
dirt 4218
iger@@ 4218
renewal 4217
cover@@ 4217
recep@@ 4216
monkey 4216
wavelength 4216
boats 4216
consent 4216
argued 4215
ometr@@ 4213
arc@@ 4213
grandfather 4213
odes 4212
ora 4211
urge 4211
interoperability 4210
regulate 4210
itan 4210
switched 4209
oli@@ 4208
ogue 4208
cache 4208
DA 4208
chy 4207
playback 4207
tai@@ 4206
roy@@ 4206
MS@@ 4204
informationization 4204
osph@@ 4203
pow@@ 4203
respiratory 4202
PWM 4201
moder@@ 4200
consultant 4199
toler@@ 4199
borders 4198
Ci@@ 4198
counterparts 4198
seismic 4197
tumors 4197
oven 4195
assemble 4195
Vision 4194
commands 4194
defeated 4194
Chro@@ 4194
WLAN 4193
warn 4193
custom@@ 4193
guang 4191
Seoul 4191
uncomfortable 4190
bend 4189
chase 4189
configure 4187
simpler 4187
asts 4186
couples 4185
organizing 4184
los@@ 4184
routing 4184
resort 4183
ark 4183
pression 4182
Pu@@ 4181
Material 4180
frac@@ 4180
forests 4180
Spain 4180
thal@@ 4179
greece 4179
hibit 4178
traditionally 4177
camp@@ 4177
boot 4177
endo@@ 4175
escaped 4174
nel 4173
Battery 4173
antic 4171
sincere 4170
competence 4169
striking 4169
insight 4169
EP@@ 4168
embar@@ 4168
ound@@ 4167
dest 4165
wet@@ 4165
wave@@ 4165
IDM 4165
proceed 4164
chim@@ 4164
spite 4163
Motor 4163
yel@@ 4163
revision 4162
uding 4162
benefited 4162
sisters 4162
icheng 4161
pigs 4161
survived 4160
profession 4160
cousin 4158
Xiaobian 4158
dilig@@ 4158
voted 4157
talented 4157
subway 4157
acids 4156
countermeasures 4155
watch@@ 4155
deposition 4154
internationally 4154
rin@@ 4153
interrupt 4153
ano 4153
monopol@@ 4153
mastered 4153
priced 4151
gig@@ 4151
planting 4150
foldable 4150
tow@@ 4150
presum@@ 4149
mond 4148
troubled 4148
chan@@ 4148
boy@@ 4148
clusters 4148
allocated 4148
flor@@ 4147
votes 4147
IG@@ 4147
mar 4145
ara 4145
dim@@ 4145
pension 4144
alg@@ 4142
vation 4141
contem@@ 4141
Val@@ 4140
honestly 4140
Ger@@ 4140
explos@@ 4139
govern@@ 4138
fab@@ 4138
emitting 4137
ED@@ 4137
Lev@@ 4136
etary 4136
opponent 4135
mum 4134
ano@@ 4134
chin 4134
excav@@ 4134
stairs 4133
cried 4133
lining 4132
fus@@ 4131
anded 4131
dimin@@ 4130
notification 4129
recruit 4128
advantageous 4127
cathe@@ 4127
atal 4127
pum@@ 4127
respected 4127
well@@ 4125
arbitration 4125
masters 4124
fid@@ 4124
proliferation 4124
poison 4124
refined 4123
dispat@@ 4121
Golden 4120
zerland 4119
perpe@@ 4119
ville 4116
lem@@ 4116
insects 4115
MAX@@ 4114
Enterprises 4114
textile 4113
announcing 4113
damages 4112
deadline 4111
drill 4111
suggesting 4111
assignment 4110
horn 4110
iP@@ 4109
speeches 4108
eping 4108
iler 4108
anticipated 4107
ground@@ 4105
spinal 4105
jun@@ 4105
depic@@ 4103
discrimin@@ 4103
EV@@ 4103
Solution 4103
districts 4101
thief 4101
ured 4101
scram@@ 4101
ideological 4101
oscilloscope 4101
kid@@ 4100
pharmaceutical 4099
inclined 4099
aters 4098
Mainland 4098
6.5 4098
corners 4098
eme@@ 4097
flavor 4097
cervical 4097
unwilling 4097
ilian 4096
voluntary 4095
advancement 4095
jer@@ 4095
gel 4095
downs 4095
graduated 4093
butter 4093
splicing 4092
gie 4092
react 4092
unic@@ 4091
allies 4089
summarize 4089
nutri@@ 4086
loos@@ 4086
priest 4085
eigh@@ 4084
restoration 4083
reson@@ 4082
Open@@ 4081
shaped 4081
Ze@@ 4081
MC 4081
enthusiastic 4080
clarify 4080
alls 4079
vent 4079
Cir@@ 4078
Three 4078
Pi@@ 4078
sibility 4078
sab@@ 4077
Xin 4076
span 4076
rage 4076
tactics 4073
drain 4073
200,000 4073
safeguard 4072
aper 4071
decoding 4071
collabor@@ 4070
War@@ 4069
clubs 4069
depend@@ 4069
peers 4069
meas@@ 4068
indic@@ 4068
apps 4068
ometric 4067
England 4067
dried 4067
extending 4066
Tel@@ 4066
mei 4066
fog 4066
Properties 4064
affordable 4063
alli@@ 4063
emul@@ 4061
Java 4061
fav@@ 4061
cir@@ 4061
Comp@@ 4060
gus 4060
selecting 4060
reflec@@ 4059
fool@@ 4057
mill 4057
outr@@ 4056
Theory 4055
Micro 4054
agrees 4054
isc@@ 4054
SIM 4052
ache 4051
supplement 4051
generates 4051
dling 4050
flu 4047
supreme 4046
manag@@ 4046
Bur@@ 4046
Do@@ 4045
trunk 4044
udi 4044
Dongsheng 4043
neighbors 4042
clearance 4042
pist@@ 4042
appearing 4041
rounds 4040
entif@@ 4040
corporations 4040
Gbps 4040
candy 4039
Testing 4039
trials 4039
slot 4039
senator 4039
traders 4038
Bud@@ 4038
train@@ 4037
then@@ 4037
watts 4036
acious 4035
lator 4035
deepen 4035
whereas 4033
histor@@ 4033
vens 4033
opponents 4032
bamboo 4032
creatures 4031
squeeze 4031
cooked 4030
locally 4029
colonel 4029
liter@@ 4029
writes 4027
Aer@@ 4026
alleviate 4026
relates 4025
materi@@ 4025
accepting 4025
weigh@@ 4024
PO@@ 4022
grades 4021
pered 4021
tol@@ 4019
Ca@@ 4019
uro@@ 4019
leap@@ 4018
Yi 4018
continent 4018
Pen@@ 4017
cm 4017
Hz 4017
eous 4017
lieutenant 4016
cryp@@ 4016
Ansenmei 4015
dings 4014
waveform 4014
stays 4013
bble 4013
ensi@@ 4012
less@@ 4011
repeti@@ 4011
DR@@ 4009
certificates 4008
1990 4008
eighth 4007
uneven 4007
isting 4006
resigned 4006
undergone 4006
hitting 4005
ight@@ 4004
iPhones 4004
istan 4004
ring@@ 4001
paper@@ 4000
threatening 4000
gent 3999
erous 3999
chicago 3999
advisory 3998
isot@@ 3997
Strategy 3997
supplying 3996
cleaned 3996
zinc 3995
norm@@ 3993
ruin 3993
Mbps 3993
duck 3992
extends 3992
meals 3992
troubl@@ 3990
Effects 3990
500,000 3989
violations 3989
young@@ 3989
Economy 3989
conjunction 3989
cence 3988
deliberately 3987
execute 3987
kang 3986
iter 3985
heroes 3985
approxim@@ 3985
On 3985
theatre 3984
Society 3984
strengths 3984
sentences 3984
robert 3982
releases 3981
virtually 3981
pronoun@@ 3980
fact@@ 3980
Open 3980
spot@@ 3979
harmonic 3978
volunteers 3976
aerial 3975
worth@@ 3975
coma 3974
180 3974
shallow 3973
Musk 3973
mechan@@ 3973
Bloomberg 3973
resol@@ 3973
hic@@ 3972
crum@@ 3972
prac@@ 3971
voc@@ 3970
raft 3970
receipt 3969
nm@@ 3969
outline 3969
promotional 3968
charter 3968
utch 3968
Republic 3968
digging 3968
cran@@ 3967
Sanan 3967
referring 3966
shifting 3966
fax 3965
thy@@ 3964
worship 3964
soaring 3964
usions 3964
baseball 3963
， 3962
disabled 3962
projected 3962
implications 3961
Thailand 3961
celebration 3961
mini 3960
EMI 3959
Loc@@ 3959
chester 3959
mour@@ 3957
instability 3957
Flu@@ 3957
routers 3957
entine 3957
pursu@@ 3956
isher 3955
urged 3954
freezing 3954
trucks 3954
immun@@ 3953
box@@ 3953
tici@@ 3953
dea@@ 3952
temp@@ 3952
dining 3951
geological 3951
ilin 3950
Marvell 3950
canal 3950
shy 3949
wrapped 3947
SP 3947
elly 3947
inductance 3947
spin@@ 3947
blocking 3946
incidence 3946
puzz@@ 3945
pale 3945
dealer 3944
Swit@@ 3943
master@@ 3943
Aut@@ 3943
packet 3942
dental 3942
synthes@@ 3942
browser 3941
Edition 3939
Primary 3938
smiling 3938
dull 3937
injec@@ 3937
cked 3937
Sp@@ 3937
solely 3937
ows 3937
unhappy 3936
amid 3936
Environmental 3935
surprisingly 3934
IR@@ 3934
emic 3933
consult 3933
5th 3933
ammon@@ 3932
concer@@ 3932
swit@@ 3932
ifies 3932
sciences 3932
consolidation 3931
bug 3931
AL@@ 3931
mig@@ 3931
speeds 3928
ambigu@@ 3928
pret@@ 3928
charming 3928
jealous 3927
prescribed 3926
limiting 3925
fires 3925
woke 3925
lock@@ 3925
turbul@@ 3924
bob 3924
metabolism 3924
eral 3923
reasonably 3923
judged 3922
narrow@@ 3922
winds 3922
gging 3921
5S 3921
defendant 3921
possession 3920
gastric 3920
viruses 3920
820 3919
declare 3919
ored 3918
preserve 3917
Anhui 3916
stimulation 3916
open@@ 3916
oto 3916
grandmother 3915
withdrawn 3915
criterion 3915
prosperous 3914
ela 3914
trauma 3914
eam 3913
determin@@ 3913
vide@@ 3913
prog@@ 3913
las 3912
counsel@@ 3911
enrich@@ 3911
epith@@ 3909
disorders 3909
Lao 3909
resolutions 3909
stimul@@ 3909
acity 3908
absorbed 3908
BMW 3904
bru@@ 3904
alisation 3903
Technological 3902
gambling 3901
hos@@ 3900
shelter 3900
ester@@ 3899
expands 3899
calendar 3899
elet 3899
noon 3898
adjustable 3897
Fei@@ 3897
immunity 3897
yu@@ 3896
wounded 3896
tized 3896
behaviors 3896
occupation 3894
Tu@@ 3894
uti@@ 3892
resignation 3888
bial 3887
fence 3887
Weisheng 3887
chun 3887
esome 3887
approximately 3886
dazzling 3886
bull 3885
glu@@ 3885
blindly 3883
Can@@ 3882
spir@@ 3881
eva 3881
Instrument 3881
raises 3880
oz@@ 3879
successively 3879
gorgeous 3878
Foreign 3878
literally 3878
obtaining 3878
fragile 3878
Mexico 3878
angular 3877
delays 3877
motive 3877
bottlenecks 3877
Multimedia 3876
novels 3876
fer 3876
treatments 3876
5000 3875
horizon 3875
equi@@ 3875
anterior 3875
mortality 3874
Thom@@ 3874
exhausted 3874
challenged 3871
t. 3871
trail 3871
fluctuations 3870
servants 3870
undergoing 3870
awkward 3868
acknowledged 3868
Over@@ 3868
Limited 3867
27.@@ 3867
lt 3867
phases 3865
ooh 3864
has@@ 3864
icked 3864
shenzhen 3863
esh 3862
instantly 3861
mighty 3861
cer 3861
Stu@@ 3861
qualifications 3861
ration@@ 3860
modest 3859
understands 3859
Sy@@ 3859
essay 3859
vin@@ 3858
pour 3858
femin@@ 3858
trick@@ 3857
believing 3856
academy 3856
iti 3855
duction 3854
durable 3854
staring 3854
remin@@ 3854
etal 3853
ometry 3853
valence 3853
omy@@ 3852
protest 3851
amic 3850
55@@ 3849
printers 3848
preferences 3848
tig@@ 3848
migr@@ 3848
uang 3847
wanting 3847
bankers 3846
FC 3845
customize 3845
norms 3844
isms 3844
systematically 3843
some@@ 3843
unveiled 3843
unreasonable 3843
dumb 3841
nerves 3840
Optical 3840
reminds 3839
fulfill 3839
plastics 3838
mechanics 3838
ket 3837
Services 3837
Bloom 3837
communist 3836
threaten 3836
lightweight 3835
eternal 3835
injected 3834
oped 3833
ventricular 3833
tao 3833
notion 3833
happily 3833
arter@@ 3832
debu@@ 3832
collapsed 3832
Black 3832
approve 3831
arab 3830
resistant 3830
Source 3828
anthrop@@ 3828
tang 3826
contributing 3826
IPTV 3826
adi@@ 3825
vein 3825
phic 3825
intermedi@@ 3825
yao 3824
rescu@@ 3823
umb@@ 3823
qualitative 3821
adapted 3821
LTC@@ 3821
seed@@ 3820
blood@@ 3820
photograph 3819
CD 3819
oo 3819
equilibrium 3819
incorporated 3818
point@@ 3817
ox 3817
commitments 3817
revi@@ 3817
fitting 3815
reactor 3815
eter@@ 3814
jumping 3814
feast 3813
ener 3812
cut@@ 3812
conclude 3811
prisoner 3811
WTO 3810
foster 3810
conduc@@ 3809
franch@@ 3808
glucose 3808
connects 3807
lend 3807
trains 3807
king@@ 3806
pea@@ 3806
stret@@ 3806
buck@@ 3805
chaotic 3805
electrolytic 3804
NB 3804
lings 3804
consumed 3804
analy@@ 3803
creature 3803
x86 3803
Go 3803
perfection 3802
clos@@ 3801
interrupted 3801
honour 3801
frog 3800
durability 3800
Organization 3800
UI 3799
prompt 3799
solvent 3799
congrat@@ 3799
investigations 3798
45@@ 3797
decides 3797
cup@@ 3797
autonomy 3796
phr@@ 3796
JDI 3796
Softbank 3796
spectro@@ 3795
ogy 3795
Hebei 3795
icy 3795
appetite 3793
Gal@@ 3793
earth@@ 3792
racing 3792
immigration 3792
insists 3792
quartz 3791
David 3791
ana@@ 3790
CR@@ 3790
bride 3790
sky@@ 3788
mi 3787
loses 3787
infiltr@@ 3787
lowed 3787
tale 3787
yan@@ 3786
considerably 3786
rang@@ 3786
basket 3786
ec 3785
belonging 3785
transceiver 3785
ancies 3785
web@@ 3784
PA@@ 3784
invasion 3784
etr@@ 3782
evap@@ 3782
satellites 3782
roller 3782
Phys@@ 3782
su 3781
way@@ 3781
reiter@@ 3781
honesty 3781
glut@@ 3780
oul 3780
architectural 3780
engagement 3780
bonding 3780
ynamics 3779
unanim@@ 3778
Hunan 3778
eb@@ 3776
navy 3775
etc. 3775
vo 3775
interval 3774
morphology 3774
vial 3774
fiers 3773
elabor@@ 3772
1st 3772
Acid 3772
blowing 3772
millimeter 3771
helmet 3771
Ningbo 3770
Gu 3770
tified 3770
chromos@@ 3770
sis 3770
2.6 3769
pm 3768
delighted 3768
conscience 3767
cutaneous 3766
venous 3766
scarce 3766
lubr@@ 3765
shade 3765
penetr@@ 3765
Charg@@ 3764
tainment 3764
insert 3763
max 3763
configured 3763
Feng@@ 3763
OFweek 3762
substitu@@ 3761
employers 3761
accommodate 3761
undertaken 3760
sion@@ 3760
estive 3759
Leg@@ 3759
rel 3758
grandma 3758
monitored 3757
mercy 3757
aggrav@@ 3757
environmentally 3756
bye 3756
varies 3756
identifying 3755
exhibited 3753
streams 3753
cares 3752
definite 3752
Oper@@ 3752
icon 3752
3.3 3751
drum 3751
quanti@@ 3751
placing 3749
orbit 3749
eased 3749
distinguished 3748
coordin@@ 3748
reuse 3747
goddamn 3746
conceptual 3745
lian 3744
console 3744
stainless 3744
remotely 3743
exhaust 3742
latin 3742
Corning 3742
warri@@ 3741
weaker 3741
bour@@ 3740
closest 3740
rest@@ 3739
filing 3738
lan 3738
weakened 3738
3.2 3737
AB 3737
deck 3736
complained 3734
propor@@ 3734
Joint 3734
isa 3733
shaking 3732
abil@@ 3732
ew@@ 3731
rus 3731
GSM 3730
vil@@ 3730
knees 3729
devi@@ 3729
custody 3728
swept 3728
prehen@@ 3728
Wa@@ 3727
influencing 3725
vitamin 3724
dit@@ 3724
journ@@ 3723
pipes 3723
shru@@ 3722
subjective 3722
come@@ 3721
pending 3721
28.@@ 3721
accustomed 3720
Guizhou 3720
segmentation 3720
attitudes 3720
accumulate 3720
edi@@ 3720
maid 3719
ost@@ 3719
At@@ 3719
microprocessors 3718
gary 3718
iris 3718
laughter 3717
constructing 3717
slipped 3716
wallet 3715
optimum 3715
overtime 3715
Machine 3714
essly 3714
nick 3714
vicious 3713
feat@@ 3712
ader 3712
160 3712
Shun@@ 3711
believ@@ 3711
mes 3711
viewers 3711
sweet@@ 3711
practitioners 3709
controllable 3709
resses 3707
lively 3707
priorities 3707
Mir@@ 3707
scandal 3707
rot 3706
constitutional 3706
oxid@@ 3706
assured 3705
pairs 3705
neglected 3704
845 3704
intentions 3702
Sam@@ 3702
dignity 3701
ema 3700
sop@@ 3700
barg@@ 3699
myth 3699
decei@@ 3699
tags 3698
Shen 3698
distinctive 3697
33@@ 3697
inheritance 3696
him@@ 3696
utes 3695
Lab@@ 3695
Yuan@@ 3695
igns 3694
colum@@ 3694
hated 3694
wives 3694
fat@@ 3694
salaries 3694
etching 3693
ince 3693
ower 3692
Building 3692
Wechat 3692
configurations 3692
malignant 3691
indirectly 3691
common@@ 3690
dna 3690
Atl@@ 3690
draws 3690
identi@@ 3690
pancre@@ 3689
Connec@@ 3689
aces 3689
theft 3688
interfere 3688
vill@@ 3687
29.@@ 3686
Mus@@ 3686
physically 3685
carbonate 3685
izations 3685
gos@@ 3685
alkal@@ 3684
flour 3684
LD@@ 3683
ari 3683
obic 3682
kHz 3682
wastewater 3682
nap@@ 3682
gon@@ 3681
Bridge 3681
chassis 3681
uck@@ 3680
aked 3679
Gome 3678
pizza 3678
sales@@ 3677
enced 3676
addresses 3676
morality 3676
omes 3675
4,000 3675
&apos;ve 3675
bastard 3672
solem@@ 3671
buil@@ 3670
assass@@ 3669
spokes@@ 3669
hottest 3669
dictionary 3668
roman 3668
icle 3668
heal 3668
tokyo 3668
swal@@ 3665
nels 3665
peripherals 3664
bee 3663
blin@@ 3663
modu@@ 3662
criminals 3662
fang 3662
plex 3661
chooses 3661
gasoline 3659
dB 3659
clam@@ 3658
opathy 3658
sexy 3658
Nasdaq 3657
anci@@ 3657
ucle@@ 3656
scrat@@ 3656
lum@@ 3655
microscope 3655
strings 3655
trium@@ 3655
thering 3653
comprehen@@ 3653
conferences 3653
Lord 3653
depreciation 3653
palestinian 3653
humor 3651
prompted 3651
popularized 3651
Pan@@ 3651
Changjiang 3650
columns 3650
devote 3650
minimal 3649
originated 3648
congres@@ 3648
openness 3648
climbed 3648
socket 3647
graduation 3647
hub 3647
hits 3647
partially 3646
HTC@@ 3646
mandatory 3646
lymph@@ 3646
grip 3645
sleep@@ 3645
doms 3644
infer@@ 3644
dangers 3644
coc@@ 3644
consisting 3643
eption 3642
hormone 3642
respondents 3642
formerly 3641
connotation 3640
line@@ 3640
symbols 3639
hec@@ 3639
networked 3639
apol@@ 3639
past@@ 3638
chip@@ 3638
appl@@ 3638
labels 3637
pi 3636
excep@@ 3634
revenues 3634
affection 3632
IN 3632
intrac@@ 3632
WCDMA 3632
ylene 3631
attempted 3631
slaugh@@ 3630
intensified 3629
resident 3628
ami 3628
documentation 3628
gling 3627
urine 3627
magnificent 3626
Space 3625
contin@@ 3625
deviation 3625
conform 3624
Growth 3624
Mingji 3622
currencies 3622
ails 3622
dressing 3621
coff@@ 3620
adol@@ 3620
consumes 3620
2.8 3618
joints 3618
pc 3617
jug@@ 3617
pede@@ 3617
viable 3616
1.9 3616
investig@@ 3615
Catal@@ 3615
ett 3615
hurts 3614
healing 3613
melting 3613
taxation 3613
drift 3613
residence 3612
brick 3611
reasoning 3611
monopolized 3609
throm@@ 3609
coin 3609
iteration 3609
periodic 3608
2.7 3608
ocy@@ 3607
adventure 3607
VC 3606
wall@@ 3605
dean 3604
Far@@ 3604
shu@@ 3603
molecule 3603
municipalities 3603
Pic@@ 3603
Human 3603
qin 3602
motiv@@ 3600
Tre@@ 3600
ideology 3600
aping 3599
beaten 3599
Taipei 3598
elaborate 3598
backed 3598
fathers 3597
shire 3596
lers 3596
simplicity 3595
overwhelming 3595
ting@@ 3595
Kunshan 3594
e.g. 3594
deter@@ 3594
adequ@@ 3593
poems 3593
potenti@@ 3593
orr@@ 3593
tragic 3592
Part@@ 3591
ranges 3591
revenge 3591
jack@@ 3591
Distribution 3590
basement 3589
bolt 3589
Bay 3589
proceedings 3589
Applied 3588
Yahoo 3588
ration 3587
Glass 3586
ares 3586
suppression 3586
infections 3586
specim@@ 3585
ipe 3585
flexibly 3585
restric@@ 3585
oriented 3585
conductor 3584
BS 3583
indication 3583
veteran 3583
hedge 3582
sno@@ 3581
tonic 3581
shi@@ 3580
wrist 3580
passport 3580
atr@@ 3580
impulse 3579
adly 3578
Gar@@ 3578
amin@@ 3578
Cell 3578
advised 3577
sus@@ 3577
behave 3576
smiled 3576
ventilation 3576
endeav@@ 3575
itive 3575
regulated 3575
CE 3574
beliefs 3574
Rui@@ 3574
mist 3574
ogenous 3574
neighbor 3574
glue 3572
treasury 3572
wounds 3571
demanded 3571
ul 3571
hip@@ 3570
Planning 3570
converters 3569
joy@@ 3569
weekly 3568
stitu@@ 3568
chee@@ 3568
Special 3567
leverage 3567
consequence 3567
ambient 3567
sh 3566
enger 3566
porters 3566
raine 3565
daughters 3565
tenth 3565
activate 3564
inject 3564
penetrate 3563
targeting 3563
dick 3562
preser@@ 3562
D. 3561
adapter 3561
tense 3561
Safety 3560
bc 3560
wa 3560
impetus 3560
19th 3559
asc@@ 3559
uno@@ 3558
uter@@ 3558
brief@@ 3557
ave 3557
interpreted 3556
Cheng 3556
desirable 3556
RT@@ 3556
Index 3555
complimentary 3555
SI 3555
polar 3554
inseparable 3554
instrumentation 3553
enlarg@@ 3552
synchron@@ 3552
shells 3552
acle 3552
Yonghao 3551
downstairs 3551
campa@@ 3551
asy 3550
foolish 3550
consciously 3550
prosecution 3550
1991 3549
dock 3548
liv@@ 3548
Huay@@ 3548
pockets 3547
ambassador 3547
dont 3546
attending 3546
rapher 3545
anne@@ 3545
stle 3545
Mol@@ 3545
prayer 3545
Paul 3544
Xue@@ 3543
grounding 3540
fir@@ 3539
extracted 3539
turmoil 3538
stag@@ 3538
graphite 3537
betr@@ 3537
now@@ 3536
cage 3536
grabbed 3536
rigorous 3536
slave 3536
ni 3536
@ 3535
cleaner 3534
Siri 3534
wondered 3532
NI 3532
specialty 3532
scary 3531
SEMI 3531
efs 3531
UV 3530
invo@@ 3530
assault 3529
rude 3529
ordin@@ 3528
bridges 3528
exploitation 3528
blu@@ 3528
ulous 3528
oks 3527
sweetheart 3526
applicant 3526
imperative 3524
Foundation 3524
feared 3523
3.1 3523
chal@@ 3523
Chengdong 3523
Anti@@ 3523
fled 3522
excluded 3522
3.6 3522
dious 3522
gaps 3522
blown 3522
deficiency 3521
drought 3521
warrant 3521
mandate 3521
warfare 3521
Mechanism 3521
Mega 3520
minerals 3519
scored 3519
researched 3519
inventories 3518
extrem@@ 3518
recalled 3518
therap@@ 3518
vi 3518
hollywood 3518
.com 3518
sham@@ 3518
epoxy 3517
licence 3517
orb@@ 3514
niche 3513
polym@@ 3513
awake 3513
Longxin 3512
responding 3511
d.@@ 3511
flex@@ 3511
gateway 3510
contractor 3509
compressed 3509
defining 3509
scap@@ 3508
WE@@ 3508
acknowled@@ 3508
ubiquitous 3508
soccer 3506
berries 3506
till@@ 3506
administr@@ 3506
Using 3506
optic 3505
gi 3505
shining 3504
bypass 3504
color@@ 3504
carn@@ 3504
7Nm 3503
arre@@ 3503
lasers 3502
urbanization 3500
Log@@ 3500
essness 3498
enjoys 3497
ycle 3497
atro@@ 3497
folded 3497
Function 3497
MB 3496
permeability 3496
ometers 3496
part@@ 3496
portal 3495
entally 3495
demo@@ 3495
eration 3495
analyse 3494
exer@@ 3494
punch 3494
stipulated 3494
stin@@ 3493
ambi@@ 3493
lysis 3493
cakes 3492
agre@@ 3492
sweeping 3492
PD 3491
ice@@ 3491
dump 3491
consoles 3490
template 3490
ning@@ 3490
malicious 3490
jewelry 3490
restricting 3489
soap 3489
exagger@@ 3488
Osram 3488
alleged 3488
lem 3488
pills 3488
torque 3488
African 3488
lagging 3487
backing 3487
simultaneous 3487
emen 3487
handset 3487
cus@@ 3486
On@@ 3486
credibility 3485
gym 3484
adsorption 3484
focal 3482
wrong@@ 3482
istr@@ 3482
marsh@@ 3481
encrypted 3481
cha@@ 3480
screwed 3480
ordering 3480
Risa 3480
opa@@ 3480
seas 3480
references 3479
starch 3479
kill@@ 3479
Ir@@ 3478
honor@@ 3478
Sanyo 3478
High@@ 3478
simplifies 3477
reminded 3477
burg@@ 3477
legis@@ 3476
essing 3475
champ@@ 3475
drying 3474
fluctu@@ 3474
carriage 3474
throughput 3473
140 3473
persuade 3473
solic@@ 3473
altogether 3473
enhances 3473
deadly 3473
exclusively 3472
ornam@@ 3471
qiao 3470
oscope 3470
liquor 3469
Hammer 3469
safe@@ 3469
shuffling 3468
Hubei 3468
ippines 3467
nish 3467
enthusiasts 3467
Sur@@ 3467
fermentation 3467
prevented 3466
advise 3466
termination 3466
gradient 3466
boots 3465
SS@@ 3465
shut@@ 3464
imagin@@ 3464
alike 3464
nominal 3464
Dat@@ 3463
frank@@ 3463
offshore 3462
propri@@ 3462
Optim@@ 3462
Cao 3461
inhal@@ 3461
remedi@@ 3461
Develop@@ 3461
tili@@ 3460
uded 3460
ean 3459
ja 3459
posterior 3458
retained 3458
blan@@ 3457
raphy 3457
diffusion 3457
EDA 3456
conduction 3456
daniel 3455
MOCVD 3455
delete 3455
elementary 3455
ysts 3455
iller 3454
led@@ 3454
observer 3454
4.3 3453
futures 3453
suspicious 3453
omy 3453
ticul@@ 3452
successor 3452
completing 3451
liness 3450
distinction 3450
Regi@@ 3448
curative 3448
keywords 3448
cultivated 3448
legi@@ 3447
bored 3446
israeli 3446
kills 3446
pathological 3446
TD@@ 3446
tles 3445
hk@@ 3444
echo 3444
tless 3444
fleet 3443
ican 3443
pestic@@ 3443
attle 3443
imei 3443
Chemical 3443
zzle 3442
uo 3441
wasted 3440
milit@@ 3440
alties 3440
borrowing 3439
paras@@ 3438
enix 3438
magazines 3438
tub 3437
gian 3437
Sw@@ 3437
prohibited 3437
MLCC 3436
nationality 3436
preventive 3436
amplitude 3436
itude 3435
Hou@@ 3435
enrich 3434
quet 3434
fairness 3433
hex@@ 3432
shocking 3432
confined 3432
will@@ 3432
preservation 3432
wholesale 3431
brain@@ 3431
antine 3431
logy 3430
Life 3430
bladder 3430
stadium 3429
hk 3429
infancy 3428
teles@@ 3427
hypertension 3427
fair@@ 3426
tuous 3426
intellig@@ 3426
divisions 3425
&apos;meeting 3425
itter 3424
assem@@ 3424
tightly 3424
neys 3424
advocate 3424
editing 3423
selective 3422
ellip@@ 3422
moon@@ 3422
madam 3422
sail@@ 3422
benign 3422
Jiangxi 3422
cab 3421
Sum@@ 3420
Ningde 3420
evol@@ 3419
Sensor 3419
episode 3419
mesh 3418
alignment 3418
quo 3418
carto@@ 3418
methodology 3417
invests 3417
aim@@ 3417
shadows 3416
sarah 3416
Paris 3415
risky 3415
alia 3415
straw 3415
tiz@@ 3415
Canon 3414
centres 3414
melt 3413
stan 3413
copy@@ 3413
OEMs 3413
abdominal 3412
incorpor@@ 3412
sacred 3412
nah 3410
CCTV 3410
scru@@ 3410
ient 3410
closes 3410
reinforced 3409
elong 3408
coronary 3408
effec@@ 3408
stry 3408
queue 3407
asym@@ 3407
kinda 3407
encapsul@@ 3406
emit 3406
sergeant 3406
phin@@ 3406
mans 3406
Code 3405
Sina 3404
suppress 3404
leuk@@ 3404
freight 3404
erosion 3404
extinc@@ 3404
architectures 3403
Clinical 3403
lazy 3403
liberty 3403
stoc@@ 3403
itates 3402
km 3402
enic 3402
Equ@@ 3401
angeles 3400
dragged 3400
servation 3399
Automotive 3399
suspicion 3397
unil@@ 3397
Je@@ 3396
anne 3395
soared 3395
mentation 3395
Aff@@ 3394
bargaining 3394
alcohol@@ 3393
DC@@ 3393
nails 3393
300@@ 3392
CH@@ 3392
bacter@@ 3392
aki 3392
catastro@@ 3392
consolidated 3392
torture 3391
bonus 3390
Shuang@@ 3390
Foshan 3390
Yuan 3390
preference 3389
greenhouse 3389
privileg@@ 3388
integr@@ 3388
Num@@ 3387
Convention 3387
skull 3386
transferring 3386
assa@@ 3386
resi@@ 3386
flights 3385
ministries 3385
economist 3385
noodles 3384
colored 3383
nick@@ 3382
atch 3382
populations 3382
tricks 3380
3,@@ 3380
fare 3380
awa 3379
grains 3379
elle 3378
rabbits 3378
Mos@@ 3378
equipments 3378
Plas@@ 3378
arbitr@@ 3377
ry@@ 3377
differ 3377
helicopter 3377
impacts 3375
entations 3374
honored 3374
kindness 3373
employ 3373
olds 3372
embarrassed 3371
ota 3371
hospit@@ 3371
Guan@@ 3370
ethylene 3369
fec@@ 3369
settl@@ 3369
altern@@ 3369
alliances 3369
Chuang@@ 3369
Phot@@ 3368
though@@ 3367
jin@@ 3366
scalability 3366
nurses 3366
4.2 3366
suites 3365
virtualization 3364
volatile 3363
sewage 3363
breeze 3362
dents 3362
character@@ 3362
psychi@@ 3362
farming 3361
lov@@ 3361
republican 3361
intent 3361
utili@@ 3361
answering 3361
Top 3360
indul@@ 3360
xu 3360
Qi 3359
craf@@ 3359
grass@@ 3358
genic 3358
subver@@ 3357
fur 3356
substantive 3356
const@@ 3355
cler@@ 3354
dur@@ 3353
town@@ 3353
Invida 3353
ebr@@ 3353
aliz@@ 3352
asion 3352
orn 3351
lia 3351
firmware 3351
guilt 3351
weed 3351
unch 3351
cited 3351
entation 3350
450 3350
perf@@ 3350
scare 3350
issance 3350
progressive 3350
ille 3349
oted 3349
potato 3349
IF@@ 3349
bottles 3349
ig 3349
ylon 3349
amph@@ 3348
PL@@ 3347
cyto@@ 3347
senti@@ 3347
denti@@ 3347
outlets 3346
fies 3346
surveys 3345
assistants 3345
sian 3345
polarization 3345
wipe 3345
ashamed 3345
trash 3343
plug@@ 3343
macroeconomic 3343
practically 3343
lia@@ 3342
regain 3341
akes 3341
cinemas 3340
kindergartens 3340
critici@@ 3339
sia 3339
toast 3338
mom@@ 3338
drainage 3337
righte@@ 3337
atus 3336
lumens 3336
relate 3336
psycho@@ 3335
Xinhua 3334
tanks 3334
conveniently 3334
vel 3334
invalid 3333
Image 3333
retreat 3332
counties 3332
fantasy 3331
championship 3331
Ford 3331
slogan 3331
applicants 3330
numer@@ 3330
EN@@ 3329
guides 3329
tment 3329
Hess 3329
aring 3328
API 3327
chuck 3326
rejection 3326
resistor 3325
poured 3324
novel@@ 3324
Pot@@ 3323
olympics 3323
Supply 3323
Jer@@ 3323
poisoning 3322
30.@@ 3321
acket 3320
barrel 3319
Ham@@ 3319
preced@@ 3319
Epson 3318
IOT 3318
vertebr@@ 3318
expe@@ 3318
sty@@ 3317
rog@@ 3316
posi@@ 3315
lays 3314
01 3314
volcan@@ 3314
Supervision 3314
Town 3313
abstr@@ 3313
lions 3313
yn 3313
weighing 3313
Key 3312
phar@@ 3312
pse@@ 3312
suspects 3312
300,000 3312
displaying 3311
respects 3311
disturbed 3311
ayer 3311
balancing 3311
evid@@ 3310
join@@ 3310
richer 3310
week@@ 3309
fertili@@ 3309
cliff 3308
jan 3308
admission 3308
arbitrary 3307
committees 3306
LTPS 3306
interpret 3306
defensive 3305
RS@@ 3305
mush@@ 3305
whist@@ 3305
socialism 3305
robbery 3305
hip 3304
Southern 3304
admire 3303
2nd 3303
amps 3303
perceived 3303
ryp@@ 3302
questioning 3302
tina 3301
MRI 3301
pra@@ 3301
Web@@ 3301
0,000 3301
omatic 3300
firing 3300
texas 3300
ried 3299
finishing 3299
atmospheric 3299
anomal@@ 3299
supermarket 3298
bankrupt 3298
emic@@ 3298
gia 3298
pore 3298
Evaluation 3297
SiC 3296
chers 3296
doc 3296
ylation 3295
laundry 3295
dict@@ 3295
exhibit 3295
amen 3294
bicycles 3294
sovereign 3293
stein 3292
workload 3292
commanding 3292
igned 3292
Latin 3291
glob@@ 3291
Century 3291
cub@@ 3291
sometime 3290
heterogeneous 3289
exploded 3289
Wen 3289
simil@@ 3288
Bao@@ 3288
hollow 3288
spur@@ 3287
hazards 3286
ODM 3286
tise 3286
grief 3286
sandwich 3285
jia@@ 3285
ologically 3285
Vivitek 3285
stiff@@ 3285
Nit@@ 3285
Sing@@ 3284
jas@@ 3283
Culture 3283
rhyth@@ 3283
event@@ 3283
oldest 3283
time@@ 3281
dal@@ 3281
fame 3280
richard 3280
Youth 3279
graphical 3279
violated 3278
borrowed 3278
4000 3278
mu 3278
rud@@ 3277
chill 3277
carpet 3277
santa 3275
mentality 3275
potassium 3275
morph@@ 3275
complex@@ 3275
1970s 3275
IO 3274
rewar@@ 3274
shaping 3273
MacBook 3273
straigh@@ 3273
icating 3273
Panel 3273
stimulating 3273
midd@@ 3272
dimensional 3272
envelope 3272
gab@@ 3272
60,000 3272
theoretically 3272
eli 3271
accum@@ 3271
diagnosed 3270
successive 3270
empirical 3270
buck 3268
strengthens 3268
electrolyte 3268
Terminal 3267
occupying 3267
dream@@ 3267
smarter 3267
Hospital 3266
doomed 3266
ologies 3265
insist@@ 3265
Intellectual 3265
expon@@ 3264
medication 3262
transmit@@ 3262
Tom 3262
gastro@@ 3261
cruci@@ 3260
amino 3260
Social 3260
ESD 3260
emphasizing 3259
poet 3259
MB@@ 3258
lags 3258
cheap@@ 3258
Gl@@ 3257
Credit 3257
sens@@ 3257
lunar 3257
cadres 3257
Hea@@ 3256
weaknesses 3256
booking 3255
edy 3254
oxy@@ 3254
ruined 3254
singapore 3253
strikes 3252
insulin 3252
spectral 3252
centi@@ 3252
intimate 3250
spac@@ 3250
con 3249
alien 3249
Lumia 3248
compres@@ 3248
manipulation 3248
SIA 3247
optimism 3247
confidential 3247
tid@@ 3246
ird 3246
hist@@ 3245
Federation 3245
FM 3244
irrit@@ 3244
lumen 3244
attacking 3244
setup 3243
pork 3243
astonishing 3243
ocytes 3243
puri@@ 3242
itions 3242
3.4 3241
terly 3241
Ric@@ 3241
consequently 3241
omas 3241
ultr@@ 3241
purely 3240
39@@ 3240
informal 3239
lakes 3239
selfish 3239
rationality 3238
builds 3238
onics 3238
eur@@ 3236
dimming 3236
mim@@ 3235
eves 3235
exter@@ 3234
bosses 3234
upsurge 3234
coag@@ 3233
accus@@ 3233
liberal 3233
000@@ 3232
tress 3232
stration 3232
rati@@ 3232
observing 3231
ort 3230
congenital 3230
Vis@@ 3230
localized 3230
arities 3229
dismissed 3229
oll@@ 3228
lex@@ 3228
exem@@ 3228
terrorists 3228
angzhou 3228
dh@@ 3227
tionism 3226
40,000 3226
throne 3226
Cheng@@ 3225
disturbance 3224
sits 3224
freeze 3224
Express 3223
replied 3223
stap@@ 3223
flour@@ 3222
ila 3222
complet@@ 3222
revit@@ 3222
chap@@ 3222
Yun 3221
ushed 3220
hes 3220
stretched 3219
lease 3218
mix@@ 3218
macro@@ 3218
disciplines 3218
ju 3217
weakening 3217
implies 3217
TH@@ 3216
flash@@ 3216
explaining 3215
erial 3213
lowering 3213
Zhengzhou 3213
encourages 3213
precipitation 3212
Gou 3212
pet@@ 3212
contradictions 3212
alty 3210
fulfilled 3210
donor 3209
spontaneous 3209
hackers 3208
curr@@ 3208
odds 3208
metres 3208
embarrassment 3207
illusion 3206
jokes 3206
Components 3206
tough@@ 3206
downloaded 3206
admits 3205
shoot@@ 3205
wrap 3205
prolong 3205
intake 3205
mann 3205
Nexus 3205
Zhu@@ 3205
repu@@ 3204
Oc@@ 3204
titude 3204
Anal@@ 3203
legally 3203
squad 3202
surprises 3201
zoo 3201
federation 3201
Hon@@ 3201
slip@@ 3201
premises 3200
valent 3199
lobby 3199
senses 3199
blue@@ 3199
Sign@@ 3199
sorrow 3198
Bre@@ 3198
reset 3198
inflammation 3198
kim 3198
Dom@@ 3197
37@@ 3197
Simulation 3197
ischem@@ 3196
occup@@ 3196
ania 3194
enqu@@ 3194
entities 3194
colours 3194
cracking 3194
coke 3194
precau@@ 3192
cep@@ 3192
predecessor 3192
geo@@ 3192
DM 3192
seri@@ 3191
kle 3191
ont@@ 3191
sional 3190
globe 3190
dividends 3190
performs 3190
protot@@ 3190
charles 3190
accidentally 3189
bracelets 3189
twin 3189
devast@@ 3189
promp@@ 3188
swa@@ 3188
succ@@ 3187
sten@@ 3187
3.8 3187
anese 3187
odon@@ 3187
scar 3186
prejud@@ 3186
harv@@ 3185
gratitude 3184
itate 3183
contr@@ 3182
prefer@@ 3182
sellers 3181
beg 3181
ousy 3181
nat@@ 3180
ange 3180
amorphous 3180
Hir@@ 3180
translated 3180
Blackberry 3179
hing@@ 3179
duct 3179
rogen 3178
sticking 3178
underwater 3178
overheating 3178
ressed 3178
una 3177
secretly 3176
cigarettes 3176
usable 3176
breed 3175
liu 3175
mum@@ 3174
soluble 3174
resist@@ 3174
exerc@@ 3174
viewer 3174
Teaching 3174
colli@@ 3173
creditors 3172
fatty 3172
blow@@ 3172
isol@@ 3172
dha 3172
capita 3171
lungs 3171
Hyper@@ 3171
look@@ 3169
miserable 3168
Tianma 3168
allegations 3167
divine 3167
rehear@@ 3167
hen 3167
governmental 3166
macro 3166
deriv@@ 3166
unification 3166
brac@@ 3165
senate 3165
renovation 3165
potatoes 3164
Competition 3164
varied 3164
overhead 3164
evolve 3163
samsung 3163
mits 3162
strip@@ 3161
recruited 3161
orated 3160
portr@@ 3160
Heng@@ 3159
Medi@@ 3159
expressing 3159
apparatus 3159
mater@@ 3159
Economics 3158
Force 3157
commissioner 3157
wholly 3157
iciency 3156
gul@@ 3156
LP 3156
illustrate 3156
strangers 3155
Ky@@ 3154
someday 3153
ytic 3152
foam 3152
penny 3152
excellence 3152
sperm 3152
sub 3151
bless 3151
sluggish 3151
vocabulary 3150
tackle 3150
favourite 3150
jiang@@ 3150
pla@@ 3148
card@@ 3148
ugs 3147
expan@@ 3146
governing 3146
Shenyang 3146
atom 3146
inea 3146
eman 3146
Pul@@ 3146
soviet 3145
ware@@ 3145
drank 3145
execu@@ 3145
capsule 3144
infin@@ 3143
parag@@ 3143
destructive 3142
uncertainties 3142
ku 3142
wool 3142
asph@@ 3141
fertilizer 3141
linking 3141
civilians 3140
album 3139
Sin@@ 3139
your@@ 3139
elephant 3138
advancing 3137
gyros@@ 3137
rankings 3137
magical 3137
Francisco 3137
polite 3137
reversed 3136
sovereignty 3135
hepatic 3134
rolls 3134
ony@@ 3134
jan@@ 3134
diplom@@ 3133
DDR@@ 3132
searched 3132
gan@@ 3131
inappropriate 3130
bered 3130
gauge 3130
acknowledge 3130
vigil@@ 3130
2D 3130
bran@@ 3129
pyram@@ 3129
oxin 3129
48@@ 3129
Integration 3128
phere 3128
life@@ 3128
anni@@ 3128
hyster@@ 3128
roof@@ 3127
pu 3127
spiral 3127
gent@@ 3127
reconciliation 3126
SL@@ 3126
lasts 3126
2.5@@ 3125
forma@@ 3125
holdings 3125
taxpay@@ 3124
permitted 3124
societies 3123
unti@@ 3122
docking 3121
rab@@ 3120
carri@@ 3120
Malaysia 3120
syl@@ 3120
vague 3120
witch 3120
iries 3120
vic 3119
sincerely 3119
absent 3119
proportional 3119
st. 3119
buddh@@ 3118
tionist 3118
accep@@ 3118
intentionally 3117
exchanged 3117
reportedly 3117
rape 3116
gn@@ 3116
totaled 3116
ocular 3116
shear 3116
proving 3115
kai 3115
Qiu 3114
May@@ 3114
anity 3114
gum 3114
propagation 3114
cracks 3114
slow@@ 3114
acies 3113
repaired 3113
udge 3113
wished 3113
william 3112
wear@@ 3112
Den@@ 3112
relieve 3111
essions 3111
testimony 3110
grin@@ 3110
medal 3110
Ms. 3110
floors 3109
journalist 3109
tastes 3109
fifty 3108
、 3108
turb@@ 3108
lap 3108
Jing 3107
negl@@ 3107
FPC 3107
bubbles 3107
appreciated 3106
facebook 3106
fiable 3106
0.1 3105
nasal 3105
casual 3104
other@@ 3104
Algorithm 3103
vendor 3103
Shenzhou 3103
burns 3102
colleague 3102
sear@@ 3101
anonymous 3101
ropic 3100
hong@@ 3099
bracelet 3099
imbalance 3099
salad 3099
intellectu@@ 3098
debris 3097
suscep@@ 3097
trait 3097
jitter 3097
Processing 3095
Point 3095
unlocking 3095
reless 3095
dney 3094
helpless 3094
computational 3094
patrol 3094
spends 3094
profession@@ 3093
aesthetics 3093
farther 3093
nap 3093
gardens 3093
regression 3093
moul@@ 3092
fore 3092
eks 3092
ext 3092
MWC 3091
attribu@@ 3091
Wor@@ 3091
Fab@@ 3091
retrospec@@ 3091
ja@@ 3091
longest 3090
biom@@ 3090
DP 3090
scheduling 3089
morgan 3088
tian@@ 3088
suck 3087
versa@@ 3087
frightened 3087
dw@@ 3087
finger@@ 3086
prevents 3086
blessed 3086
insect 3085
fried 3085
eal 3084
continuity 3084
vulnerabilities 3084
terror 3084
interrog@@ 3083
tica 3083
describing 3082
precip@@ 3081
Atmel 3081
inno@@ 3081
fraction 3080
curiosity 3080
rebuild 3080
fairy 3079
subur@@ 3079
ASML 3079
Vari@@ 3079
GW 3079
idation 3079
alised 3077
oyang 3077
ez 3076
Pad 3076
irregular 3075
Experi@@ 3075
iel@@ 3075
EL 3075
Dou@@ 3075
interrup@@ 3075
condem@@ 3074
forehead 3074
Region 3074
chr@@ 3074
fri@@ 3074
databases 3074
Water@@ 3074
distingu@@ 3073
semantic 3073
lovers 3073
rels 3073
Ever@@ 3073
folder 3073
reject 3072
sail 3072
bore 3072
critic@@ 3071
organisation 3071
primitive 3070
astronau@@ 3070
delivering 3070
Yang@@ 3069
clause 3069
bombs 3069
dissertation 3069
CA 3068
contributes 3067
ener@@ 3067
energ@@ 3067
tali@@ 3066
Note7 3066
vapor 3065
Dai 3065
suspen@@ 3063
Yunnan 3063
purch@@ 3063
unions 3063
pragmatic 3062
calibr@@ 3062
artic@@ 3061
buz@@ 3061
Huizhou 3061
Emer@@ 3061
Fac@@ 3060
timetable 3060
fbi 3060
temper 3059
hman 3059
constrained 3059
geometric 3059
atric 3059
success@@ 3059
cheating 3058
benefiting 3058
gloves 3058
fixing 3058
terminate 3058
pledge 3057
wait@@ 3057
Gra@@ 3057
gger 3057
shuttle 3057
presti@@ 3056
tack@@ 3056
refresh 3056
esc@@ 3055
photograph@@ 3055
Non@@ 3055
Premier 3055
i.@@ 3055
aments 3054
clue 3054
infectious 3054
yards 3054
ograph@@ 3054
trad@@ 3054
Ding 3053
medicines 3052
4.4 3051
faul@@ 3050
arena 3050
solv@@ 3050
Ann@@ 3049
dc 3049
inous 3049
confrontation 3049
tories 3048
agn@@ 3048
waffles 3047
Pri@@ 3047
Nations 3047
multilateral 3047
curse 3047
floods 3047
mold 3046
servo 3045
aser 3045
chur@@ 3045
Fang 3045
odo@@ 3044
Patent 3044
mortal 3044
indigenous 3044
ery@@ 3044
rack 3043
visa 3042
deemed 3042
fear@@ 3042
themes 3042
tell@@ 3041
ensis 3041
faction 3041
frustrated 3040
dot@@ 3040
arguing 3039
Radi@@ 3039
translate 3039
binary 3039
microblog 3038
unlock 3038
explor@@ 3037
seeks 3036
terrestrial 3036
shook 3035
4th 3034
blueprint 3034
guitar 3033
che 3033
declar@@ 3033
Strategic 3033
skin@@ 3033
bn 3032
passi@@ 3032
broadca@@ 3032
utilizing 3031
immature 3031
convey 3030
economically 3030
inherited 3030
4.8 3030
retail@@ 3030
vis 3029
wasting 3029
derivatives 3029
ador@@ 3028
nightmare 3028
yep 3028
freak 3028
sensation 3028
chel@@ 3028
pron@@ 3028
hostile 3027
IPv6 3026
ceramics 3026
iser 3026
r. 3026
martin 3026
that@@ 3024
ris 3024
coated 3024
RGB 3023
Qin@@ 3023
Sunday 3022
Soil 3022
Lit@@ 3022
nearest 3021
flip 3021
breach 3021
adaptability 3021
Artificial 3021
nip@@ 3021
Machinery 3020
peng 3019
Hotel 3018
ux 3018
peasants 3017
squeezed 3017
programmed 3017
antom 3017
finalized 3016
diagnos@@ 3016
ushes 3014
assessed 3014
Netherlands 3014
wears 3013
cla@@ 3013
banner 3013
haul 3012
underestimated 3012
confirms 3012
shortages 3012
pound 3012
diaphragm 3012
smen 3012
Symbian 3011
amide 3010
transmitting 3010
DO@@ 3009
lop 3009
souls 3009
scales 3008
ICT 3008
ellular 3008
alis 3007
azole 3007
synthesized 3007
educated 3007
visitor 3006
vor@@ 3006
835 3005
guo 3005
collector 3004
PDP 3004
predicting 3004
tightening 3004
Bin 3004
eph@@ 3003
agglomeration 3003
999 3003
liabilities 3003
endang@@ 3002
assisted 3002
DI 3002
nings 3002
clark 3001
Ni@@ 3001
cabin 3001
Shaanxi 3000
franc@@ 3000
computation 3000
arium 2999
massage 2999
graded 2999
tant@@ 2998
sweetie 2998
veter@@ 2998
imitation 2998
inserted 2998
lightly 2998
hydrox@@ 2997
RS 2997
edit 2997
dynam@@ 2997
fond 2997
impres@@ 2996
arrays 2996
pean@@ 2996
802.11@@ 2995
rey 2995
jos@@ 2995
kly 2995
deterioration 2994
CNC 2994
ridge 2994
punish 2994
diment 2993
asing 2992
advoc@@ 2992
b. 2992
verpool 2991
pursued 2991
Reza 2991
sustain 2991
2K 2991
pend@@ 2991
fixation 2990
poles 2990
block@@ 2989
dispos@@ 2989
adaptation 2988
betan 2987
jen@@ 2987
farm@@ 2987
gram@@ 2986
pha 2985
Deng 2985
insane 2984
eton 2984
miners 2984
doubling 2984
ancer 2983
goodness 2982
Australian 2982
sang 2982
Song 2981
vulnerability 2981
chairs 2981
wu@@ 2981
pand@@ 2980
ov 2980
rul@@ 2980
unsatisfactory 2980
loud@@ 2980
clerk 2979
DE@@ 2979
not@@ 2979
livelihood 2979
Ya@@ 2979
orchestr@@ 2978
communicating 2978
pathy 2977
amendment 2977
forwar@@ 2976
corn@@ 2975
nasty 2975
vain 2975
skirt 2975
EMS 2974
Mad@@ 2974
piezoelectric 2974
agging 2973
ackers 2973
carbide 2972
assumption 2972
bli@@ 2972
cos 2972
3.7 2971
yields 2971
yle 2971
IO@@ 2971
titles 2970
dielectric 2970
UR@@ 2970
planets 2970
room@@ 2970
Implementation 2969
gos 2969
radius 2969
distress 2969
enh@@ 2969
expi@@ 2968
peculi@@ 2968
nes@@ 2968
Book 2967
specializing 2967
asshole 2967
beams 2967
hiring 2967
legacy 2966
west@@ 2966
renewed 2966
gallery 2966
gossip 2966
Methods 2966
imal 2966
esia 2965
CT@@ 2965
hepatitis 2965
habit@@ 2964
researching 2964
curb 2964
toral 2964
tribunal 2963
flooding 2963
shad@@ 2963
mutually 2962
wed@@ 2962
commissions 2962
mountain@@ 2961
undergo 2961
transformers 2960
vir@@ 2960
metropol@@ 2960
Museum 2960
grammar 2960
christi@@ 2959
champagne 2959
35.@@ 2959
victor@@ 2959
sians 2958
leasing 2958
defici@@ 2958
threads 2958
Kingdom 2957
sunset 2956
staff@@ 2956
preserved 2956
lu 2956
ili 2955
eliminates 2955
cracked 2955
chipmakers 2955
abs 2955
biot@@ 2954
yourselves 2954
toxicity 2954
observations 2954
Egyp@@ 2954
waterproof 2953
Is@@ 2953
yme 2953
memorial 2952
cy 2952
lion@@ 2952
hegemony 2952
ud 2952
hunter 2952
len@@ 2952
rib@@ 2952
Christie 2951
AM 2951
Inspection 2951
theat@@ 2950
receptor 2950
underneath 2950
handic@@ 2950
valves 2949
fractures 2949
luggage 2949
arrives 2949
blamed 2949
atable 2948
stabilization 2948
alex@@ 2947
enjoyment 2947
derness 2947
sten 2947
orating 2947
ylic 2946
exhaus@@ 2946
aks 2945
Atom 2945
brighter 2945
Scot@@ 2944
supervisor 2944
auc@@ 2943
zzy 2943
repairing 2943
Ec@@ 2943
team@@ 2942
Luc@@ 2942
asive 2941
consist 2941
weaken 2941
pher@@ 2940
infringed 2940
vom@@ 2939
Channel 2939
zers 2938
businessman 2938
pepper 2937
rying 2937
disarmament 2936
lei 2936
transitional 2935
territories 2935
biop@@ 2935
Fil@@ 2934
clearing 2934
dum 2933
fos@@ 2933
wizard 2933
Mini 2932
roses 2932
enzymes 2932
pearl 2932
intu@@ 2932
skip 2932
mentally 2932
weak@@ 2932
handful 2931
ya@@ 2931
Bitcoin 2931
sofa 2931
affiliated 2931
ival 2931
abrup@@ 2931
inely 2931
Ty@@ 2930
Future 2929
dark@@ 2928
traveled 2928
neglect 2928
evolutionary 2928
florida 2927
LAN 2927
Ang@@ 2926
fort 2926
arrow 2925
scri@@ 2925
titanium 2925
phon@@ 2925
noisy 2925
hazard 2925
unite 2924
eship 2924
microsoft 2924
internally 2923
strateg@@ 2922
traff@@ 2922
vine 2922
doctrine 2922
IM 2921
benz@@ 2921
Foun@@ 2921
vine@@ 2921
deer 2920
ional 2920
Chi@@ 2920
coincidence 2920
Mechan@@ 2920
maritime 2919
Py@@ 2919
MTK 2919
manually 2918
bible 2918
booked 2918
traditions 2917
suc@@ 2917
sponsor 2917
infring@@ 2917
cough 2917
romance 2917
objectively 2916
Gene 2916
predictions 2916
Ning@@ 2916
competitions 2916
incorporate 2916
domes@@ 2915
modul@@ 2915
subscription 2915
func@@ 2915
ello 2914
pollen 2914
ply 2914
lux@@ 2912
ob 2912
organis@@ 2912
Ly@@ 2912
Bosch 2912
containers 2912
Labs 2911
lon 2911
irrigation 2910
Ding@@ 2910
progres@@ 2910
replen@@ 2910
Green@@ 2910
synerg@@ 2909
plunged 2909
ml 2908
dram@@ 2908
remark@@ 2908
ingen@@ 2908
bust@@ 2908
arri@@ 2906
clic 2906
expose 2906
best@@ 2905
soybean 2905
hosts 2904
VA 2904
spacecraft 2904
Zeng 2903
ON@@ 2903
dug 2903
assay 2903
lawn 2903
Wafer 2903
butt 2902
shocks 2901
intensify 2901
tsunami 2901
suited 2901
despair 2901
ightful 2900
infant 2900
metall@@ 2900
costly 2900
coins 2900
compiled 2900
relays 2899
brit@@ 2899
cushi@@ 2899
Flex@@ 2899
insertion 2899
Der@@ 2898
anyang 2898
incre@@ 2897
sour@@ 2897
germin@@ 2897
cultivating 2897
Screen 2896
voy@@ 2896
dispar@@ 2896
sheriff 2896
blessing 2895
volunteer 2895
bies 2895
incur@@ 2894
squir@@ 2894
specializes 2894
perceive 2893
bro 2892
Bus 2892
reproduction 2892
enlarged 2891
calculations 2891
10nm 2891
ripe 2891
osens@@ 2890
hardness 2889
enth 2889
recei@@ 2889
Processor 2888
lingu@@ 2887
torch 2887
ority 2886
appropriately 2886
administrator 2886
Two 2885
summarizes 2885
symbolic 2885
storms 2885
prostitu@@ 2885
embrac@@ 2885
ifeng 2885
push@@ 2885
SA 2885
dos 2884
capitalism 2884
cured 2884
anie 2884
prolonged 2883
Fire 2883
thur 2883
revel@@ 2882
exican 2882
Qin 2881
gium 2881
sphere 2880
dence 2880
Xia 2880
Max 2880
lod@@ 2879
glac@@ 2879
inval@@ 2879
otype 2879
partition 2878
Ping 2878
Tor@@ 2877
questionna@@ 2877
rors 2877
fing 2876
periodic@@ 2876
sement 2875
prone 2875
sweep 2872
vegas 2871
plun@@ 2869
secured 2869
narrative 2869
pumps 2869
dissemination 2869
ADC 2869
boosted 2869
imperial 2868
max@@ 2868
consistently 2868
absur@@ 2868
lah 2867
alternatives 2867
resum@@ 2867
isk 2867
crises 2867
anian 2867
chuan 2867
Sports 2867
Chun@@ 2866
Lee 2866
circu@@ 2865
vet 2865
addressing 2865
manifestation 2865
Seagate 2865
Prime 2864
shouted 2864
cruise 2863
uration 2863
Best 2861
eurozone 2861
stam@@ 2861
academician 2861
coordinates 2861
forbidden 2860
elder 2860
instinc@@ 2860
Wal@@ 2860
mould 2860
fluorescence 2859
valu@@ 2859
2.9 2859
intern@@ 2859
traces 2858
Sul@@ 2858
abundance 2857
sentiment 2857
imminent 2857
changeable 2856
Rab@@ 2856
rh@@ 2856
utilize 2856
sap@@ 2856
VO@@ 2856
usa 2856
Chain 2856
itations 2856
rooted 2856
tribe 2855
gee 2855
jing@@ 2855
underst@@ 2854
bread@@ 2854
screaming 2854
Field 2853
accompany 2852
Dol@@ 2852
eyel@@ 2852
contra@@ 2851
adhesive 2851
Gang 2851
steril@@ 2849
pneum@@ 2849
thrust 2849
Vic@@ 2849
buys 2848
shielding 2848
therine 2848
prescription 2847
SMT 2846
clinton 2846
quan@@ 2845
blind@@ 2845
roadmap 2845
Max@@ 2844
trips 2844
alex 2844
specialist 2843
Austria 2842
PRO@@ 2842
Las 2842
approv@@ 2841
outing 2841
drawings 2841
quota 2841
desp@@ 2841
Taobao 2841
linkage 2841
augmented 2841
perspectives 2839
surgeon 2839
discourse 2838
halt 2838
topology 2838
improper 2838
cracy 2838
800@@ 2837
regim@@ 2836
battles 2836
atlantic 2836
forecasting 2836
QLED 2835
warm@@ 2835
accelerator 2835
deton@@ 2834
ireland 2834
crush 2834
entrepreneur 2834
Bal@@ 2833
reproductive 2833
Island 2833
produc@@ 2833
manages 2832
Microchip 2832
ld 2832
gland 2832
convincing 2831
viation 2831
influenza 2830
PD@@ 2829
protests 2829
stir 2829
scrut@@ 2828
proof@@ 2828
Sec@@ 2828
mail@@ 2827
thank@@ 2827
Chuanzhi 2827
jerusalem 2827
purse 2827
races 2827
decomposition 2826
inum 2826
toes 2826
commem@@ 2825
satisfying 2825
constructive 2825
billy 2825
tails 2824
Lia@@ 2824
abortion 2824
burnt 2824
protects 2824
peti@@ 2823
beloved 2823
mr@@ 2823
Ken@@ 2823
cle@@ 2823
actress 2823
counterfeit 2822
Sym@@ 2822
dwar@@ 2822
Photovoltaic 2821
companion 2821
aic 2821
strains 2820
predicament 2820
trum@@ 2820
Kindle 2819
kissed 2819
chris 2819
meanings 2819
delight 2818
embodied 2818
demol@@ 2818
sev@@ 2817
proximity 2817
pond 2817
aggregation 2817
couch 2816
financi@@ 2816
combinations 2816
install@@ 2816
Regulations 2816
icates 2815
shark 2815
ematic 2815
PH@@ 2815
4.1 2815
tish 2814
twisted 2814
counsel 2814
Counter@@ 2814
shelves 2814
lanterns 2813
synchronized 2813
swallow 2813
970 2812
aldehyde 2812
Venture 2812
Mu@@ 2812
All@@ 2811
vap@@ 2810
arse 2810
eability 2809
liang 2809
eg 2808
2021 2807
Smart@@ 2807
sunny 2807
emented 2807
caf@@ 2807
ennial 2807
Fa@@ 2806
sprin@@ 2806
warmth 2806
Pay 2806
moscow 2806
organism 2805
practicing 2805
mov@@ 2805
sar 2805
frigh@@ 2804
6,000 2804
Satellite 2804
lesions 2804
altitude 2803
hemorrhage 2802
gulf 2802
Peking 2802
Ping@@ 2802
fiel@@ 2801
antennas 2801
vities 2801
posium 2801
arising 2801
omorph@@ 2800
eligible 2800
heal@@ 2800
hath 2799
closet 2799
vig@@ 2798
etics 2798
portability 2798
sympathy 2798
superiority 2798
faithful 2798
worlds 2797
kish 2797
deploying 2796
Song@@ 2796
Haisi 2796
subversive 2796
Brand 2795
pli@@ 2794
Lith@@ 2794
conditional 2794
beast 2794
graft 2794
nano@@ 2794
kinetic 2794
toll 2794
atom@@ 2794
obey 2793
statue 2793
styl@@ 2793
vegetation 2792
lett 2792
ffing 2792
copes 2792
Steel 2792
Logic 2792
Defense 2792
xia@@ 2791
extensively 2791
eag@@ 2791
consp@@ 2790
Inc 2790
According 2790
dus 2789
restor@@ 2789
esian 2789
unparalleled 2789
texts 2789
eur 2788
geometry 2788
39.@@ 2788
dispatch 2787
reviewing 2787
thumb 2787
tester 2787
subjected 2787
decorated 2787
dumped 2786
bell@@ 2786
spinning 2786
shat@@ 2786
homogeneous 2786
forty 2785
riv@@ 2785
dral 2785
wrink@@ 2784
ato 2784
limbs 2784
formulating 2783
Ol@@ 2783
infringing 2783
pupils 2782
spectacular 2782
pouring 2782
fills 2781
implements 2781
uss 2781
radio@@ 2781
arians 2781
ulative 2781
IB@@ 2781
constitutes 2781
incredibly 2781
reversible 2780
epidemic 2780
WAPI 2780
C. 2780
symptom 2779
wee@@ 2779
stered 2779
enco@@ 2778
thomas 2778
ancestors 2777
acon 2777
nonsense 2777
rob 2777
circumstance 2777
apology 2776
embassy 2776
variations 2775
currents 2775
bullshit 2775
trajectory 2775
sensory 2774
thed 2774
associ@@ 2774
territorial 2773
Gro@@ 2773
Olympics 2773
optoelectronics 2773
urable 2773
imin 2773
abide 2772
belly 2772
jones 2771
col 2771
archives 2771
sad@@ 2771
functioning 2770
phony 2770
brav@@ 2770
declines 2769
renowned 2769
boston 2769
Mei@@ 2768
Rujing 2768
cuba 2768
Tran@@ 2768
rotary 2768
HDTV 2767
FinFET 2767
undertaking 2766
hesitate 2766
Magic 2766
Comb@@ 2766
myocardial 2765
View 2765
slice 2764
atization 2763
urgical 2763
Experimental 2763
Card 2763
turbine 2762
farms 2762
market@@ 2762
ainan 2761
teenagers 2761
Hist@@ 2761
sailing 2761
fif@@ 2761
delegations 2760
hatred 2760
lic 2759
establishes 2758
racial 2758
alongside 2758
swim@@ 2758
plasm 2757
tended 2757
surrender 2757
reminder 2757
fications 2756
embol@@ 2756
erad@@ 2756
seasons 2755
scrap 2754
evalu@@ 2754
inhibition 2753
fitted 2753
compil@@ 2752
villagers 2752
mirac@@ 2752
curves 2752
disap@@ 2751
36.@@ 2751
diversi@@ 2751
Rad@@ 2750
inland 2749
glit@@ 2749
neighbor@@ 2748
asthma 2748
awa@@ 2748
definitions 2748
tracked 2748
RNA 2748
jur@@ 2748
kilow@@ 2748
heater 2748
fic@@ 2748
cart 2748
bap@@ 2747
redundant 2747
ecosystems 2747
beau@@ 2747
4.6 2746
fines 2746
UN@@ 2746
icial 2746
viscosity 2745
struggled 2745
astro@@ 2745
dividing 2745
polymer@@ 2745
viral 2745
Navigation 2745
boiling 2744
politically 2744
kate 2744
cheat 2743
rendered 2743
exin 2743
astically 2743
jew@@ 2743
braz@@ 2742
kable 2742
regulating 2742
twist 2742
prey 2742
Modu@@ 2742
deco@@ 2741
linguistic 2741
500@@ 2740
sat@@ 2740
admi@@ 2740
harm@@ 2740
policeman 2740
labeled 2739
watt 2739
ighted 2738
foothold 2737
interestingly 2737
nega@@ 2736
asp@@ 2736
disciplinary 2736
1500 2735
achi@@ 2735
oner 2735
fiercely 2735
ailed 2735
clues 2735
rw@@ 2734
delegates 2734
At 2734
iac 2734
murderer 2734
endow@@ 2734
Qing 2734
otomy 2733
leban@@ 2733
Bri@@ 2733
reactive 2733
ladder 2733
outcomes 2733
judg@@ 2732
concise 2732
waist 2731
ticity 2731
merchant 2731
christ@@ 2731
policy@@ 2731
lam 2730
mutation 2730
expl@@ 2730
Om@@ 2729
bucket 2728
caring 2728
southeast 2727
electrostatic 2727
workplace 2727
cortex 2727
accompan@@ 2727
phen 2727
photographic 2726
asting 2726
thful 2726
legendary 2725
theastern 2725
seiz@@ 2724
yong 2724
visu@@ 2724
indexes 2724
travelling 2724
seminars 2724
4.7 2723
Bul@@ 2723
jimmy 2723
deciding 2723
Cells 2723
lur@@ 2723
amate@@ 2722
CC 2722
upload 2721
Vegas 2721
jeop@@ 2721
induce 2721
prolong@@ 2720
deeds 2720
Taiji 2720
oli 2720
disappointment 2719
retar@@ 2719
exert 2719
Bit@@ 2719
ninth 2719
DDR2 2718
circulating 2718
tron 2718
tou@@ 2717
ole@@ 2717
depri@@ 2717
Spectr@@ 2717
landmark 2716
catalytic 2716
ogen@@ 2716
HS 2716
tensions 2715
expres@@ 2715
eats 2715
oud 2715
toe 2714
nd 2714
bog@@ 2714
passionate 2714
relied 2713
huo 2713
Cin@@ 2712
erings 2712
Unit 2712
cheer 2711
vin 2711
stab@@ 2711
IV 2711
Low 2711
gib@@ 2710
employs 2710
tribu@@ 2710
nour@@ 2710
eo 2710
entang@@ 2709
Audio 2709
keynote 2709
lily 2709
zoom 2709
allergic 2709
exterior 2708
wells 2708
intersection 2708
shout 2708
categor@@ 2707
paradise 2707
ii@@ 2706
eed 2706
att 2706
Policy 2705
transfers 2705
transplant 2705
epit@@ 2704
butterfly 2704
rug 2704
orship 2704
CCFL 2703
rier 2703
likewise 2703
ymp@@ 2702
unconscious 2702
Agreement 2702
relaxation 2702
horror 2701
unk 2701
extingu@@ 2700
grocer@@ 2700
airlines 2700
coco@@ 2699
boarding 2699
Michael 2699
salesman 2699
nanotu@@ 2699
traded 2699
Value 2698
consortium 2698
bullets 2698
Vista 2698
fs 2698
Bl@@ 2697
trust@@ 2697
cing 2696
Optoelectronic 2696
oup 2696
utilized 2695
limb 2695
surveyed 2695
fossil 2695
magnesium 2694
balances 2694
pillow 2694
alter 2693
Squ@@ 2693
Organ@@ 2693
inspect 2693
quote 2692
aggression 2692
Team 2692
comb 2692
alar@@ 2691
browsing 2691
dish@@ 2691
explode 2691
08 2691
alise 2690
ffy 2690
diar@@ 2690
repres@@ 2689
regret@@ 2689
thunder 2688
obesity 2688
liberation 2688
inverters 2688
friend@@ 2688
capitalization 2687
energe@@ 2686
sequences 2686
sorting 2686
authentic 2686
bya 2686
disci@@ 2685
partnerships 2685
02 2685
xian 2685
grim 2685
goat 2685
possessed 2685
tall@@ 2685
Changdian 2684
encouragement 2684
reciproc@@ 2684
PE 2684
cereal 2684
classmates 2683
standardize 2683
compares 2683
fibro@@ 2683
paration 2682
acupuncture 2682
immigrants 2682
75@@ 2682
apoptosis 2682
diabetic 2681
Godson 2681
dominates 2681
uniformity 2681
totaling 2681
Lan@@ 2681
Phase 2681
differentiate 2680
yogurt 2680
infarction 2680
ROM 2679
hinder 2679
who@@ 2678
copied 2678
transcen@@ 2678
cry@@ 2678
digits 2677
Tiany@@ 2677
migrant 2677
sors 2677
cows 2677
fall@@ 2677
collectively 2676
rebounded 2676
sins 2676
ellers 2676
aby@@ 2676
Metro 2676
survi@@ 2675
CMMB 2675
Lea@@ 2675
aka 2675
ignorance 2675
sever@@ 2674
learnt 2674
ector 2673
ograms 2673
Sky@@ 2673
etting 2673
pois@@ 2672
utely 2672
If 2672
cd 2672
privilege 2672
bees 2672
demonstrating 2671
fee@@ 2671
hattan 2671
consist@@ 2670
harvard 2670
canv@@ 2670
idly 2669
zhu 2668
Automation 2668
retire 2668
CF@@ 2668
relessly 2667
misunderstanding 2667
crowds 2666
airplane 2666
slop@@ 2665
contracted 2665
oe 2665
triangle 2664
wheel@@ 2664
EV 2663
pro 2663
Clu@@ 2662
locomo@@ 2662
Networks 2662
recovering 2661
Qunchuang 2661
halfway 2661
Under@@ 2661
diagnose 2661
ocyte 2660
polishing 2660
ankle 2660
Munich 2660
Mall 2660
dreaming 2659
implantation 2659
readily 2659
umbrella 2658
o. 2657
interactions 2657
Murata 2657
negotiated 2657
Chemistry 2657
scann@@ 2657
remark 2657
succee@@ 2657
marrow 2657
antagon@@ 2657
Jinhua 2657
rough@@ 2656
decorative 2656
even@@ 2655
ule 2655
formers 2655
submission 2655
itong 2654
lon@@ 2654
CPUs 2654
nic 2653
fighter 2653
illustrates 2653
4K@@ 2652
sigh@@ 2652
antibiotics 2651
commissioning 2651
fuels 2651
dissemin@@ 2650
Architecture 2650
ict 2650
raph@@ 2650
herbs 2650
tational 2650
sulph@@ 2649
Blo@@ 2649
twins 2648
corrupt 2648
stamps 2648
feder@@ 2648
Grand 2648
chargers 2647
Meng 2647
junk 2647
ckets 2647
NZP 2647
v. 2647
Standardization 2646
DV@@ 2646
grams 2646
jade 2646
shutter 2646
vention 2645
abor@@ 2645
appreci@@ 2644
formations 2644
unpredictable 2644
.i 2644
oppos@@ 2643
Rom@@ 2643
dispu@@ 2643
signage 2643
crashed 2642
publications 2642
rotor 2642
Tao 2641
duous 2641
Content 2640
harbor 2640
cellul@@ 2640
0.2 2639
provis@@ 2639
altar 2639
superficial 2638
postponed 2638
ister 2637
cles 2637
thre@@ 2637
guangdong 2637
ellar 2637
derson 2637
unted 2636
clou@@ 2636
pissed 2636
900@@ 2636
resign 2636
manners 2635
detention 2635
curing 2635
rim@@ 2634
ignoring 2634
incoming 2634
recycled 2634
10.5 2634
A. 2633
compan@@ 2633
wax 2633
Compar@@ 2633
subdivision 2632
Kun@@ 2632
PCI 2632
128@@ 2632
rom@@ 2632
confidentiality 2632
unavoidable 2632
ibility 2632
Lixun 2632
steep 2632
olithic 2632
assing 2631
ishan 2631
clip 2631
leys 2630
diamonds 2630
shifts 2630
bust 2629
accidental 2629
avenue 2629
invasive 2629
torn 2628
affec@@ 2628
stipulates 2628
realm 2628
NOR 2628
bery 2627
Rex 2627
VI@@ 2626
cussion 2626
dimentary 2626
polys@@ 2626
repay 2626
Coun@@ 2625
celebrated 2625
eine 2625
commercially 2624
cancellation 2624
northeast 2624
conforms 2624
geography 2624
Zhao@@ 2623
TM 2623
Cas@@ 2623
continuation 2623
thailand 2623
immersion 2622
rays 2622
Greek 2622
supervise 2621
stain 2621
accusing 2621
liable 2621
bler 2621
olive 2620
frost 2620
tha 2620
haz@@ 2619
oppose 2619
Iran 2619
corne@@ 2619
hierarchy 2619
rons 2619
cooperates 2618
recruiting 2618
airline 2618
oda 2618
contamination 2618
advocates 2617
pens 2617
ames 2617
League 2617
fant@@ 2616
caution 2616
Panda 2616
mortg@@ 2615
digestion 2615
emitted 2615
attenuation 2615
jam 2615
Ten 2614
SDI 2614
Rail@@ 2614
You 2614
throw@@ 2614
Weiguo 2614
depar@@ 2614
nly 2614
earthquakes 2613
narrowed 2613
inflammatory 2613
pler 2613
evolving 2613
BA 2613
griev@@ 2612
shan@@ 2612
S8 2612
regeneration 2612
iike 2612
yiel@@ 2612
FP@@ 2611
volt@@ 2611
Func@@ 2611
incub@@ 2611
attachment 2611
geographic 2611
rout@@ 2611
ulong 2610
divorced 2610
lemon 2610
impacted 2610
propag@@ 2610
celebrity 2609
Ve@@ 2609
transfer@@ 2609
etry 2608
ury 2608
cohes@@ 2608
dav@@ 2608
tric@@ 2608
mas 2606
commerci@@ 2605
metallic 2605
hypothesis 2605
3rd 2605
SMIC 2605
disks 2605
archy 2605
Detection 2605
wer@@ 2605
Spanish 2604
escap@@ 2604
shortened 2604
antig@@ 2603
scrip@@ 2603
ceremon@@ 2603
promulg@@ 2603
loser 2603
handles 2603
volcanic 2603
corrected 2603
illegally 2602
wavelet 2602
congestion 2602
developmental 2602
heavi@@ 2602
spark 2602
tting 2601
relevance 2601
cyn@@ 2601
bat 2601
Shanxi 2601
Dun@@ 2601
envis@@ 2601
ries 2601
sleeve 2600
Army 2600
affirmed 2600
travelers 2598
GS 2598
crushed 2598
halls 2598
spotted 2598
undeniable 2598
terminated 2597
tally 2597
dynamically 2597
Peter 2597
SMEs 2596
flir@@ 2596
Soviet 2596
arrears 2596
hosted 2596
grandpa 2596
Sig@@ 2596
postp@@ 2595
supplementary 2595
xx 2595
usal 2595
18th 2595
asted 2595
Nav@@ 2594
With 2594
convicted 2594
HPLC 2594
pent@@ 2594
malls 2593
sculp@@ 2593
systemic 2593
coalition 2593
exploit 2593
bai 2592
jol@@ 2592
blend 2592
entrusted 2592
solder 2592
elop@@ 2591
Micros@@ 2591
urely 2591
lymp@@ 2591
premi@@ 2591
Hollywood 2591
antioxid@@ 2590
humble 2590
ause 2590
arctic 2590
objection 2590
combin@@ 2589
comrades 2589
bugs 2589
Fam@@ 2589
cock 2589
accent 2587
pse 2587
compressor 2587
poorly 2587
FO@@ 2587
adam 2587
pneu@@ 2586
sedi@@ 2586
knit@@ 2586
Devices 2586
neighbours 2585
lapar@@ 2585
chequ@@ 2585
spi@@ 2585
doll 2585
reservations 2585
multic@@ 2584
evaporation 2584
grow@@ 2584
intervene 2583
crystalli@@ 2583
Flow 2583
jungle 2583
tee 2582
bass 2582
renov@@ 2582
igning 2581
retention 2581
poin@@ 2581
icker 2580
contradic@@ 2580
aboard 2580
photoc@@ 2580
mitig@@ 2580
continually 2580
CCD 2578
authenticity 2578
ET 2577
rebels 2577
endure 2577
elo@@ 2577
Differ@@ 2576
logging 2576
digest 2576
arriving 2576
Jesus 2576
Sens@@ 2575
glow 2574
interim 2574
Exynos 2574
hurric@@ 2574
wom@@ 2574
kindergarten 2574
vior 2574
vil 2572
arrang@@ 2571
Netcom 2571
ction 2571
Activity 2571
synchronously 2570
ais@@ 2570
thwest 2570
nanotechnology 2569
awak@@ 2569
netic 2569
traced 2568
aquatic 2568
essional 2568
alge@@ 2567
portation 2567
annie 2567
AO@@ 2567
7th 2566
fascinating 2566
38.@@ 2566
tily 2566
Us 2566
Guoxin 2566
deaf 2565
leaked 2565
humili@@ 2565
Oculus 2565
seamlessly 2565
arious 2565
Server 2564
brian 2564
subsystem 2563
manipulate 2563
solidi@@ 2563
launches 2563
generalized 2563
ressing 2563
saf@@ 2563
disagree 2562
a.@@ 2562
650 2562
Pa@@ 2562
conformity 2562
FET 2562
istance 2561
mileage 2561
compass 2561
PU 2560
makeup 2560
stit@@ 2559
surve@@ 2559
Measurement 2559
configurable 2558
AA 2558
northwest 2558
atar 2558
vietnam 2558
embro@@ 2557
arge 2557
cardiovascular 2556
wen@@ 2556
kg 2556
Ram@@ 2555
Pla@@ 2555
ER 2555
workshops 2554
hurting 2553
antong 2553
followers 2553
silic@@ 2553
correlated 2553
judgement 2552
reb@@ 2552
hometown 2552
inorganic 2552
fas@@ 2552
lef@@ 2552
elt 2552
panor@@ 2551
imitate 2551
ement@@ 2551
gut 2551
sip@@ 2551
ocation 2551
recorder 2550
legitim@@ 2550
ethanol 2550
&apos;ll 2550
Influence 2549
chrome 2549
rhin@@ 2549
just@@ 2549
whale 2549
endoth@@ 2549
ADAS 2549
recognizing 2548
republicans 2548
danny 2548
Pentium 2548
adju@@ 2548
similarities 2548
tra 2548
what@@ 2547
Vehicles 2547
Commun@@ 2547
coatings 2546
conv@@ 2546
ingu@@ 2546
summar@@ 2545
swelling 2545
redund@@ 2545
timer 2545
rectifier 2544
sers 2544
waiter 2543
Cases 2543
weigh 2543
airports 2542
stresses 2542
Ot@@ 2542
bath@@ 2542
jo 2542
ogues 2542
violate 2541
richest 2541
Id@@ 2541
thouse 2540
ted@@ 2540
980 2540
89@@ 2539
southwest 2539
copying 2539
Environment 2539
Frequency 2539
metaphor 2539
receivers 2539
tram@@ 2538
iso@@ 2538
unacceptable 2538
y. 2537
corridor 2536
37.@@ 2536
subsidi@@ 2536
intest@@ 2536
damaging 2536
euro@@ 2536
Operating 2535
cript 2535
did@@ 2535
Hem@@ 2535
expenditures 2535
eler@@ 2534
supper 2534
inge 2534
jeans 2534
parad@@ 2534
insula 2533
3V 2533
dao 2533
Hongli 2533
invent@@ 2533
put@@ 2533
polic@@ 2532
roid 2532
sick@@ 2532
enligh@@ 2531
dang@@ 2531
anatomy 2531
chromatography 2530
omer 2530
Princi@@ 2530
eans 2530
viewpoint 2530
truste@@ 2529
digitalization 2529
occasional 2528
Expression 2528
spine 2528
graf@@ 2528
commercialized 2528
simplest 2527
eously 2527
gil@@ 2527
guangzhou 2527
Up@@ 2527
tiff 2526
tease 2526
Communist 2526
bbed 2526
commissioned 2526
planar 2525
borrow@@ 2525
masks 2525
obl@@ 2524
museums 2524
sadness 2524
omer@@ 2524
stems 2524
inception 2524
dash@@ 2524
rug@@ 2523
Regul@@ 2523
Relationship 2523
revis@@ 2523
porous 2522
belonged 2522
Dev@@ 2522
incremental 2521
inters 2521
envy 2521
perfor@@ 2521
trip@@ 2520
smug@@ 2520
temptation 2519
pains 2519
Hen@@ 2519
overload 2519
dens@@ 2518
Studies 2518
hap@@ 2517
Spansion 2517
destroying 2517
coln 2517
briefing 2517
aes@@ 2517
inning 2517
hemat@@ 2516
aceous 2516
Touch@@ 2516
garment 2515
press@@ 2514
saint 2514
ffed 2514
johnson 2514
Hi@@ 2514
jon@@ 2513
myth@@ 2513
I2C 2513
AI@@ 2513
tive@@ 2513
invari@@ 2513
aday 2512
pill 2511
osyn@@ 2511
Is 2511
foundations 2511
discour@@ 2510
nes 2510
Yel@@ 2510
rix 2510
concentrations 2509
latency 2509
dull@@ 2509
deleted 2509
confusing 2509
Huaping 2508
eau 2508
SRAM 2508
An 2508
wiped 2508
radioactive 2508
altered 2508
bipolar 2508
arithmetic 2507
Fire@@ 2507
lium 2507
PR@@ 2507
prognosis 2507
pulp 2507
pledged 2506
camer@@ 2506
tibility 2506
iff 2506
persever@@ 2506
prescri@@ 2505
consultations 2505
2022 2505
ima 2505
proposition 2505
locating 2504
casualties 2504
Sci@@ 2503
lattice 2503
poster 2503
inspir@@ 2503
informa@@ 2503
Q1 2502
evacu@@ 2502
question@@ 2502
inconsistent 2501
postoperative 2501
gestures 2501
ially 2501
scenic 2501
fisher@@ 2500
nano 2500
Rats 2500
Puti@@ 2500
loun@@ 2500
stabilized 2500
packs 2500
NA 2500
microphones 2499
Hun@@ 2499
ferred 2498
blanket 2497
meteorological 2497
Dragon 2497
FT 2496
suit@@ 2496
Jus@@ 2496
comment@@ 2496
hates 2496
memorandum 2495
skep@@ 2495
historically 2494
bachelor 2494
south@@ 2493
oils 2493
unfortunate 2493
complaining 2492
restart 2492
SN@@ 2491
australian 2491
sensi@@ 2490
conviction 2490
Reser@@ 2490
rounded 2490
ambitions 2489
arist@@ 2488
gres@@ 2488
Enzhipu 2488
milli@@ 2487
Rem@@ 2487
Confuci@@ 2487
inviting 2487
RT 2486
residue 2486
explores 2486
wre@@ 2486
‘ 2486
coherent 2485
fabricated 2485
temporal 2485
Twitter 2485
allocate 2485
pies 2485
nutrients 2485
achel 2484
birth@@ 2484
accommodation 2484
Morgan 2483
Cop@@ 2483
amen@@ 2483
chronous 2483
treats 2483
Mao 2483
burger 2483
steak 2482
salv@@ 2482
semester 2482
implanted 2481
bishop 2481
desser@@ 2481
conditioners 2480
egyp@@ 2480
motivated 2480
jour@@ 2480
confronted 2480
appy 2479
Chuan@@ 2479
scholar 2479
yang@@ 2479
ockey 2479
fers 2478
impul@@ 2478
gri@@ 2478
perme@@ 2477
contractors 2477
inter 2477
ital@@ 2477
rian 2477
examining 2477
ador 2476
plasia 2476
stall 2476
tray 2476
touches 2475
aped 2475
0.3 2475
16th 2475
gence 2474
palest@@ 2474
exaggerated 2474
rectification 2474
scream 2474
cheek 2474
shortening 2473
withdrew 2473
clum@@ 2473
fume 2473
strat@@ 2473
prospective 2472
openly 2471
dialog 2471
fundam@@ 2471
similarity 2471
gau@@ 2470
diary 2469
wicked 2469
betting 2469
kang@@ 2469
Black@@ 2469
Pos@@ 2469
relieved 2469
dairy 2469
epilep@@ 2468
ptive 2467
muslim 2467
oundly 2466
posture 2465
smells 2464
ema@@ 2464
midst 2464
ishments 2464
stiff 2463
dow@@ 2463
remedy 2462
incu@@ 2462
clad 2462
shui 2462
premature 2461
dinos@@ 2461
contribu@@ 2461
Zha@@ 2461
easing 2461
replaces 2460
osci@@ 2460
classrooms 2460
lled 2459
SONY 2459
Verizon 2459
0.4 2459
graphy 2458
phy 2458
naming 2458
itted 2458
kevin 2457
Cel@@ 2457
ez@@ 2457
touch@@ 2457
antibody 2457
rui 2457
inser@@ 2457
appealed 2457
James 2456
whol@@ 2456
Shin@@ 2455
Phy@@ 2455
Children 2455
additionally 2455
motorcycle 2455
AW@@ 2454
hers 2454
administ@@ 2454
Factors 2454
miss@@ 2453
Otellini 2453
compli@@ 2453
canadian 2453
sel 2453
hid 2453
influ@@ 2452
mediate 2452
gad@@ 2452
metaph@@ 2452
asm 2452
thieves 2451
discar@@ 2451
h. 2451
kal@@ 2450
Gas 2450
portrait 2450
Engineer 2448
splitting 2448
occupational 2448
adul@@ 2448
carb@@ 2447
Age 2447
take@@ 2447
linearity 2446
ante 2446
mia 2446
tones 2446
pollutants 2446
entals 2446
angels 2445
dep@@ 2444
penn@@ 2444
occurring 2444
indonesia 2444
05 2444
liar 2444
Bang@@ 2444
orium 2443
frustr@@ 2443
tings 2443
issa 2443
capac@@ 2443
Character@@ 2443
vampire 2442
Link 2442
cane 2442
loid 2442
nets 2441
issu@@ 2441
presenting 2440
budgets 2440
onary 2440
haze 2440
OT@@ 2440
inspire 2439
46@@ 2438
Deutsche 2438
tibet 2438
dim 2438
gru@@ 2438
famili@@ 2438
dispersion 2437
idol 2437
kling 2437
ayers 2436
stries 2436
notify 2435
beverage 2435
consultants 2435
reconc@@ 2435
suspend 2435
compet@@ 2435
Nikkei 2434
hotspot 2434
lys@@ 2434
bargain 2434
ept 2434
repairs 2433
brutal 2433
Su 2433
isolate 2433
tomato 2433
fucked 2432
randomly 2431
IPS 2431
mative 2430
donors 2430
ratings 2430
pencil 2430
101 2430
consultancy 2430
four@@ 2430
insulating 2430
grim@@ 2429
netbook 2429
satis@@ 2429
dres@@ 2429
slaves 2429
forums 2429
logs 2429
Cambrian 2428
frustration 2428
ected 2427
1960s 2427
bind 2427
spherical 2427
ission 2426
ley@@ 2426
generic 2426
participant 2426
puzzle 2426
Temperature 2425
entment 2425
Acc@@ 2424
inci@@ 2424
penalties 2424
waii 2424
&gt; 2424
bronze 2423
cared 2423
sulfur 2423
zhuang 2422
0.8 2422
undergraduate 2422
appropri@@ 2422
ski@@ 2422
owl 2422
hype 2422
concep@@ 2422
socks 2422
Qun@@ 2422
conspiracy 2422
augh@@ 2422
vou@@ 2421
distur@@ 2421
expresses 2421
stubborn 2420
inputs 2420
happier 2420
vertically 2420
apper 2420
hug 2420
sche 2420
photog@@ 2420
plague 2419
achusetts 2419
scalable 2419
courtes@@ 2418
Xun@@ 2418
galaxy 2418
Embedded 2418
chuang 2417
aggregate 2417
soda 2417
Don@@ 2417
Act 2416
She@@ 2415
fter 2415
virgin 2415
7,000 2415
hed@@ 2415
float 2415
ticle 2415
nerv@@ 2414
idated 2413
dians 2413
cups 2413
resor@@ 2413
sufficiently 2413
auditing 2413
antitrust 2413
pioneering 2413
enclosed 2413
asyn@@ 2412
vocal 2412
lime 2411
exist@@ 2411
radiator 2411
sized 2411
professors 2411
Pan 2411
lectures 2411
Gi@@ 2411
imperi@@ 2411
iph@@ 2411
courtyard 2411
Investigation 2410
decay 2410
symmetrical 2410
iah 2410
cens@@ 2410
francisco 2409
worms 2409
Willi@@ 2409
explicit 2409
replicate 2409
shuffle 2409
MD 2408
uplo@@ 2408
north@@ 2407
kow@@ 2407
climax 2407
machining 2407
1987 2407
dec 2407
delta 2407
ABB 2406
calm@@ 2406
Fusion 2406
obstruction 2406
gram 2406
Paper 2406
contraction 2405
5.2 2405
whiteboard 2405
storing 2405
rushing 2405
sensible 2405
ance@@ 2405
cartil@@ 2405
towers 2404
naval 2404
hint 2404
revolution@@ 2404
architec@@ 2403
sification 2403
cherry 2403
Yong 2403
Canadian 2402
oper 2402
isted 2402
conversations 2401
bish 2401
beneficiaries 2401
allow@@ 2400
promptly 2400
loy@@ 2400
coexist 2400
clerosis 2400
hib@@ 2400
mat 2400
takeover 2400
Swe@@ 2399
patches 2399
amy@@ 2399
fibre 2399
essors 2399
bage 2399
tolerate 2399
polish 2399
ege 2399
advocated 2399
iron@@ 2399
yers 2399
dries 2398
dess 2397
filament 2397
Dre@@ 2397
Signal 2396
refund 2396
instances 2396
outfit 2396
enna 2395
exacerb@@ 2395
distinc@@ 2395
Tang@@ 2395
explicitly 2395
mast@@ 2395
Bio@@ 2395
intact 2395
tomb 2395
actic 2395
democrats 2394
architect 2394
phosphorus 2393
ether 2393
Media@@ 2393
dreamed 2393
letin 2392
XP 2392
vals 2392
infants 2392
stalk 2391
ITC 2391
S7 2391
inductor 2390
slides 2390
advertisers 2390
qing@@ 2390
rainfall 2389
thanksgiving 2389
statis@@ 2389
speculate 2389
lessness 2389
philosophical 2388
awn 2388
susan 2388
56@@ 2388
Imagination 2387
une 2387
upr@@ 2387
Wav@@ 2387
chickens 2387
stripped 2387
metal@@ 2386
tices 2386
rewards 2385
Customs 2385
faint 2385
exceptional 2385
ois 2384
diluted 2384
Barcelona 2383
fred 2383
wai@@ 2383
decentralized 2383
revival 2383
destined 2382
screen@@ 2382
braking 2382
Volkswagen 2382
sulf@@ 2381
mit 2381
exhibits 2381
Guox@@ 2381
agged 2381
enary 2381
Statistics 2380
consul@@ 2380
permanently 2380
8.1 2380
callig@@ 2380
cognition 2380
revitalization 2380
Af@@ 2380
wav@@ 2379
uniqu@@ 2379
pollu@@ 2379
pren@@ 2378
expos@@ 2378
fifteen 2378
sper@@ 2378
rence 2377
ambulance 2377
Cooperation 2377
CSR 2376
diving 2376
fertility 2376
Core@@ 2376
heels 2376
sentenced 2376
founders 2376
5.6 2376
ith@@ 2376
ulator 2375
George 2374
Nik@@ 2374
mars 2374
uranium 2374
yoga 2373
iper 2373
extracting 2373
onds 2373
probes 2373
emi@@ 2373
aperture 2373
trousers 2373
announcements 2372
blur@@ 2372
Industries 2372
clamp 2371
quest 2371
hio 2371
urgency 2371
Tit@@ 2371
Art 2371
elizabeth 2370
textbooks 2370
exemp@@ 2370
reluc@@ 2370
Sense 2370
ishers 2369
estimat@@ 2369
misery 2368
Dri@@ 2368
intrinsic 2368
attempting 2368
Vo@@ 2368
Run@@ 2368
garlic 2368
lus@@ 2368
accessed 2367
john@@ 2367
emerg@@ 2367
dise 2366
icious 2366
yue 2366
assembling 2366
resumed 2366
1080P 2365
express@@ 2365
connec@@ 2365
typho@@ 2365
Chamber 2365
avoids 2364
cafe 2364
blockade 2364
news@@ 2363
Excell@@ 2363
slu@@ 2363
yarn 2363
GA 2362
tari@@ 2362
sels 2362
faded 2361
opy 2361
escort 2361
blows 2361
bbing 2361
marginal 2361
undp 2361
Tab@@ 2361
fil 2361
sore 2360
premier 2360
allowance 2360
warranty 2360
tuning 2359
enda 2359
privately 2359
inspector 2359
esse 2358
5.1 2358
ocar@@ 2358
Guangxi 2358
hous@@ 2357
ophil@@ 2357
ennium 2356
morphological 2355
IE@@ 2355
concessions 2355
fork 2355
bench@@ 2354
orer 2354
rally 2354
ranean 2354
design@@ 2354
firef@@ 2353
monot@@ 2353
Huang@@ 2353
refusal 2353
fecture 2352
yland 2352
mAh 2352
akers 2352
CO 2351
guarding 2351
surging 2351
amper 2351
ss 2351
duce 2351
illi@@ 2351
roll@@ 2350
behavioral 2350
plasty 2350
assign 2350
popularize 2349
TB 2349
emb@@ 2349
inductors 2349
sec 2349
Lim@@ 2349
supercomputers 2349
inar 2349
constr@@ 2348
convic@@ 2348
imper@@ 2348
verge 2347
DDR3 2347
merchan@@ 2346
izers 2346
ellor 2346
kir@@ 2346
expec@@ 2345
habitat 2345
pretending 2345
amus@@ 2345
travels 2345
cere@@ 2345
aster@@ 2345
lag@@ 2345
justified 2344
CAN 2344
lawful 2344
Nut 2344
homeless 2343
abbre@@ 2343
holographic 2343
wildlife 2343
Geely 2343
babe 2343
drawer 2342
thum@@ 2342
longitud@@ 2342
system@@ 2342
inexpensive 2342
rode 2342
cast@@ 2342
Dynamic 2341
unre@@ 2340
carved 2340
ugg@@ 2339
supportive 2339
prerequisite 2339
kes@@ 2339
AG@@ 2339
telec@@ 2338
confess 2338
Zhongshan 2338
zealand 2337
underta@@ 2337
resis 2337
detectors 2337
coven@@ 2337
chemotherapy 2337
ripple 2336
missi@@ 2336
Wee@@ 2336
hing 2336
cascade 2336
homogen@@ 2336
sincerity 2335
hydrate 2335
vot@@ 2335
Tem@@ 2335
pardon 2334
deposited 2334
fined 2334
straight@@ 2334
applic@@ 2334
unfamiliar 2334
RC 2333
poisonous 2333
RoHS 2333
manifestations 2333
buo@@ 2333
loneliness 2333
impa@@ 2332
maneu@@ 2332
browse 2332
170 2332
editors 2331
iliation 2331
quit@@ 2331
cyber@@ 2331
mamm@@ 2331
tranqu@@ 2331
balloon 2330
4,@@ 2330
pilots 2330
tertiary 2330
yun@@ 2330
There 2330
arer 2329
comparatively 2329
gdp 2329
odynamic 2329
shouting 2329
melon 2329
beauti@@ 2329
accommod@@ 2328
culation 2328
offense 2328
acu@@ 2328
220 2327
notified 2327
retinal 2327
iraqi 2327
converting 2327
fabrics 2326
Sta@@ 2326
flam@@ 2326
embryo 2326
hua@@ 2326
berlin 2326
triggering 2326
embo@@ 2326
Organic 2325
speculated 2325
integrators 2325
entials 2325
Phar@@ 2325
elity 2325
offr 2325
stakeholders 2324
dong@@ 2324
hepat@@ 2324
ashi 2324
Iron 2324
progressing 2324
dding 2324
uuuu@@ 2324
justify 2324
sickness 2323
aska 2323
jersey 2323
replaceable 2323
ints 2322
hormones 2322
distill@@ 2322
overlap 2322
kne@@ 2321
owei 2321
photos@@ 2321
disassembly 2321
Tal@@ 2321
ime 2319
eafter 2319
resili@@ 2319
finest 2319
tens@@ 2319
pact 2318
neat 2317
meteor@@ 2317
merits 2317
Zhan@@ 2317
programmers 2317
af 2317
80,000 2316
traumatic 2316
lipid 2315
Ireland 2315
Design@@ 2315
SAP 2315
cylindrical 2314
cone 2314
embr@@ 2313
predictable 2313
iation 2312
clari@@ 2312
rat@@ 2312
splendid 2311
sher@@ 2311
dues 2311
dants 2311
ongqing 2311
Tektronix 2311
anton@@ 2311
females 2311
ancers 2311
resur@@ 2310
oscopes 2310
harness 2310
harbour 2310
chir@@ 2310
overview 2310
gic 2309
ighting 2309
kage 2308
ele 2308
Respon@@ 2308
Pros@@ 2308
headlines 2308
Long 2308
Qianlong 2308
thyroid 2307
arthritis 2307
lords 2307
echnology 2306
incorrect 2306
rants 2306
headphone 2306
margin@@ 2305
charts 2305
muff@@ 2305
0.6 2305
explanations 2304
shortest 2304
higan 2304
visualization 2304
Mark 2303
neo@@ 2303
urs 2302
Zhongxing 2302
eld 2302
footage 2302
Fro@@ 2302
Berlin 2301
veins 2301
Mot@@ 2301
catering 2301
slim 2301
converts 2301
offence 2301
disappointing 2300
Saturday 2300
TP@@ 2300
Deputy 2300
defective 2300
fare@@ 2300
rite 2300
robbed 2300
pumping 2299
Tongfang 2299
IV@@ 2299
Net 2299
shoots 2299
deliver@@ 2298
cleans@@ 2298
Hes@@ 2298
thec@@ 2298
muscular 2298
desires 2297
tarily 2297
lest 2297
majesty 2297
tighten 2297
parked 2297
cloning 2297
condemned 2296
metast@@ 2296
hazardous 2296
inefficient 2296
workflow 2296
2S 2295
ruler 2295
750 2295
suing 2294
icially 2294
heav@@ 2294
Av@@ 2294
bourgeo@@ 2294
NT@@ 2294
5.4 2293
8.6 2293
consuming 2293
boar@@ 2293
credible 2292
SU@@ 2292
mediation 2292
snap 2292
Electricity 2292
scienti@@ 2292
undai 2291
pavement 2291
bedding 2291
internation@@ 2290
pillars 2290
impress 2290
gel@@ 2290
itical 2289
anesthesia 2289
collects 2289
P10 2288
ann 2288
edible 2288
subsidized 2288
discer@@ 2287
Emp@@ 2287
cel 2287
nesses 2287
15,000 2286
rebel@@ 2286
Liqu@@ 2286
surroundings 2286
stair@@ 2286
accessory 2285
sack 2285
Los 2285
pools 2285
Pak@@ 2285
radial 2284
DA@@ 2284
Conditions 2284
prospectus 2284
transnational 2284
appen@@ 2284
verbal 2284
yngeal 2283
displaced 2283
fic 2283
paradig@@ 2283
gm 2283
rd 2283
illustrated 2283
beats 2282
PN@@ 2282
teaches 2282
oscillation 2282
behold 2282
Bell 2281
dresses 2281
donation 2281
Music 2281
emergencies 2280
lethal 2280
ventr@@ 2280
rains 2280
poli@@ 2280
Telecommunications 2280
lapping 2280
icas 2280
overwhelmed 2280
Northern 2279
elasticity 2279
instein 2278
candle 2278
hardest 2277
archae@@ 2277
discharged 2277
ific@@ 2277
entially 2277
Chu@@ 2277
leware 2277
del 2277
applause 2276
AD 2276
dman 2276
clow@@ 2276
warnings 2276
pus@@ 2276
beard 2275
Agricul@@ 2275
tournament 2275
IHSiSuppli 2275
fragments 2275
iii 2275
flames 2275
49@@ 2274
retr@@ 2274
airs 2274
contaminated 2274
Master 2274
FS 2274
1980 2274
kel 2273
renminbi 2273
atorial 2273
Device 2272
700@@ 2272
orus 2272
Libr@@ 2272
bloom 2272
consolid@@ 2272
recommends 2272
Maj@@ 2271
surround 2271
Yin 2271
accord 2270
restraint 2270
5.7 2270
hemis@@ 2270
solo 2270
acquaint@@ 2270
cornerstone 2270
oak 2270
LV@@ 2270
Fu 2270
males 2270
inconvenient 2269
membran@@ 2269
spong@@ 2269
portu@@ 2269
towel 2269
unciation 2269
sketch 2269
TL@@ 2269
coli 2268
lumbar 2268
barbar@@ 2268
unpleasant 2268
dive 2268
eved 2268
phal@@ 2268
stance 2268
collar 2267
rectangular 2267
rant 2267
infec@@ 2267
fade 2267
lottery 2267
jordan 2267
springs 2267
otyp@@ 2267
crane 2266
industrialized 2266
Camer@@ 2265
plier 2264
aggres@@ 2264
underwear 2264
sils 2264
Flor@@ 2264
sichuan 2264
initiate 2264
Controll@@ 2263
confir@@ 2263
faculty 2263
favourable 2263
tomy 2262
aders 2262
DRC 2262
omet@@ 2262
sunrise 2262
parasitic 2261
MI 2261
joseph 2261
reproduce 2261
mons 2260
1.0 2260
agan 2260
Vit@@ 2260
GS@@ 2260
appeals 2260
jazz 2260
Second 2260
Bec@@ 2260
host@@ 2260
bud 2260
Ret@@ 2260
balcon@@ 2260
inhabit@@ 2259
kespeare 2259
Oil 2259
disturbing 2259
dan@@ 2259
jerk 2259
itus 2258
Gigabit 2257
ograph 2257
view@@ 2257
shu 2257
plur@@ 2257
forestry 2257
verdict 2257
sweater 2256
annoying 2256
dread@@ 2256
125 2255
fourthly 2255
fighters 2255
66@@ 2255
sour 2255
tick 2254
And 2254
Ultr@@ 2254
Sto@@ 2254
sudan 2254
roaming 2253
importing 2253
pessimistic 2253
alien@@ 2253
sai 2253
rou@@ 2253
unting 2252
arks 2252
Survey 2252
istically 2252
characterization 2251
monkeys 2251
iva 2251
volumes 2251
11th 2251
jackson 2251
enlightenment 2250
costume 2250
sediment 2250
origins 2250
handy 2249
hydrogen@@ 2249
tuberculosis 2249
fortunate 2249
jewish 2248
resolving 2248
pyro@@ 2248
P20 2248
wto 2248
thorac@@ 2248
drun@@ 2248
program@@ 2248
tales 2247
Fuzhou 2247
cultured 2246
million@@ 2246
compassion 2246
verb 2246
stig@@ 2246
flooded 2246
ecular 2245
dison 2245
ius 2245
Mongolia 2244
subordinate 2244
luck@@ 2244
manufactures 2244
Chin@@ 2244
Real 2244
cath@@ 2244
poll@@ 2244
amplification 2244
brass 2243
mistaken 2243
kissing 2243
assed 2243
chu 2242
enrollment 2242
[...]
