的 23283936
， 21742898
。 18927523
了 5331113
在 5229255
我 4327469
是 4173075
和 3787659
你 3449548
、 3290950
他 2098264
？ 1794590
我们 1794037
有 1637287
对 1531222
也 1480119
. 1404264
将 1401527
中 1377985
上 1286510
一个 1250192
不 1241655
, 1240556
与 1238395
就 1189025
都 1172014
“ 1166318
为 1115477
” 1081641
这 1079255
会 1068716
年 1018031
人 999805
到 991125
她 910717
他们 899905
可以 890091
但 868991
市场 835325
说 808121
而 792744
公司 776082
技术 746716
中国 743725
要 731187
并 727448
： 725177
等 707852
很 677959
从 676905
产品 667383
还 659934
好 650272
来 649983
被 645580
没有 627526
能 623736
把 618613
已经 578494
发展 578011
它 577611
吗 571596
更 563944
让 560438
！ 554974
企业 546648
进行 538177
如果 537389
） 533983
（ 532969
这个 532271
地 529014
着 528975
去 525733
以 522747
其 520557
研究 513141
知道 510481
问题 504875
新 503312
可能 501793
时 497411
什么 495890
给 486577
及 485172
这些 479092
可 477579
做 473491
下 470897
想 469273
月 467142
或 458331
该 456455
个 455244
于 449516
自己 449431
需要 440461
系统 438747
多 436628
； 425319
应用 422270
手机 413613
提供 412578
通过 402679
不是 398622
但是 398207
用 397904
后 396465
设计 395745
芯片 389804
大 388979
里 387139
因为 383387
现在 378933
目前 375412
使用 374360
工作 372805
性 367782
吧 366424
得 364811
那 362462
全球 360910
表示 359377
就是 353900
所 347817
过 346161
开始 345601
一@@ 345380
… 341251
产业 341013
以及 339576
设备 333382
成为 330024
美国 328099
认为 326365
影响 325433
主要 323231
) 320201
不@@ 317360
( 317268
一些 315993
向 314035
已 313652
时间 304911
这样 304593
大@@ 303466
最 302644
方面 288252
行业 287813
一种 287377
重要 286093
使 284585
这种 280538
国家 279264
又 276655
出 276405
实现 273902
领域 271116
比 271101
同时 271076
日 267089
所有 266561
分析 263676
当 262732
方法 262199
你们 261507
不会 253525
增长 253391
生产 251465
厂商 251132
包括 250096
对于 249488
高 248804
苹果 246693
其他 246027
者 245974
作为 245563
能够 244510
不同 244394
数据 243266
不能 242029
显示 240198
半导体 240037
时候 239664
们 238715
用户 238316
所以 237702
由 236840
像 232355
LED 231288
电视 230952
情况 230148
未来 227789
前 226871
点 223236
汽车 222518
看 222247
还是 221767
1 221705
功能 221627
由于 220939
事 220227
内 220046
非常 219605
采用 218670
一 218495
电子 215474
服务 214074
再 213697
呢 213361
因此 210805
业务 210786
3 210405
经济 209777
没 209443
支持 209316
应该 208993
必须 207053
不过 206546
世界 206319
子 205799
具有 204806
需求 203678
投资 203234
计划 201798
要求 200920
亿美元 200832
希望 200529
小@@ 199951
则 199311
化 199137
啊 199019
一直 198406
正在 198301
告诉 197644
2 196438
智能 196357
今年 195630
国内 195184
出现 194578
价格 193841
很多 192868
政府 192504
中@@ 191383
... 189241
只是 189052
国际 189013
三星 188955
信息 187418
控制 186469
达到 185150
《 184331
》 183637
为了 182207
方式 181840
发现 181461
管理 180845
? 180507
任何 180255
其中 179659
提高 178994
小 178173
走 178059
而且 177837
无@@ 176236
一样 176102
项目 175749
能力 175216
看到 175193
安全 175096
过程 174907
发生 173103
制造 171633
却 171031
您 169824
家 169523
选择 169034
那么 168933
10 168800
得到 167962
网络 167711
跟 167465
科技 166850
合作 166656
多@@ 165563
客户 164579
标准 164437
开发 164052
只 163925
它们 163669
还有 163649
移动 163603
一定 163476
人们 163284
相关 162289
5 162188
称 162025
喜欢 161998
生活 161309
较 160786
成本 160561
随着 160453
根据 160382
增加 159975
4 159731
至 159718
觉得 159291
获得 158245
之间 158231
我国 157839
才 157372
最大 156454
这是 155555
环境 155245
两个 155056
或者 154737
许多 153321
关系 152604
存在 152355
这里 152349
一起 152207
推出 152066
性能 151755
据 151619
带来 151221
那些 151026
来说 150736
高@@ 150293
孩子 150141
如何 149981
上@@ 149543
听 149528
研发 149239
怎么 149065
之后 149000
地方 147346
6 146220
处理 146220
作用 146018
品牌 144478
超过 144244
提出 143465
成 143274
起来 143257
机 142086
面板 142023
部分 141700
带 141637
发布 141494
利用 141319
东西 141243
进入 140967
英特尔 140117
结果 139472
为什么 138563
虽然 137636
创新 137537
之 136861
组织 136756
式 136618
测试 136206
日本 135825
地区 135315
帮助 134989
不断 134721
材料 134681
那个 134653
继续 134580
销售 133784
传统 133512
过去 133239
社会 133194
拥有 133089
车 132847
之前 132417
原因 132119
今天 131598
提升 131568
起 131082
只有 130639
有@@ 130632
平台 130392
新@@ 130310
目的 130290
产生 130249
器 129696
华为 129356
头 129355
人@@ 128823
智能手机 128426
目标 128363
正 128306
完成 128176
水 128018
先生 127764
了解 127459
结构 127428
物 127249
达 127140
这么 127004
并且 126867
有关 125374
之@@ 125073
整个 124591
的话 124315
一次 124134
工业 124102
亿元 123970
谁 123823
水@@ 123758
这一 123647
成功 123617
甚至 123588
出来 123381
然后 123369
法 123328
预计 123286
决定 123141
优势 122358
8 121914
中心 121844
软件 120878
占 120682
小米 120125
本 119944
仍 119927
用于 119827
之一 119734
活动 119449
报告 118909
是否 118901
区 118862
建立 118831
解决 118691
体 118463
钱 118458
7 117860
约 117851
最后 117847
线 117639
如 117484
光 117074
完全 116852
力 116822
教育 116775
模式 116657
事情 116617
基础 116513
机构 115816
快 115668
无法 114885
可@@ 114301
比较 114300
消费者 114014
三@@ 113634
政策 113236
下@@ 113173
集团 112764
电 112626
持续 112449
死 112185
传感器 111905
量 111870
请 111695
表现 111691
电脑 111614
斯 111613
建设 111458
照明 111352
人员 110999
关于 110886
去年 110851
改变 110556
度 110466
变化 110282
电池 110063
导致 109984
这@@ 109903
竞争 109785
规模 109220
出@@ 108868
来自 108837
两@@ 108751
内容 108619
一下 108430
型 108004
相信 107944
准备 107846
直接 107561
别 107496
地@@ 107294
基于 107210
介绍 107138
处理器 106993
发@@ 106911
解决方案 106703
进一步 106449
OLED 106094
特别 105591
低 105355
当然 105249
找到 105209
爱 105159
各种 105128
保护 105054
治疗 104974
形成 104420
真的 104244
长 104217
互联网 104159
心@@ 104071
降低 103944
指出 103798
减少 103748
考虑 103662
朋友 103391
打@@ 103302
一点 102549
接受 102510
机会 102363
城市 102302
找 102154
消息 101606
不要 101211
学 101182
此外 100489
名 100297
计算 100133
部 99884
吃 99782
数字 99513
有效 99182
内@@ 99174
价值 98852
太 98710
9 98657
: 98613
更加 98547
一切 98208
应 98033
空间 98027
越来越 98006
手 97617
水平 97519
资源 97354
拉@@ 97331
保持 97307
因素 97285
道 96935
行为 96876
自@@ 96665
然而 96620
收购 96603
受到 96544
" 96517
范围 96346
方案 96041
曾 95975
快速 95632
速度 95614
宣布 95580
加@@ 95538
行 95451
因 94787
大学 94631
外@@ 94034
海@@ 93906
特 93800
条件 93654
尽管 93625
我@@ 93587
我要 93313
除了 92963
天 92846
光@@ 92736
20 92702
前@@ 92675
另外 92606
高通 92601
分@@ 92530
开@@ 92518
天@@ 92364
德 92302
均 92280
此 92200
住 92148
以上 91574
关注 91529
造成 91267
电@@ 91182
每个 91143
另 90889
外 90630
时代 90623
学生 90504
明显 89901
类 89885
生 89793
— 89769
工厂 89392
期 89224
真正 89193
大家 89185
通信 89050
记者 89047
心 88747
尔 88672
调查 88471
大量 88442
美元 88228
会议 88162
打 88059
位 87985
率 87652
本文 87638
信号 87302
时@@ 87275
集成电路 87033
重@@ 86990
质量 86978
间 86815
本@@ 86798
开 86651
那@@ 86424
满足 86394
及其 86349
系列 86105
叫 86006
有人 85723
长@@ 85596
如此 85552
进 85477
处 85419
将会 85404
产能 85388
工艺 85324
想要 85171
部门 85143
核心 84922
推动 84670
12 84582
有些 84474
来看 84405
努力 84395
层 84354
下降 84194
代表 84100
见 84049
哦 83997
路 83954
从而 83916
效果 83784
最终 83691
战略 83530
专利 83453
理论 83445
面 83059
各 82953
号 82911
仍然 82803
马@@ 82773
同样 82576
平板 82569
款 82435
S@@ 82378
特@@ 82375
感觉 82252
确定 82119
条 81979
安@@ 81899
万@@ 81854
不仅 81671
学习 81629
第 81617
工程 81382
联网 81378
简单 81281
硬件 81219
面临 80940
每 80872
几乎 80866
克 80759
供应商 80346
一位 80193
最近 80060
受 79801
巨大 79762
也许 79611
检测 79392
一家 79303
元 79269
针对 79265
对@@ 79198
图 79059
热@@ 78731
市 78557
场 78477
生@@ 78354
气 78321
文化 78311
北京 78087
板 77906
基本 77765
离开 77759
值 77736
片 77449
员工 77428
学校 77345
帮 77239
资金 77235
细胞 77200
花 77153
拉 77081
程度 76906
屏幕 76826
相@@ 76615
压力 76603
取得 76514
以来 76445
作 76127
动 75987
容易 75954
利 75810
探讨 75785
收入 75725
模型 75656
其它 75651
C@@ 75485
大陆 75403
几个 75369
站 75245
意义 75234
报道 75052
分 74984
西@@ 74958
建议 74816
人类 74754
相比 74744
斯@@ 74641
体验 74612
投入 74553
四@@ 74551
问 74543
似乎 74332
最好 74240
全@@ 74235
拿 74210
2016 74194
2017 74181
消费 73996
PC 73888
制造商 73881
银行 73590
过@@ 73578
买 73177
管 73147
整体 72940
很大 72926
严重 72787
强 72746
通常 72705
保证 72697
成@@ 72668
需 72664
数量 72661
主@@ 72610
不想 72504
公@@ 72473
自 72446
关键 72436
才能 72411
发 72260
方向 72118
机器人 72079
视频 72071
运动 71968
预测 71968
卡 71870
台湾 71808
执行 71792
5@@ 71784
感到 71574
正@@ 71522
有限公司 71470
历史 71419
网 71397
电源 71338
云 71321
正式 71309
IC 71268
而@@ 71236
金@@ 71199
老@@ 71185
且 71170
单@@ 71135
同@@ 71124
门 70979
那里 70942
风@@ 70876
入 70768
委员会 70727
文件 70687
厂 70665
最新 70659
健康 70421
阶段 70394
台 70342
P@@ 70313
转@@ 70289
十@@ 70279
器件 70277
趋势 70267
讨论 70244
二@@ 70152
人士 70092
A@@ 70086
欧洲 70083
11 69973
第一 69880
协议 69781
我会 69773
运行 69755
美@@ 69690
流@@ 69622
6@@ 69581
3D 69534
当时 69474
行动 69300
连接 69259
终端 69192
交易 69129
近 69052
业 68986
分别 68796
使得 68736
总 68671
区域 68541
更好 68473
以前 68244
调整 68239
种 68149
德@@ 68091
家庭 68047
局 67851
法@@ 67811
那样 67787
上市 67742
写 67689
华@@ 67677
病 67639
一年 67634
B@@ 67628
一般 67559
30 67431
利@@ 67381
卡@@ 67375
几@@ 67373
掉 67348
媒体 67335
会@@ 67313
状态 67290
科@@ 67287
挑战 67261
成长 67125
权 67075
仅 66994
肯定 66865
真 66852
即 66716
内部 66654
特性 66472
变得 66464
同 66425
好@@ 66235
积极 66080
流 66007
％ 66005
专业 66003
阿@@ 65975
实际 65968
出货量 65941
游戏 65934
处于 65875
意味着 65849
上海 65829
效率 65732
花@@ 65445
数 65425
自动 65280
国@@ 65080
而言 65041
尤其 65008
稳定 64996
无线 64970
英国 64963
巴@@ 64936
看看 64929
尺寸 64898
个人 64817
总是 64812
嗯 64775
其实 64760
先进 64720
以@@ 64700
注意 64675
经过 64499
风险 64491
规定 64397
微软 64364
杀 64243
事件 64117
手@@ 64033
书 64014
特点 63928
3@@ 63910
4@@ 63792
罗@@ 63781
结合 63693
声 63616
参加 63546
利润 63443
全面 63433
操作 63396
其@@ 63220
件 63158
双@@ 63152
妈妈 63125
首先 63062
法律 63062
小时 62990
先 62949
措施 62934
电话 62928
实施 62917
位置 62892
日@@ 62812
广泛 62787
医生 62743
干 62740
反应 62714
级 62696
担心 62663
后@@ 62607
工具 62551
五@@ 62469
重点 62435
程序 62408
销量 62299
认识 62258
用@@ 62210
体系 62178
测量 62163
例如 62143
亿 61987
国 61910
这次 61866
白@@ 61604
5G 61524
引起 61502
经验 61493
2010 61436
任务 61428
D@@ 61425
无 61410
一项 61263
剂 61236
热 61211
购买 61207
迅速 61103
封装 61041
表明 60981
相对 60975
真@@ 60730
2015 60537
专家 60483
预期 60336
参与 60145
即使 60113
升级 60067
2@@ 59946
三个 59901
营收 59849
证明 59801
嘿 59682
变@@ 59555
头@@ 59346
太@@ 59314
成立 59269
新能源 59266
月份 59229
团队 59181
安装 59094
回 59021
受@@ 58999
话 58975
7@@ 58968
超@@ 58914
回@@ 58904
左右 58886
便 58882
实验 58806
此次 58791
唯一 58767
确保 58746
比如 58728
地位 58723
至少 58722
T@@ 58669
N@@ 58585
M@@ 58577
加入 58537
复杂 58451
人工智能 58444
或许 58333
计算机 58321
8@@ 58209
比@@ 58178
动@@ 58029
印度 57942
当前 57936
多少 57933
机@@ 57925
南@@ 57744
整合 57699
加强 57657
来@@ 57649
原@@ 57604
回来 57602
重新 57565
观察 57548
收@@ 57488
; 57456
G@@ 57440
如@@ 57413
A 57366
优化 57342
价 57213
州 57168
制 57159
结束 57138
韩国 57065
布@@ 57064
别人 57035
性@@ 56901
版 56870
文 56817
电压 56797
以后 56763
出口 56760
形式 56755
方 56752
充电 56733
H@@ 56718
iPhone 56710
促进 56691
商 56631
谷歌 56559
金 56554
语 56537
扩大 56494
不到 56471
非 56356
投影机 56323
感 56320
资料 56291
文@@ 56252
队 56160
体@@ 56155
万 56153
医疗 56080
重 56048
试验 56046
明白 56027
资本 56025
以为 56014
制度 55977
员 55909
R@@ 55886
逐渐 55852
电流 55648
尔@@ 55561
没@@ 55494
年@@ 55475
合@@ 55431
早 55425
科 55422
主 55400
么 55389
100 55197
球 55164
产业链 55087
是因为 55069
共同 55040
总@@ 55015
交@@ 54989
下来 54872
解释 54814
红@@ 54735
十分 54727
特征 54725
负责 54697
色 54631
亚@@ 54608
些 54603
所@@ 54536
只要 54434
派 54349
业界 54286
得@@ 54266
限制 54265
愿意 54260
东@@ 54221
政治 54193
未 54065
别@@ 54052
L@@ 54019
患者 53987
为@@ 53985
2011 53982
集成 53969
理解 53939
克@@ 53901
通@@ 53891
下滑 53826
F@@ 53805
运营商 53761
联想 53729
只能 53720
电影 53689
策略 53676
全国 53631
全部 53585
定@@ 53541
创造 53509
V@@ 53498
王@@ 53487
变 53461
2012 53395
接@@ 53368
不错 53291
不再 53291
可是 53231
一天 53171
改善 53140
跑 53120
哪 53099
家@@ 53027
里@@ 53010
说明 53001
相当 52946
而是 52927
女人 52848
明@@ 52788
如今 52773
品 52755
输出 52745
语言 52722
低@@ 52704
概念 52564
采取 52472
黑@@ 52443
透露 52379
父亲 52373
美 52372
突破 52331
气@@ 52289
国外 52263
这儿 52121
难 52091
联系 51995
按照 51950
E@@ 51880
有点 51879
展示 51761
成熟 51736
格@@ 51601
深@@ 51584
最@@ 51496
行@@ 51491
维@@ 51427
算法 51412
领先 51374
这项 51288
实际上 51286
装置 51250
AMD 51226
市场份额 51211
布局 51194
多个 51157
自然 51010
精@@ 51007
当@@ 50982
面@@ 50929
大多数 50914
平@@ 50910
规划 50904
代 50891
屏 50850
配置 50843
倍 50788
主义 50754
在于 50749
光电 50692
K@@ 50691
清楚 50608
基@@ 50532
反@@ 50509
图像 50501
最高 50471
模块 50428
科学 50393
功率 50347
做出 50347
灯 50339
X@@ 50335
百@@ 50335
良好 50327
岁 50312
9@@ 50297
现象 50294
架构 50252
出去 50252
显示器 50238
每@@ 50219
电路 50169
山 50056
指 50013
2008 50005
按 49967
经历 49947
表 49825
微@@ 49702
总统 49698
太阳能 49645
曾经 49605
明 49541
空@@ 49531
次 49520
组 49475
办法 49365
类型 49321
独立 49293
意识 49286
15 49244
基金 49158
全 49127
公布 49115
2009 49050
网站 49034
正常 49005
上升 48973
调@@ 48970
比赛 48929
模拟 48914
面对 48880
例 48877
供应 48816
通 48788
位于 48783
黄@@ 48751
索尼 48739
具体 48720
服务器 48719
令 48489
风 48475
放 48451
力量 48437
神@@ 48434
起@@ 48424
少 48333
一条 48302
检查 48205
火@@ 48118
多年 48043
很快 48022
期间 47936
学@@ 47927
酸 47898
听到 47889
波@@ 47857
现有 47826
质 47824
口 47789
看起来 47762
高兴 47740
2018 47721
门@@ 47703
! 47699
保@@ 47663
举行 47634
夫 47614
以下 47608
存储 47541
类似 47532
变成 47489
错 47453
几年 47417
允许 47392
不少 47367
块 47348
困难 47337
米 47221
同比 47166
大部分 47129
状况 47116
案 47103
记录 47096
经常 47096
等等 47095
机制 47039
爱@@ 46995
50 46986
世纪 46920
2013 46866
膜 46861
香港 46820
马 46721
意思 46700
夏普 46688
评价 46685
噢 46669
工@@ 46653
2014 46588
信 46573
错误 46566
费用 46545
德国 46527
结论 46503
确实 46386
深圳 46362
边 46353
此前 46268
大幅 46267
火 46258
定 46252
男人 46236
远 46234
经营 46197
放@@ 46170
哈@@ 46039
动物 45991
温度 45988
华 45937
城 45763
生命 45748
商业 45724
巨头 45669
山@@ 45663
具备 45628
盘 45595
强大 45578
呃 45555
表面 45523
双方 45514
作@@ 45493
意 45490
责任 45489
识别 45489
李@@ 45486
倒 45464
更@@ 45450
看@@ 45371
诺基亚 45339
音乐 45266
身 45237
怎样 45233
事实上 45214
穿 45203
台积 45174
临床 45161
自身 45133
一名 45122
丰富 45111
基 45093
费 45036
一部分 45034
组成 45027
入@@ 45009
有着 44986
依然 44973
力@@ 44926
避免 44904
不管 44794
声音 44772
名@@ 44733
精神 44715
制定 44684
直@@ 44674
化@@ 44629
运营 44624
信@@ 44618
加 44561
室 44508
张@@ 44435
看见 44427
数@@ 44426
口@@ 44378
单位 44358
吸引 44303
压 44227
失@@ 44212
船 44209
输入 44151
单 44150
危险 44141
进@@ 44119
车@@ 44076
自由 44055
评估 44049
一份 44016
方@@ 44011
报 44006
合 44001
卖 43979
生物 43977
某些 43970
三 43950
名字 43922
源 43916
普@@ 43892
该@@ 43835
故事 43804
段 43796
自主 43782
在@@ 43712
每年 43712
永远 43698
订单 43695
必要 43692
一旦 43646
恩 43603
鱼 43577
放在 43551
能源 43546
各@@ 43528
节 43468
立@@ 43468
支付 43462
参数 43432
+ 43414
格 43398
过来 43388
第二 43341
推进 43335
AI 43304
波 43273
结@@ 43217
预@@ 43182
联合 43113
激光 43086
业绩 43076
奥@@ 43074
改革 43026
儿子 42946
再次 42938
两种 42912
2007 42890
成员 42840
工程师 42835
星 42806
采购 42796
达@@ 42790
远@@ 42775
重大 42772
一款 42682
儿 42641
增强 42612
集中 42604
属于 42571
从@@ 42565
要@@ 42556
竞争力 42552
一场 42540
& 42531
时期 42509
申请 42498
1@@ 42475
广告 42420
军 42389
推@@ 42356
尼 42351
尼@@ 42344
经 42255
涉及 42251
显然 42205
综合 42203
落 42168
词 42116
是不是 42048
不用 42044
机器 42041
现代 42027
战 41990
玻璃 41936
正是 41886
老 41882
加速 41860
药 41828
足够 41815
看来 41766
飞@@ 41727
他@@ 41690
包含 41636
万台 41635
好像 41621
能@@ 41570
强调 41563
试@@ 41536
项 41431
点@@ 41399
包 41385
新型 41358
系 41358
分析师 41327
植物 41291
接口 41232
装 41214
适合 41200
上述 41181
失去 41155
警察 41132
应@@ 41130
林 41095
本身 41075
渠道 41058
加快 41024
恢复 40987
角度 40970
西 40902
抱歉 40890
排@@ 40855
频率 40839
里面 40816
资产 40805
视 40802
差 40790
讲 40789
当地 40743
之外 40699
靠 40683
身体 40648
完善 40638
彩电 40627
手术 40569
人才 40567
情@@ 40555
意见 40498
复@@ 40419
接近 40409
新闻 40375
强@@ 40329
明年 40318
装@@ 40297
显示屏 40284
同意 40282
情 40269
融合 40267
管@@ 40232
众多 40195
符合 40193
改进 40183
根本 40148
提@@ 40141
正确 40105
论 40078
驱动 39918
古@@ 39896
销售额 39879
比例 39851
油 39844
传@@ 39842
谈 39834
每天 39811
神 39760
U@@ 39756
记得 39754
医院 39746
非@@ 39744
相同 39720
海外 39710
酒 39709
整@@ 39677
血@@ 39661
联盟 39661
房间 39637
上帝 39624
40 39611
还要 39571
身上 39550
角 39522
照片 39501
对此 39445
眼 39428
油@@ 39418
她们 39412
教 39398
特殊 39397
石 39381
先@@ 39377
连 39341
全新 39337
知识 39336
飞机 39331
素 39320
近日 39318
智慧 39299
和@@ 39274
群 39258
骨 39250
V 39236
很@@ 39223
酒店 39206
I@@ 39202
干@@ 39163
森 39150
距离 39144
木@@ 39102
一系列 39052
开放 39037
W@@ 39015
表达 38906
投资者 38888
连续 38866
现实 38848
首@@ 38845
省 38822
林@@ 38813
制@@ 38794
雷@@ 38789
光伏 38755
高度 38726
金属 38719
最佳 38703
利益 38661
清@@ 38661
额 38659
不得不 38648
店 38608
启动 38541
寻找 38531
股份 38507
日前 38503
诊断 38494
完 38489
真是 38469
往 38391
圣@@ 38389
身@@ 38375
极@@ 38366
料 38358
思想 38324
现场 38319
理@@ 38306
制造业 38285
伤 38277
威胁 38261
北@@ 38260
适用 38257
房子 38213
独@@ 38207
皮@@ 38207
设置 38188
刚 38164
状 38116
战争 38101
两年 38067
千@@ 38064
玩 38027
万美元 38011
贸易 37973
人民币 37957
母亲 37942
首次 37940
若 37937
路@@ 37936
事@@ 37899
核@@ 37886
内存 37867
作出 37821
试图 37796
完整 37716
常@@ 37694
生产线 37692
教学 37679
推广 37677
人民 37630
连@@ 37623
脑@@ 37587
再@@ 37468
普通 37462
放弃 37434
平均 37411
O@@ 37397
沙@@ 37387
送 37361
16 37348
安排 37334
值得 37298
基地 37277
除 37246
令人 37241
估计 37222
压@@ 37222
形 37205
S 37193
走@@ 37174
不足 37143
到底 37116
牌 37093
多种 37063
DRAM 37058
动力 37054
领导 37044
衣服 36978
VR 36957
子@@ 36897
伊@@ 36888
开展 36885
1.@@ 36827
19@@ 36805
工 36758
转移 36752
缺乏 36749
海 36739
P 36732
实验室 36728
突然 36724
方便 36701
纳 36676
观点 36673
图@@ 36668
八@@ 36665
分布 36652
手段 36637
一致 36634
越 36613
富士康 36610
代工 36608
取 36589
事实 36567
亚 36536
选 36519
商@@ 36516
异@@ 36514
背景 36491
占据 36483
进展 36473
哪里 36422
此@@ 36398
画 36375
儿童 36349
即将 36345
待 36324
女@@ 36304
回到 36296
第一@@ 36286
我能 36269
效应 36206
应当 36200
亚洲 36175
授权 36163
爸爸 36151
IT 36106
高达 36099
谢谢 36061
用来 36059
未@@ 36050
转型 36043
芯 36018
承认 35957
界 35939
主流 35937
坚持 35880
弄 35852
血 35851
一件 35834
半@@ 35829
然 35828
运用 35801
大会 35768
树 35763
定义 35752
病@@ 35722
狗 35712
说话 35711
六@@ 35682
刚刚 35669
轻@@ 35661
满 35641
事业 35624
5% 35621
打开 35614
明确 35610
产@@ 35596
办公室 35595
液晶 35593
产量 35549
食物 35547
有助于 35541
对象 35487
公开 35478
股 35459
不可 35454
晚上 35439
既 35388
LG 35378
皮 35376
石@@ 35374
贝@@ 35312
不了 35287
铁@@ 35262
交流 35253
建@@ 35252
根 35248
艺术 35234
加上 35228
大型 35221
拒绝 35220
经@@ 35158
定位 35151
共@@ 35110
萨@@ 35086
艾@@ 35062
进步 35039
近年来 35032
18 35015
联@@ 35003
疾病 34945
制作 34882
25 34851
原则 34850
e@@ 34847
向@@ 34811
更为 34794
版本 34778
高级 34756
维持 34719
相 34695
分子 34689
眼睛 34688
民@@ 34661
院 34644
液晶电视 34620
做到 34585
态度 34574
样 34519
表@@ 34513
文章 34467
ARM 34462
微 34451
元件 34421
想法 34398
聚@@ 34358
发挥 34353
偏@@ 34352
父母 34351
相应 34322
一只 34309
枪 34309
色@@ 34305
往往 34288
英语 34263
3G 34254
上半年 34252
术 34248
房 34190
死@@ 34143
停止 34121
危机 34091
描述 34074
明天 34064
权利 34064
或是 34047
米@@ 34047
张 34030
投@@ 34024
董事长 33998
脚 33994
就要 33994
有所 33987
操作系统 33955
二 33950
电子产品 33946
实@@ 33939
大约 33906
怎么样 33892
家电 33879
出货 33874
瑞@@ 33871
防@@ 33859
激烈 33841
上面 33818
欢迎 33753
500 33717
回家 33691
女孩 33688
进口 33638
建筑 33637
无论 33625
打算 33611
2006 33599
东芝 33579
联合国 33563
2000 33530
享受 33523
加工 33518
网@@ 33499
脱@@ 33434
扩展 33433
电子@@ 33401
增@@ 33396
直到 33395
质@@ 33384
验证 33366
死亡 33337
量产 33327
有时 33315
退@@ 33307
适应 33302
物质 33289
平衡 33282
C 33249
出售 33230
轮 33225
合作伙伴 33220
发出 33214
监控 33188
具 33176
端 33166
8% 33149
乐 33097
河 33054
亿@@ 33041
万元 33027
逐步 33011
能量 33001
后来 32980
液 32968
自动化 32961
配@@ 32954
物@@ 32942
规范 32915
统计 32914
快@@ 32914
吉@@ 32886
酶 32865
布 32840
症 32827
声@@ 32783
病人 32765
营销 32751
道路 32726
密@@ 32664
之中 32651
伙计 32628
安 32626
说@@ 32577
座 32557
难@@ 32552
晚 32547
通讯 32529
更新 32503
电信 32486
货 32485
读 32450
6% 32440
查 32433
调 32426
团 32425
尝试 32402
动态 32367
离@@ 32356
产 32323
第一次 32308
妻子 32300
指标 32295
发表 32292
冷@@ 32289
陈@@ 32277
供应链 32274
教@@ 32256
组件 32245
老师 32245
60 32239
形@@ 32226
遇到 32223
失败 32220
体现 32192
亏损 32160
今晚 32157
TCL 32153
经理 32133
传输 32084
基因 32080
显著 32075
驾驶 32065
集 32055
份额 32048
两家 32041
较大 32035
数据@@ 32018
有望 32008
塞@@ 31993
技术@@ 31970
掌握 31966
神经 31938
想@@ 31934
年底 31913
首席 31908
并非 31896
M 31875
取@@ 31855
构成 31812
标@@ 31807
证据 31804
打造 31794
规则 31792
要是 31791
仅仅 31761
救 31760
竞争对手 31732
绝对 31719
损失 31709
股东 31704
报@@ 31691
200 31686
角色 31668
女性 31665
埃@@ 31663
投影 31608
换@@ 31581
抗@@ 31514
药@@ 31497
达成 31495
眼@@ 31488
补贴 31488
完美 31486
7% 31468
承诺 31447
原 31440
训练 31422
平 31407
颜色 31399
反映 31390
奇 31367
顿 31341
改@@ 31314
10@@ 31294
进程 31272
附近 31266
0.@@ 31261
象 31219
满@@ 31213
E 31212
理由 31174
3% 31168
减@@ 31168
近期 31161
T 31149
2% 31136
毛@@ 31091
展开 31078
岛 31077
落@@ 31073
Android 31067
第一个 31046
新兴 31018
上涨 31000
求@@ 30988
差异 30987
空 30981
统一 30969
转 30967
合理 30951
见@@ 30933
称为 30915
年轻 30889
转换 30858
14 30843
意@@ 30813
越@@ 30809
下去 30785
难以 30761
创建 30754
迪@@ 30744
普遍 30736
王 30723
LCD 30720
充满 30713
重视 30700
1% 30655
理想 30654
马上 30638
功耗 30638
官员 30631
X 30598
采访 30587
应用程序 30587
像是 30569
给出 30523
仪器 30523
引@@ 30523
年度 30474
课程 30442
更大 30419
接 30415
见到 30410
普及 30408
4G 30399
组合 30369
领@@ 30362
想象 30350
离 30348
总经理 30314
CPU 30304
作品 30299
合同 30254
排名 30252
2.@@ 30237
教授 30218
伯@@ 30198
活@@ 30196
士 30186
更是 30177
培训 30172
造@@ 30168
莫@@ 30142
核 30134
破坏 30132
中国@@ 30104
空气 30093
鼓励 30065
闪存 30053
对比 30040
开关 30034
这位 30033
证 30027
培养 30018
终于 29984
食 29971
下面 29948
专@@ 29944
女 29935
兰@@ 29934
化学 29933
解@@ 29930
属 29921
4% 29913
季 29911
回答 29893
乐@@ 29871
那种 29859
早期 29857
罗 29843
书@@ 29840
外部 29829
女儿 29819
充分 29819
期待 29799
龙 29781
威@@ 29778
做@@ 29764
带@@ 29763
和平 29747
周@@ 29740
部署 29735
言 29712
D 29705
法国 29689
音@@ 29687
面积 29632
笑 29612
售价 29593
导@@ 29582
维护 29566
J@@ 29564
并购 29562
箱 29530
免费 29528
000 29528
药物 29523
设施 29497
贡献 29485
特定 29474
不够 29448
温@@ 29435
视@@ 29396
语音 29395
收到 29373
被@@ 29363
音 29361
穿戴 29361
地球 29348
松@@ 29344
动作 29342
接触 29340
股价 29337
这家 29326
引发 29320
麻烦 29304
纷纷 29295
一半 29263
师 29262
冰@@ 29258
实力 29245
应对 29239
覆盖 29237
科学家 29211
冲@@ 29194
下半年 29192
B 29172
战@@ 29169
混合 29135
道@@ 29125
旗下 29110
福@@ 29108
土地 29096
字 29024
液晶面板 29008
含量 28975
在内 28974
关@@ 28945
切@@ 28913
啦 28913
那儿 28909
生态 28896
通知 28870
一张 28867
亲@@ 28857
给予 28853
股票 28845
G 28836
求 28836
纳米 28833
晶圆 28819
耐@@ 28805
副 28803
代@@ 28796
孔 28790
支出 28779
色彩 28772
活 28770
坐 28766
合并 28748
律师 28745
金融 28745
喝 28735
打电话 28717
指@@ 28714
坐在 28704
迪 28694
加大 28666
纳@@ 28658
计 28654
藏 28634
信息化 28633
翻@@ 28622
实践 28604
访问 28588
归@@ 28577
伤害 28570
周期 28566
前景 28561
包@@ 28555
京东方 28552
监测 28551
独特 28549
提到 28548
’ 28541
极 28532
中兴 28514
赛@@ 28503
这件 28500
反对 28473
构建 28469
刺激 28465
感@@ 28441
习惯 28428
河@@ 28423
富@@ 28422
运@@ 28395
第三 28395
架 28395
L 28361
选@@ 28331
原理 28271
七@@ 28245
世@@ 28232
年代 28226
早@@ 28221
欧@@ 28198
R 28196
副总裁 28188
英@@ 28152
污染 28149
13 28122
交通 28121
谈判 28080
留下 28073
联发科 28069
以便 28068
昨天 28065
忙 28041
莱@@ 28020
分钟 28004
听@@ 27999
土@@ 27997
任 27987
知识产权 27983
绿色 27960
步 27909
保障 27907
差距 27906
解 27897
近@@ 27887
紧张 27883
可靠 27882
环节 27874
一步 27873
认证 27870
呈现 27860
洛@@ 27849
草 27841
固定 27835
丝 27808
算 27793
真实 27699
IBM 27690
视觉 27687
2005 27676
纸 27656
施@@ 27633
洗@@ 27626
车辆 27626
胡@@ 27618
底 27612
诉讼 27607
库存 27607
发布会 27602
探索 27599
脸 27597
第二@@ 27578
低于 27538
超 27514
课 27506
圆@@ 27503
买@@ 27495
票 27470
人口 27457
亦 27455
美国@@ 27451
食品 27450
节@@ 27443
兄弟 27430
赛 27422
建 27407
细节 27393
代码 27377
日益 27370
姆 27361
成果 27339
取代 27301
盈利 27295
青@@ 27286
来源 27280
寻求 27277
党 27269
套 27268
等@@ 27262
菜 27261
攻击 27259
从事 27256
断@@ 27244
线@@ 27232
思@@ 27222
21 27212
于是 27210
据悉 27174
极大 27155
障碍 27146
红 27138
设立 27138
蛋白 27124
感受 27118
有限 27107
品质 27105
病毒 27104
博@@ 27098
存储器 27062
喷@@ 27047
塔 27047
假@@ 27043
东 27019
权@@ 27004
a 27003
带动 26992
逻辑 26986
不好 26986
云@@ 26983
主题 26979
看着 26965
画面 26958
税 26958
章 26950
虫 26923
各国 26913
容量 26909
九@@ 26907
详细 26882
1000 26865
两 26842
乱 26841
赢得 26826
呀 26816
军@@ 26812
场景 26776
信心 26770
机械 26769
9% 26768
测@@ 26735
组@@ 26734
准确 26713
超越 26707
叶 26702
招@@ 26700
诺@@ 26675
300 26653
很难 26645
商品 26609
停@@ 26538
季度 26536
电力 26536
到@@ 26534
游@@ 26534
CEO 26524
大小 26492
送@@ 26490
汉@@ 26481
网络@@ 26461
专门 26435
本土 26428
联 26423
国产 26419
流程 26409
来到 26399
量子 26384
防止 26362
快乐 26356
荣耀 26345
南 26342
一块 26339
丈夫 26336
俄罗斯 26331
何@@ 26326
摄像头 26323
球@@ 26322
股权 26314
原来 26310
于@@ 26306
否则 26295
刘@@ 26286
iPad 26253
击 26252
从来 26249
工人 26239
另一方面 26236
环保 26236
三星电子 26223
英寸 26215
冲击 26198
元器件 26181
面前 26177
留@@ 26175
黑 26132
步@@ 26127
就@@ 26114
已@@ 26112
兴趣 26105
库 26092
听说 26090
的确 26082
短 26069
楼 26064
星@@ 26056
教师 26032
链 26001
理 25960
骨@@ 25954
集@@ 25951
上游 25944
消@@ 25936
旧 25934
某 25915
有趣 25902
官方 25897
转变 25885
总裁 25880
Z@@ 25873
磁@@ 25872
业内 25872
博士 25868
士@@ 25854
无疑 25849
现@@ 25800
法院 25795
武器 25790
货@@ 25787
当中 25773
班 25773
优秀 25766
雪@@ 25760
乐视 25743
今后 25735
立 25718
速 25693
IP 25682
妈 25675
双 25673
光源 25656
麦@@ 25617
家里 25611
17 25609
合成 25606
协会 25584
世 25576
80 25573
机遇 25530
换 25510
怀疑 25495
参考 25479
确认 25476
白 25469
娱乐 25447
兰 25439
沉@@ 25431
肉 25427
下跌 25425
痛苦 25416
势 25387
分享 25385
痛 25384
各个 25376
特斯拉 25376
90 25376
思考 25373
妇女 25358
因@@ 25326
塔@@ 25323
嗨 25322
高效 25313
3.@@ 25305
可靠性 25269
飞 25259
随后 25237
感染 25220
条@@ 25213
追求 25207
费@@ 25195
贷款 25195
生长 25187
支撑 25169
罪 25161
24 25125
元素 25107
依赖 25098
i@@ 25098
份 25067
照 25065
少@@ 25057
长期 25057
接下来 25048
职业 25015
命 24997
片@@ 24995
易@@ 24991
清 24981
市场需求 24976
做好 24969
替代 24967
10% 24965
现状 24962
I 24948
列 24942
牛 24929
本次 24927
尚未 24893
余@@ 24890
制程 24887
共享 24876
别的 24867
展 24842
国际@@ 24831
犯 24807
稳定性 24801
电视机 24798
负责人 24774
食@@ 24757
圈 24744
奖 24733
判断 24732
杯 24729
呆 24721
能否 24709
有没有 24707
冲突 24690
周围 24685
融资 24683
凯@@ 24638
修@@ 24636
届 24634
苹果公司 24631
营业 24631
软@@ 24629
星期 24623
严格 24609
装备 24585
已有 24571
土 24537
初@@ 24526
台@@ 24505
总部 24499
环@@ 24497
典型 24480
坏 24476
截至 24422
算@@ 24413
运 24404
标志 24389
三年 24359
搞 24352
哪儿 24333
兵 24324
供 24317
公众 24308
同步 24302
举办 24301
无论是 24300
问@@ 24287
总体 24272
持 24268
家伙 24244
电机 24240
指导 24235
西方 24218
定制 24206
结 24205
追@@ 24198
警@@ 24194
关心 24187
获取 24178
4K 24169
20% 24152
岩 24134
故障 24099
泰@@ 24076
营 24064
四个 24058
奇@@ 24029
周 24016
配合 24015
70 24015
滑@@ 24014
杰@@ 23998
够 23996
睡 23946
量@@ 23946
与此同时 23924
亮 23922
初步 23908
占@@ 23900
托@@ 23896
重组 23881
0@@ 23870
断 23865
吸@@ 23862
果@@ 23850
合适 23849
瓦@@ 23837
声明 23833
并@@ 23825
业内人士 23810
鸿海 23805
懂 23805
望 23799
倒@@ 23790
批准 23768
背后 23759
19 23731
y@@ 23730
骁龙 23715
安全性 23712
日子 23708
草@@ 23687
小组 23680
绿@@ 23680
私@@ 23674
身份 23670
轻松 23665
诺 23664
抽@@ 23660
亮度 23659
是从 23643
短@@ 23642
急@@ 23641
依据 23632
十年 23626
抢@@ 23619
致@@ 23616
分配 23597
N 23590
潜在 23587
拓展 23569
看上去 23558
元@@ 23552
创 23550
关闭 23549
理念 23521
消失 23506
显得 23503
还@@ 23492
控制器 23484
局面 23477
仪 23467
AMOLED 23466
循环 23465
很少 23430
16@@ 23423
结婚 23418
参@@ 23410
致力于 23406
监管 23404
新品 23403
苏@@ 23400
菌 23393
在线 23380
这场 23369
消除 23357
补充 23352
降@@ 23344
并未 23344
拍 23334
降 23317
腿 23308
为此 23301
乳@@ 23280
广@@ 23277
轮@@ 23274
为主 23273
脚@@ 23249
密度 23248
甲@@ 23244
程 23240
目 23239
背@@ 23239
索@@ 23236
只@@ 23231
新一代 23229
到来 23221
酒@@ 23207
根@@ 23206
围@@ 23198
进来 23197
龙@@ 23192
后面 23188
协调 23174
伦敦 23147
扩张 23143
床 23131
阻止 23129
突出 23127
紧@@ 23122
伤@@ 23111
咨询 23105
分离 23089
言@@ 23055
配套 23054
市@@ 23053
态 23050
显@@ 23048
收益 23042
出色 23040
跳@@ 23038
老板 23035
补@@ 23028
智能化 23023
提 23022
调节 23019
供@@ 22998
沟通 22998
适当 22992
味 22989
办 22988
糖 22985
欧盟 22962
非洲 22957
共 22956
层面 22944
金额 22935
多数 22933
了@@ 22928
没事 22927
2020 22907
令人@@ 22884
单元 22873
笔 22869
大脑 22867
护@@ 22855
主席 22849
写@@ 22842
害怕 22842
漂亮 22838
房@@ 22814
收集 22812
物理 22792
蒙@@ 22766
可能性 22759
秘密 22743
中芯 22742
想到 22732
实 22726
破@@ 22725
抓住 22724
经济@@ 22695
深 22690
默@@ 22667
嵌入式 22666
纽约 22663
探@@ 22658
召开 22654
关 22645
亲爱 22634
迷@@ 22622
银@@ 22613
学院 22613
救@@ 22606
强度 22586
2004 22554
性质 22531
雷 22527
材 22514
刀 22502
指数 22501
释放 22487
证实 22457
20@@ 22454
‘ 22448
处@@ 22446
拿到 22436
命令 22427
吃@@ 22426
记@@ 22425
感谢 22408
女士 22391
现金 22388
商用 22382
粉 22374
插@@ 22367
风格 22363
途径 22359
通用 22355
节目 22343
晶@@ 22336
江@@ 22334
优@@ 22310
通道 22304
等待 22304
i 22283
官 22283
常常 22280
毒@@ 22275
查@@ 22275
石墨 22273
18@@ 22267
馆 22256
测定 22248
销 22222
强劲 22215
搜索 22205
载 22198
以色列 22197
俩 22192
击@@ 22172
强烈 22169
而已 22165
维 22165
第一季度 22165
假 22159
暗@@ 22156
三大 22155
石油 22151
卫星 22141
分为 22121
回去 22114
及时 22103
成绩 22087
做法 22076
传播 22076
半 22059
常 22052
社会@@ 22020
不仅仅 22016
依靠 22008
指定 22000
摇@@ 21997
进去 21997
获 21994
至于 21986
基础设施 21977
公共 21976
宣传 21966
班@@ 21946
及@@ 21946
行政 21942
魅族 21937
展@@ 21936
运作 21931
硅 21918
曼 21913
画@@ 21897
数据库 21894
个@@ 21892
农@@ 21890
字@@ 21857
最为 21855
承担 21835
早上 21828
Intel 21816
编@@ 21804
光学 21797
地震 21794
人物 21787
政@@ 21780
面向 21777
薄 21767
突@@ 21759
看法 21731
着@@ 21706
Q@@ 21700
伟大 21686
职 21672
服 21664
观众 21662
连接器 21661
小心 21659
引入 21654
第三@@ 21649
弗@@ 21632
杂@@ 21632
禁止 21632
农业 21622
事故 21622
暴@@ 21619
梅@@ 21617
养 21614
50% 21604
鲁@@ 21598
还会 21594
厂家 21580
积@@ 21577
跳 21571
互@@ 21562
留 21560
社区 21557
胶@@ 21527
高于 21516
皮肤 21508
对不起 21475
存 21470
移@@ 21456
好好 21437
小姐 21436
木 21435
母@@ 21434
娜 21419
取消 21418
度@@ 21414
添加 21412
到达 21406
差@@ 21406
评论 21403
生存 21379
以外 21378
对手 21377
某个 21367
烯 21364
搭载 21356
多家 21354
走向 21340
F 21339
a@@ 21338
杀@@ 21336
隐@@ 21334
结果表明 21327
观@@ 21323
每次 21319
控 21314
客 21312
思 21302
哪些 21292
手表 21291
家人 21283
毛 21272
请@@ 21268
坐@@ 21267
其他人 21265
全世界 21253
业者 21231
印@@ 21231
缺陷 21230
转向 21229
请求 21229
去年同期 21201
旅行 21201
副@@ 21196
增速 21185
民 21180
尽 21174
O 21171
族 21163
外观 21133
居 21126
一方面 21125
样子 21124
笔者 21123
观 21113
4.@@ 21112
摩托罗拉 21108
我来 21102
抑制 21098
改造 21095
清晰 21089
灵活 21086
常见 21086
学家 21080
含 21073
深度 21068
区别 21064
好处 21054
排 21046
x@@ 21044
负 21038
一套 21023
乐观 21014
害 21010
电阻 21006
咖啡 20993
将来 20983
你@@ 20972
民族 20962
说法 20951
有个 20940
形态 20937
立即 20929
园 20923
以往 20921
爆发 20916
指纹 20912
牛@@ 20898
信任 20892
总结 20883
超级 20879
零@@ 20876
特色 20871
无需 20865
28 20864
康@@ 20844
PCB 20830
展会 20825
讲@@ 20825
跟踪 20823
答案 20823
所有人 20814
30% 20801
支@@ 20798
时刻 20794
久 20780
远程 20777
柔性 20758
革命 20756
由@@ 20754
本地 20748
劳@@ 20747
住@@ 20744
升 20742
义 20737
部队 20735
22 20718
你好 20711
随@@ 20701
一段时间 20687
变革 20683
积累 20669
帕@@ 20667
棒 20664
层@@ 20659
增 20654
公园 20641
下一代 20641
炎 20628
足 20617
签署 20616
心理 20613
商店 20611
最初 20611
丝@@ 20576
修改 20546
曲 20543
透@@ 20533
硬@@ 20527
贵 20497
索 20491
o 20489
笔记本电脑 20483
犯罪 20479
桥 20474
纤维 20463
表演 20455
输@@ 20454
伦 20451
军队 20446
陷入 20444
美丽 20440
23 20434
相反 20424
巨@@ 20413
下午 20409
净利润 20406
提交 20397
居@@ 20385
视频会议 20384
停 20380
情绪 20376
发光 20370
其次 20350
去@@ 20346
码 20336
小型 20314
环 20309
另@@ 20268
粘@@ 20266
格局 20262
叶@@ 20260
中间 20259
瘤 20247
专注 20241
读@@ 20230
梦想 20224
12@@ 20215
保留 20212
论坛 20201
绝@@ 20197
回收 20184
协助 20174
异常 20166
彻底 20165
细@@ 20133
著 20131
卖@@ 20128
不得 20114
不久 20112
相互 20105
配备 20094
认可 20093
校@@ 20088
守@@ 20086
为何 20083
顾客 20070
举@@ 20067
养@@ 20049
生成 20043
挺 20038
顶 20029
音频 20021
创@@ 20012
盖 20010
垄断 19995
大概 19974
希@@ 19971
至今 19956
甘@@ 19952
机场 19950
互动 19950
增长率 19948
规律 19944
戴@@ 19932
类@@ 19931
遗@@ 19930
抓 19930
邀请 19927
快点 19900
例子 19898
即便 19885
庞大 19881
闪@@ 19881
流量 19862
耳@@ 19853
曲@@ 19850
莉 19845
私人 19831
一片 19830
这方面 19829
恶@@ 19811
影 19801
糟糕 19792
一台 19782
牙@@ 19775
下游 19771
电动汽车 19762
系统@@ 19758
矿@@ 19758
寿命 19744
夜 19740
蒂 19737
存@@ 19736
使@@ 19735
聪明 19733
烟@@ 19726
约@@ 19718
控制@@ 19718
警告 19712
墙 19709
响应 19691
列@@ 19675
形势 19672
部件 19666
顺利 19656
干扰 19649
o@@ 19648
作者 19648
或@@ 19641
纸@@ 19633
退出 19632
论文 19622
县 19613
机型 19611
勒 19606
托 19602
太阳 19594
付 19587
正如 19583
目@@ 19576
影像 19567
损伤 19559
管理@@ 19559
动力电池 19556
顺@@ 19555
简化 19548
公平 19531
肉@@ 19531
镜 19525
散 19516
意大利 19515
债务 19513
助@@ 19504
有机 19502
几天 19482
持有 19478
胜@@ 19477
咱们 19477
电器 19470
烧@@ 19462
克斯 19449
函数 19448
凭借 19436
设 19421
永@@ 19416
铁 19413
居民 19410
保险 19395
混@@ 19381
旅游 19381
担任 19380
松下 19368
必然 19362
流行 19360
考@@ 19357
夜@@ 19355
演@@ 19354
桩 19354
电容 19353
权力 19352
期望 19349
没什么 19341
第三季度 19336
鸟 19325
白色 19312
视为 19301
选举 19297
必@@ 19294
笔记本 19287
计@@ 19287
刚才 19280
成分 19267
法庭 19233
意外 19232
主动 19229
边@@ 19219
简@@ 19210
W 19203
力度 19187
服务@@ 19179
分类 19170
产品线 19164
癌 19141
科技@@ 19139
偷@@ 19135
奇怪 19133
乌@@ 19126
帮@@ 19119
阻@@ 19116
主任 19116
易 19102
杂志 19099
框架 19093
形象 19092
6.@@ 19092
朝 19092
底@@ 19087
称@@ 19079
出台 19073
5.@@ 19071
气体 19066
响 19059
宝 19057
中国移动 19051
单独 19031
始终 19025
外面 19017
温 19008
较为 19006
学会 19002
检@@ 18995
愿 18987
核心技术 18985
各自 18984
安全@@ 18984
粉@@ 18982
回应 18978
香@@ 18959
血管 18959
规格 18953
上网 18953
预算 18941
董事会 18885
15@@ 18883
宽 18879
国家@@ 18872
哪@@ 18871
脑 18864
供货 18862
复合 18855
任何人 18840
阴@@ 18838
弹@@ 18835
边缘 18817
触控 18812
树@@ 18811
男孩 18809
国内外 18777
成就 18774
幕 18767
节点 18764
外国 18761
熟悉 18761
衣 18758
仿真 18753
满意 18751
迎来 18745
须 18743
遭遇 18740
散@@ 18722
库@@ 18721
诸多 18685
13@@ 18681
粗@@ 18676
接收 18661
收 18660
备@@ 18646
记忆 18645
即@@ 18644
额外 18641
多次 18637
农村 18636
带有 18633
疗效 18632
肿瘤 18631
总监 18619
k@@ 18619
第二季度 18615
足@@ 18614
有利于 18592
红色 18588
打击 18588
路上 18565
不行 18560
活性 18556
网上 18555
阅读 18541
较@@ 18537
野@@ 18526
头发 18521
一边 18518
福 18508
信息产业 18505
旨在 18504
破 18502
塞 18494
务 18492
壳 18491
嘛 18490
地址 18487
标 18484
折@@ 18480
玩@@ 18476
即可 18456
与@@ 18449
衣@@ 18446
人生 18437
地点 18434
丽@@ 18432
微电子 18427
引导 18404
奥巴马 18396
外界 18378
年前 18377
赢 18375
致 18372
K 18372
惊@@ 18366
工程@@ 18366
夫人 18362
射@@ 18357
往@@ 18348
HTC 18345
年轻人 18336
节省 18328
按@@ 18327
五年 18321
记 18321
尽@@ 18313
援助 18313
MCU 18308
丽 18304
检验 18294
毕竟 18287
究竟 18280
天气 18278
告@@ 18261
交 18257
钢@@ 18250
彩@@ 18245
货币 18245
无人机 18239
小说 18231
TI 18229
名单 18224
阐述 18197
道德 18176
但@@ 18170
效 18165
t@@ 18162
磨@@ 18162
除@@ 18156
开心 18146
相似 18146
谈谈 18134
紫光 18133
眼镜 18124
~ 18120
多媒体 18120
各类 18110
部长 18109
任@@ 18109
交换 18106
同期 18101
制备 18100
对方 18099
7.@@ 18097
之下 18096
生物@@ 18094
他会 18089
资@@ 18088
运输 18087
14@@ 18086
潜力 18082
匹配 18074
因而 18068
得以 18065
图片 18063
户 18060
中央 18055
看出 18054
霍@@ 18036
延长 18035
围绕 18034
酸@@ 18032
所在 18021
上市公司 18020
境 18011
提前 17999
提取 17995
含@@ 17993
优点 17988
最低 17980
财务 17979
事务 17975
26 17968
注册 17955
灯@@ 17952
不如 17950
财报 17949
影响力 17945
软件@@ 17940
四 17940
实在 17934
落后 17923
配 17922
旗舰 17920
忘 17914
零部件 17909
约翰 17907
猫 17893
有时候 17886
果 17876
城@@ 17866
次@@ 17860
干什么 17860
那时 17860
薄膜 17851
多晶硅 17847
大规模 17845
后者 17842
多么 17841
幸福 17826
升@@ 17825
重复 17819
征@@ 17816
梦 17807
省@@ 17797
深入 17778
板@@ 17763
弄@@ 17760
拿@@ 17757
便宜 17746
噪声 17728
镇@@ 17728
承@@ 17726
呈 17725
GPU 17706
预估 17706
全年 17702
刺@@ 17688
话题 17663
宝贝 17662
本书 17654
鬼 17653
打破 17649
乱@@ 17647
提醒 17643
月@@ 17640
32 17639
讨厌 17637
高速 17633
两大 17631
等离子 17627
除非 17626
导航 17616
息 17615
31 17589
研制 17578
语@@ 17575
前面 17572
节能 17570
遭到 17570
欧元 17566
联邦 17544
9.@@ 17543
英 17527
胆@@ 17523
担忧 17518
课@@ 17513
雨@@ 17501
吸收 17500
投 17497
光纤 17493
各地 17491
传 17487
公告 17483
威 17470
造 17466
透过 17451
单一 17450
厅 17439
公共@@ 17438
精确 17429
缩小 17420
投产 17415
长时间 17413
讯 17403
批评 17397
审查 17389
不可@@ 17381
s@@ 17374
看好 17373
从未 17366
为例 17356
身边 17335
爆炸 17333
军事 17330
刚@@ 17328
第四季度 17305
薄@@ 17301
重要性 17297
27 17295
素@@ 17293
辐射 17291
年初 17282
分辨率 17278
角@@ 17267
街 17265
负@@ 17258
损害 17254
作业 17249
今日 17237
背光 17231
晶体管 17231
整机 17230
思维 17230
略@@ 17230
基本上 17227
尿@@ 17225
样品 17223
乔@@ 17221
虚拟 17217
槽 17198
敌人 17179
崛起 17158
激@@ 17151
照@@ 17142
汇@@ 17139
普 17119
大鼠 17115
2003 17106
案件 17105
戴 17095
群@@ 17094
高校 17088
修 17085
难题 17084
摩@@ 17083
湖 17083
印象 17081
左@@ 17081
智能家居 17078
负载 17074
昨晚 17064
既然 17052
一大 17048
精度 17046
灰@@ 17045
玛@@ 17044
一部 17038
人数 17038
伙伴 17035
采@@ 17033
礼物 17029
松 17020
指控 17012
航@@ 17009
合资 16999
切 16994
名称 16990
著名 16983
唱 16967
体积 16964
海信 16958
伦@@ 16955
容@@ 16951
田 16950
强化 16946
心脏 16943
季@@ 16939
观看 16929
媒体报道 16923
d@@ 16918
志@@ 16916
触@@ 16915
拜托 16914
创业 16902
灵@@ 16897
工作人员 16891
缩短 16887
忘记 16883
模组 16872
袭击 16863
尊重 16856
财年 16838
财富 16832
毁 16824
拍摄 16823
位@@ 16803
苦@@ 16798
消耗 16795
下载 16793
泡 16789
镇 16787
乙@@ 16783
找@@ 16780
尸体 16778
署 16774
LTE 16773
怀@@ 16769
附@@ 16755
宗教 16754
宁 16752
贴@@ 16736
FPGA 16730
400 16729
氧 16728
浮@@ 16724
横@@ 16723
专用 16722
所说 16718
暂时 16715
业@@ 16714
胸@@ 16707
产值 16706
疯狂 16705
技能 16704
拖@@ 16704
十 16702
打印 16702
充@@ 16700
兼容 16697
注 16686
机身 16680
股@@ 16679
补偿 16676
比重 16671
开发者 16661
实行 16656
宝@@ 16654
包装 16644
首 16644
更换 16642
慢 16640
职@@ 16640
兹 16629
测 16625
餐 16625
世界@@ 16622
发行 16619
载@@ 16618
旧@@ 16613
大厂 16612
辅助 16612
杜@@ 16609
穿@@ 16604
倾向 16601
弱 16598
演讲 16591
产业化 16589
尚 16570
轴 16566
卷@@ 16540
广州 16539
本来 16534
阳 16533
第四@@ 16531
播放 16529
最快 16528
委 16522
上周 16521
翻译 16509
这份 16508
梦@@ 16504
期@@ 16498
产品@@ 16496
热情 16494
报纸 16470
矛盾 16469
资 16463
闭@@ 16458
速率 16454
校 16454
各大 16439
静@@ 16434
证券 16434
智@@ 16434
控制系统 16432
史 16431
射频 16429
加拿大 16425
沃@@ 16423
发言人 16423
对外 16421
歌 16420
没错 16412
8.@@ 16412
财政 16392
约会 16386
呼吸 16379
月底 16367
中有 16363
完@@ 16362
示 16361
一段 16361
土壤 16359
卷 16359
99 16358
朝@@ 16355
人群 16353
之所以 16343
认@@ 16338
饼 16336
贴 16332
借助 16328
仅@@ 16328
鞋 16317
属性 16315
港 16305
种类 16295
兴@@ 16290
峰 16283
出发 16280
杨@@ 16274
却是 16260
知 16257
英里 16255
种@@ 16255
区@@ 16250
抓@@ 16247
借@@ 16242
某种 16239
照顾 16237
医@@ 16233
斯特 16229
他人 16223
社 16223
哪个 16221
随时 16206
免@@ 16206
至@@ 16202
减 16198
友 16197
由此 16192
鱼@@ 16190
恐怕 16188
试 16186
紧 16184
影@@ 16180
干嘛 16156
歌@@ 16151
鸡 16136
嘴 16125
演 16123
休息 16114
显 16114
起到 16109
一代 16103
举 16092
谱 16089
地面 16089
顾问 16085
纯 16082
黑色 16079
远远 16078
路线 16067
型@@ 16063
露@@ 16057
盛@@ 16057
待@@ 16056
执行官 16055
剩下 16054
怕 16036
削减 16033
群体 16033
部@@ 16029
迹 16022
型号 16021
客人 16017
异 16012
手中 16010
大众 16007
两者 16004
田@@ 16002
晶 16000
600 15998
mm 15988
事物 15976
不必 15949
商务 15946
尚@@ 15945
长虹 15938
法官 15927
on@@ 15924
同一 15921
可怕 15914
30@@ 15905
支 15903
小孩 15901
惠普 15896
尽快 15895
800 15887
矿 15886
司 15880
寄@@ 15877
慢慢 15858
蓝牙 15848
采集 15834
工资 15832
发明 15822
治@@ 15822
程@@ 15820
本质 15820
发电 15817
宽带 15808
雨 15795
修复 15789
胶 15788
一座 15786
盘@@ 15777
预防 15776
动脉 15775
卡尔 15757
挂 15757
敏感 15749
蛋 15746
有用 15734
船@@ 15732
未能 15720
自从 15718
关联 15717
俱乐部 15716
监督 15715
两款 15715
喝@@ 15710
各项 15708
原材料 15702
垂直 15697
监狱 15693
秒 15693
主体 15689
势@@ 15685
百度 15684
花费 15684
振@@ 15681
毒 15678
继 15671
案例 15669
印 15661
知@@ 15660
藏@@ 15652
发展趋势 15649
怪 15640
可爱 15638
规@@ 15637
家族 15619
间@@ 15615
亿日元 15609
穿着 15593
许可 15584
自由@@ 15582
主意 15571
蓝@@ 15568
放缓 15567
硬 15564
胜利 15562
图形 15561
封@@ 15560
OPPO 15554
迹象 15552
枪@@ 15544
跌@@ 15543
推荐 15539
相机 15535
带宽 15521
象@@ 15521
二极管 15517
舞 15515
转化 15505
昨日 15497
赫@@ 15495
信息@@ 15495
纯@@ 15490
杆 15475
盖@@ 15473
扬 15463
警方 15460
保存 15452
放松 15449
比亚迪 15446
研究所 15445
英飞凌 15444
同事 15442
症状 15440
步骤 15437
洞 15435
标签 15432
终@@ 15418
NAND 15417
发射 15413
休@@ 15409
裁员 15403
摆脱 15398
残@@ 15394
仪式 15388
感兴趣 15377
侧 15376
胜 15375
总额 15375
人体 15370
数字化 15370
曼@@ 15369
尼亚 15364
姆@@ 15360
子公司 15358
每股 15353
止@@ 15343
高管 15332
引擎 15327
40% 15317
品@@ 15313
复苏 15312
反馈 15310
亚马逊 15306
含有 15292
替 15282
限@@ 15278
信息技术 15271
45 15265
年龄 15261
锁 15251
颗 15251
主管 15250
随 15248
模@@ 15246
临@@ 15239
医学 15233
猪 15224
容 15222
取决于 15218
上去 15208
弹 15206
界面 15206
逃@@ 15204
帮忙 15199
成都 15196
丁@@ 15195
怎么办 15190
客@@ 15187
恩@@ 15185
' 15181
灵魂 15155
哥 15155
发育 15148
幅度 15147
太太 15140
放大器 15139
应用领域 15139
新闻@@ 15135
H 15133
代理 15127
进军 15118
菌@@ 15118
至关重要 15117
治 15115
雅@@ 15110
物流 15108
禁@@ 15105
失望 15103
武@@ 15102
销售收入 15101
镜头 15099
虚@@ 15081
移植 15073
贸易@@ 15071
欢@@ 15062
堂 15059
酯 15052
生意 15045
井 15035
智 15027
安卓 15021
美好 15013
大大 15012
登 15011
万片 15010
划@@ 15003
错@@ 15002
射 14992
50@@ 14990
雷军 14988
邦 14982
众@@ 14967
飞行 14964
微型 14958
新增 14957
茶 14953
地图 14952
考试 14949
澳大利亚 14948
认真 14947
体制 14945
江 14944
运算 14943
接着 14942
争取 14921
x 14918
键 14917
声称 14913
披露 14907
卢@@ 14893
抱 14890
浪费 14887
伴随 14884
税@@ 14866
推 14862
可见 14848
焦点 14845
什么样 14839
时尚 14838
巴 14837
萨 14834
瓦 14833
感情 14829
价@@ 14829
争议 14823
曲面 14820
质疑 14818
印刷 14817
物体 14815
累计 14812
争@@ 14806
假设 14805
述 14802
血液 14794
凝@@ 14792
数据中心 14791
吹@@ 14784
空调 14782
游 14778
电网 14773
贵@@ 14772
一度 14769
肌@@ 14769
零售 14766
互联 14765
神经@@ 14764
许@@ 14760
计算机@@ 14760
现 14751
开启 14750
雪 14749
伊 14744
稳@@ 14743
醒 14743
观念 14740
域 14739
生态系统 14736
格式 14734
辛@@ 14728
原本 14724
废@@ 14723
百分点 14721
五 14721
当年 14716
俄@@ 14711
肥@@ 14707
若@@ 14706
体育 14704
周末 14703
侵犯 14697
塑料 14696
录@@ 14695
据@@ 14682
一句 14679
对待 14674
森林 14674
教学@@ 14673
舞@@ 14665
这款 14661
腔 14660
电气 14658
卫生 14658
顶@@ 14656
对话 14651
35 14640
垃圾 14639
尾@@ 14639
教堂 14636
於 14628
百 14628
页 14627
决心 14613
决议 14611
春@@ 14597
香 14595
三种 14592
MEMS 14590
传递 14580
内地 14569
生产商 14567
潮 14566
室内 14564
持@@ 14548
指令 14540
那边 14533
留在 14530
冷 14523
公里 14523
目录 14509
17@@ 14508
谢@@ 14505
景 14503
坦@@ 14500
电路板 14495
深刻 14493
日期 14484
湖@@ 14481
前提 14478
摆@@ 14476
一是 14471
态势 14467
65 14466
差不多 14463
男@@ 14463
邮@@ 14459
起诉 14459
奥 14459
汽车@@ 14456
代价 14449
硅@@ 14446
优先 14446
士兵 14442
标准化 14431
阳光 14429
阵营 14427
领导人 14416
投票 14412
电子市场 14412
归 14406
赶@@ 14404
一辆 14404
灵活性 14396
简直 14395
财产 14390
引进 14387
市场@@ 14387
回归 14387
用途 14386
关键@@ 14384
千 14384
TV 14378
彼此 14372
设定 14367
滚@@ 14352
基板 14347
多久 14347
促使 14345
一批 14344
端@@ 14341
烟 14336
不但 14335
条款 14333
透明 14330
受伤 14326
追踪 14324
隔@@ 14322
盒 14315
过剩 14314
牙 14306
不该 14304
幸运 14301
扫描 14297
路径 14293
29 14290
改 14290
遗憾 14287
然@@ 14285
高性能 14283
形状 14283
怪@@ 14276
岸 14271
广泛应用 14271
牵@@ 14271
破产 14268
活力 14262
不愿 14262
中兴通讯 14261
建造 14253
依旧 14251
流动 14250
劲 14247
欲 14246
OS 14240
n@@ 14236
淡@@ 14232
不幸 14228
评@@ 14223
某@@ 14221
缺@@ 14221
拍@@ 14200
餐厅 14198
机关 14198
徒 14196
麻@@ 14191
喂 14187
延@@ 14186
刺 14183
潜@@ 14181
灵 14169
衰退 14168
40@@ 14167
豪@@ 14166
主导 14163
生气 14161
引领 14161
史@@ 14158
只会 14146
Y@@ 14144
州@@ 14131
针 14127
男性 14122
最小 14115
要么 14115
泥@@ 14114
戴尔 14112
固@@ 14110
恐惧 14107
认知 14107
痛@@ 14104
获@@ 14103
煤@@ 14102
束 14101
肌 14089
图书馆 14087
判@@ 14086
末 14085
基本@@ 14084
研究院 14082
接入 14080
货物 14078
扶持 14072
困境 14069
国王 14059
太多 14058
一季度 14055
黑暗 14054
原料 14049
撞 14046
曲线 14045
违反 14045
案子 14040
逆@@ 14036
舒适 14035
猜 14033
[ 14030
奥运会 14012
哭 14010
数学 14003
护 14003
西班牙 14002
遭受 13998
早就 13995
回报 13995
许 13994
命运 13978
登@@ 13975
跟@@ 13966
3000 13951
北 13946
丁 13945
旋转 13939
常规 13934
延伸 13934
一周 13933
退 13906
炉 13897
低功耗 13896
话@@ 13896
依@@ 13886
队伍 13884
刀@@ 13882
编辑 13882
跨@@ 13879
演示 13879
置 13876
密码 13872
铜 13870
就业 13868
压缩 13866
隆@@ 13866
锂电池 13863
开车 13853
文学 13840
两次 13839
心里 13833
善@@ 13830
阿尔@@ 13826
简称 13825
将@@ 13820
腾 13819
洗 13818
醇 13810
钻@@ 13809
得出 13802
摘要 13801
不然 13800
陆@@ 13793
排除 13790
创维 13783
模糊 13781
良@@ 13780
广播 13775
2019 13772
那天 13768
只不过 13766
陆续 13765
剧 13764
紧密 13764
事业部 13762
s 13760
碎 13757
广阔 13756
PC@@ 13746
海洋 13741
鼠 13739
呼@@ 13726
句 13717
笔@@ 13717
天线 13716
谨慎 13712
示@@ 13709
到处 13707
浓度 13705
飞利浦 13703
机理 13703
航 13679
婚姻 13673
议@@ 13663
博通 13658
硬盘 13655
离子 13649
场所 13646
拍照 13645
肠 13639
AT@@ 13637
组装 13636
此类 13636
冲 13635
钱@@ 13621
像素 13617
难道 13611
论述 13610
师@@ 13599
成像 13598
日常 13596
过度 13590
难度 13578
经销商 13578
沙 13577
反 13569
公路 13566
交互 13555
构造 13550
演员 13547
碳@@ 13544
组成部分 13541
夫@@ 13538
进而 13536
零 13534
金融@@ 13533
跑@@ 13533
喜@@ 13521
缓慢 13519
佩@@ 13519
决@@ 13516
相当于 13510
叫@@ 13508
克服 13504
证@@ 13481
艰难 13481
杰克 13477
化合物 13471
广 13468
扎@@ 13467
清洁 13456
否认 13455
洋@@ 13452
婴儿 13451
] 13448
AR 13446
宏@@ 13433
金融危机 13426
非法 13423
供电 13419
铜@@ 13419
净@@ 13418
激励 13414
最早 13409
教育@@ 13407
社交 13406
愉快 13405
步伐 13404
al@@ 13402
瑞 13401
团@@ 13397
北美 13393
热点 13387
b 13386
记住 13378
供给 13377
刻@@ 13374
饭 13366
早已 13363
m@@ 13362
涨 13351
驱动器 13351
资格 13346
沿@@ 13342
发动机 13336
不知 13321
派@@ 13317
混乱 13316
雄@@ 13309
稀@@ 13309
诞生 13298
交给 13297
出生 13287
鼻@@ 13286
齐@@ 13284
执@@ 13284
承受 13282
波动 13280
涨价 13277
龙头 13277
大多 13277
厚@@ 13276
卓越 13276
配件 13276
睡觉 13270
返回 13270
少数 13269
孔@@ 13269
朱@@ 13247
再也 13242
避@@ 13239
技术创新 13236
岩@@ 13231
坚@@ 13230
浆 13229
盐 13227
狂@@ 13222
哈 13220
25@@ 13220
手指 13217
电容器 13213
酷 13212
5000 13205
受益 13204
维修 13200
夏@@ 13181
置@@ 13181
运动员 13180
碳 13179
睡@@ 13178
保 13177
早餐 13173
加以 13170
中国政府 13169
一个月 13164
设计师 13163
农民 13162
财@@ 13153
瓶颈 13140
爱情 13139
效@@ 13138
工业@@ 13138
币 13138
可用 13137
自然@@ 13135
功@@ 13130
套@@ 13117
尽可能 13112
阻碍 13101
景@@ 13100
一会儿 13096
降价 13088
疯 13086
讲话 13081
减轻 13080
一把 13079
标记 13078
USB 13073
助 13072
湿@@ 13069
守 13067
舞台 13067
针@@ 13066
长官 13065
坡 13063
物品 13062
人工 13060
恩智浦 13058
蓝色 13057
厚度 13056
购@@ 13052
缩@@ 13048
气候 13048
控股 13046
抱怨 13044
正面 13043
友达 13039
康 13038
行政@@ 13033
复制 13033
一生 13031
委@@ 13031
义@@ 13030
淡 13029
菲@@ 13025
光线 13023
官@@ 13023
稿 13022
暴力 13021
桑@@ 13018
丹@@ 13014
过于 13013
义务 13012
宽@@ 13012
阳@@ 13006
侧@@ 12994
互相 12990
巴西 12989
什 12986
吸引力 12984
控@@ 12982
鼓@@ 12981
冰箱 12980
情感 12978
新加坡 12960
渴望 12959
昂贵 12954
临时 12951
瓶 12949
延续 12946
振动 12936
聚 12934
售 12929
遵守 12924
勒@@ 12923
受欢迎 12921
订@@ 12918
轻 12913
假如 12911
需@@ 12910
实体 12909
数值 12901
重建 12900
存储@@ 12900
活着 12895
谷 12885
触摸屏 12883
司机 12882
信仰 12880
与其 12879
电缆 12874
扮演 12874
料@@ 12873
母 12869
失 12869
频@@ 12867
首款 12865
出席 12858
加剧 12857
约合 12857
有力 12855
兴奋 12854
市值 12844
学者 12842
品种 12839
辆 12834
不安 12833
前进 12829
场@@ 12827
后果 12821
文字 12819
当局 12813
乔布斯 12810
职位 12810
孙@@ 12808
从没 12798
餐@@ 12794
跟着 12792
0 12790
频 12789
值@@ 12786
文明 12783
诗 12780
初期 12780
液@@ 12778
协@@ 12778
平面 12777
IC@@ 12766
有利 12765
卫 12755
第四 12754
奖@@ 12753
误@@ 12753
幅 12751
斗 12743
攻@@ 12742
袋 12734
卫@@ 12733
公民 12731
听见 12731
发展中国家 12731
希腊 12730
蒙 12718
软 12718
24@@ 12715
Google 12715
市场竞争 12711
文档 12711
层次 12710
伸@@ 12709
森@@ 12706
办@@ 12703
NEC 12701
蒂@@ 12689
80% 12684
出于 12681
董事 12679
恨 12676
技巧 12672
开支 12668
礼 12661
查询 12658
工作@@ 12643
伊拉克 12638
OEM 12632
率先 12630
登记 12629
源@@ 12627
线路 12627
甜@@ 12626
俗 12623
明星 12619
站@@ 12615
团体 12612
直 12607
上午 12599
万部 12594
婚礼 12593
移 12583
谈话 12570
严@@ 12569
受害者 12569
益 12559
婚@@ 12559
治理 12558
静 12558
莉@@ 12551
房地产 12550
广东 12545
各位 12544
厚 12543
精密 12543
念 12538
搬@@ 12536
基带 12535
精神@@ 12533
汉 12533
西部 12530
代线 12524
耶和华 12523
开发@@ 12523
堡 12522
变形 12515
众 12514
啥 12505
继@@ 12504
储@@ 12497
立刻 12495
躺 12491
准 12491
代替 12484
检 12481
创意 12480
仔细 12480
海尔 12475
装饰 12474
外资 12474
发起 12473
网讯 12472
脉冲 12468
倾@@ 12467
愤怒 12467
重量 12463
毕业 12458
柜 12458
想想 12455
免疫 12443
地上 12436
nm 12430
之内 12427
二十@@ 12427
尾 12426
立法 12424
截@@ 12423
胃@@ 12423
戏 12417
甲 12413
饮@@ 12407
密 12405
新台币 12405
钥匙 12403
火车 12402
现代化 12402
丢 12400
散热 12398
胺 12387
储存 12384
诸如 12379
糖@@ 12374
本周 12374
年来 12374
百万 12374
燃料 12370
发达国家 12367
南部 12367
常用 12366
高清 12365
发送 12363
施工 12357
足球 12353
参观 12350
模 12339
获利 12333
系数 12331
发言 12325
注重 12314
麽 12313
英雄 12311
误差 12306
缓解 12303
罪@@ 12301
巡@@ 12295
望@@ 12295
编程 12294
15% 12294
聚集 12289
姑娘 12288
编码 12286
SoC 12278
GPS 12277
忽视 12276
护理 12274
思路 12257
服@@ 12253
线性 12250
论@@ 12249
蛋糕 12243
付出 12242
报价 12239
手机芯片 12232
Windows@@ 12228
营@@ 12223
缺少 12219
商业@@ 12219
赚 12217
罗马 12212
录 12211
查看 12209
原始 12206
定价 12204
走进 12204
例@@ 12203
自行车 12201
灯泡 12186
涂@@ 12183
累 12179
建成 12179
缺点 12177
创作 12177
战斗 12177
美的 12166
粒 12165
酒吧 12162
倍@@ 12155
on 12153
IDC 12149
代表团 12149
旁边 12146
交通@@ 12145
壁 12145
害@@ 12143
电动 12141
坏@@ 12138
一面 12138
穿过 12138
市场占有率 12137
条例 12134
曾@@ 12132
右@@ 12125
邮件 12125
2002 12121
触摸 12120
借 12115
华强 12113
儿@@ 12110
毛利率 12107
庆祝 12105
导 12104
窗 12103
付@@ 12100
弹性 12091
无限 12091
羊 12088
晶体 12086
...... 12086
谈@@ 12083
理性 12083
密切 12073
创始人 12071
航空 12066
法规 12066
给@@ 12065
面板厂 12064
作家 12060
氧化 12058
劳 12050
哲学 12049
钢 12045
70% 12043
收费 12039
处在 12036
新款 12033
谈论 12033
颗粒 12033
羊@@ 12032
送到 12031
决策 12027
80@@ 12022
剧@@ 12021
烧 12018
领 12018
全球化 12016
指纹识别 12016
隔离 12013
以此 12009
艺 12004
唐@@ 12003
惊人 12002
一支 11994
样@@ 11992
捷@@ 11991
代工厂 11989
移民 11982
足以 11979
00 11978
拼@@ 11973
盒子 11970
曝光 11968
就算 11964
社@@ 11963
像@@ 11961
不利 11959
径 11953
监@@ 11952
荷@@ 11948
来讲 11948
门槛 11947
告 11947
公寓 11941
因子 11941
民主 11935
一群 11932
计算@@ 11930
关节 11928
负担 11927
黄 11922
细分 11918
利率 11912
国务院 11908
级别 11908
雅 11907
抗 11907
展现 11905
占有 11905
村 11904
iPhone@@ 11893
er@@ 11890
便@@ 11890
也就是说 11887
把握 11882
夹@@ 11877
效益 11869
TD 11868
如同 11868
浪 11865
哥@@ 11864
芯片组 11864
大楼 11863
审@@ 11863
栏 11862
适@@ 11860
目前为止 11852
数字@@ 11849
年内 11849
交易@@ 11843
见面 11842
汁 11842
腹@@ 11839
式@@ 11838
亮@@ 11829
电动车 11821
水果 11820
活跃 11820
苦 11819
课题 11817
爱立信 11815
购物 11813
内核 11808
机械@@ 11808
肝@@ 11808
注入 11799
如下 11794
填@@ 11793
润 11787
弱@@ 11786
想起 11786
磁 11785
毫无 11785
抛@@ 11783
缓 11776
泵 11776
冠军 11767
说道 11766
协同 11764
一体化 11764
肌肉 11762
的@@ 11760
75 11756
急性 11755
理事会 11754
AS@@ 11751
价格@@ 11751
幼@@ 11751
报导 11748
一路 11747
宣@@ 11740
谈到 11739
朗@@ 11738
感知 11737
二是 11734
抢 11734
露 11733
回顾 11733
转让 11732
公司@@ 11726
细菌 11724
夏天 11723
呼吁 11720
此时 11713
灯具 11706
富 11678
更高 11677
MHz 11676
环境@@ 11652
排放 11652
玩家 11651
孤@@ 11648
考察 11648
柱 11643
一颗 11642
保险@@ 11636
佛@@ 11635
浸@@ 11628
第@@ 11623
敲@@ 11619
冰 11617
同学 11616
体内 11613
华盛顿 11613
博物馆 11611
迟@@ 11611
指示 11607
裁@@ 11604
湾 11603
屋 11598
自我 11593
状@@ 11588
球队 11586
器@@ 11583
制约 11583
闻 11580
迫@@ 11580
可望 11578
液体 11578
应力 11572
争论 11568
务@@ 11568
晚餐 11566
使用者 11566
等级 11566
舒@@ 11555
上年 11555
人权 11550
示范 11542
GHz 11540
读者 11533
指责 11531
紧急 11530
掌@@ 11529
兼 11526
鉴于 11523
燃@@ 11522
搞@@ 11517
挥@@ 11516
偷 11515
味道 11510
硫@@ 11504
60@@ 11501
场合 11500
新鲜 11500
厨房 11499
靠近 11495
净 11491
吴@@ 11489
筒 11486
把@@ 11479
可怜 11475
甚@@ 11475
略 11471
加州 11471
茶@@ 11464
55 11459
时钟 11459
仅为 11456
巴黎 11438
野 11428
找出 11425
时机 11423
碰@@ 11423
本人 11414
能耗 11412
杀死 11411
赔偿 11410
开玩笑 11405
耶稣 11405
舒服 11402
党@@ 11399
续航 11395
患 11394
派对 11393
com 11388
延迟 11388
电极 11385
腾讯 11383
学科 11381
平等 11376
an@@ 11374
选项 11372
床@@ 11371
举措 11367
超出 11361
知情 11358
富有 11358
博 11358
魔@@ 11356
c 11354
练习 11347
剪@@ 11345
这座 11345
前往 11343
办公 11342
擦@@ 11340
悬@@ 11336
宇宙 11335
过渡 11330
分散 11327
第二个 11326
反而 11324
可行 11320
真相 11318
要素 11318
酮 11313
氏 11313
绝 11312
实例 11303
耳 11295
晶片 11293
号@@ 11292
基站 11292
惠@@ 11290
刻 11287
壁@@ 11287
瓜 11284
几种 11276
销@@ 11274
90% 11273
培育 11268
陶瓷 11265
不停 11255
个人@@ 11255
利润率 11254
历史@@ 11251
埃及 11251
凶手 11249
健@@ 11248
家用 11247
涵盖 11245
旁 11240
文本 11239
对应 11237
监视 11234
蓝 11232
他妈的 11232
园@@ 11228
管道 11224
扔 11224
储备 11223
各方 11220
恒@@ 11218
一类 11215
五个 11214
p@@ 11210
便携式 11205
协定 11204
山寨 11203
统治 11195
腺 11195
般 11191
阿 11190
走出 11185
伯 11185
商业模式 11181
增大 11181
原子 11180
背 11179
大力 11170
诚@@ 11168
安防 11163
繁荣 11161
心理@@ 11157
父 11148
慢@@ 11147
电视@@ 11145
乘@@ 11144
对策 11143
干净 11143
楼@@ 11139
差异化 11138
响@@ 11138
生产@@ 11134
魅力 11134
错过 11133
兆 11128
150 11126
踏@@ 11124
提议 11122
急 11120
之上 11119
京@@ 11117
启@@ 11117
政 11115
2.5 11113
损坏 11113
行驶 11111
局部 11109
广大 11102
跃@@ 11100
神秘 11099
财政@@ 11099
保护@@ 11098
欣赏 11095
予以 11092
脸上 11089
诸@@ 11085
诉 11085
骗 11084
e 11082
答应 11081
墨西哥 11079
轨 11076
名为 11076
武汉 11073
氧化@@ 11072
细 11071
敬@@ 11064
居住 11064
纵@@ 11063
放大 11062
相结合 11062
议员 11057
研@@ 11056
极为 11055
700 11053
AD@@ 11049
乡@@ 11048
命名 11043
In@@ 11040
惊讶 11039
2001 11036
毫米 11036
原有 11035
井@@ 11034
家庭@@ 11029
DNA 11028
古 11027
切换 11027
杰 11027
备 11025
隐藏 11024
汤姆 11016
脱 11010
关税 11010
算是 11009
200@@ 11005
北部 11003
国产手机 10998
批 10991
海力士 10989
敌 10989
桶 10984
出版 10982
电子设备 10969
主人 10968
精力 10965
斗争 10962
看过 10958
兴 10958
清单 10957
桌子 10956
签@@ 10956
科学@@ 10956
差别 10948
泰 10942
顾@@ 10936
久@@ 10934
el@@ 10933
齐 10932
情形 10931
批@@ 10928
太好了 10927
税收 10924
育@@ 10924
妹妹 10920
校园 10920
数码 10918
构@@ 10916
逼 10912
音箱 10908
干预 10903
动力学 10901
展讯 10899
地说 10898
捕@@ 10896
该国 10892
吃饭 10892
减小 10892
伊朗 10890
总量 10890
律 10887
划分 10884
扫@@ 10875
友@@ 10873
轨道 10872
长度 10870
缩 10869
渐@@ 10867
无人驾驶 10862
确@@ 10859
叫做 10857
60% 10856
劳动 10846
集体 10844
协作 10841
玩具 10841
宣称 10838
铁路 10838
闲@@ 10836
工信部 10836
德州仪器 10835
U 10831
极其 10827
携带 10821
欧 10819
尽量 10812
体育@@ 10811
困扰 10805
雷达 10805
再说 10803
幸@@ 10803
比特 10800
立场 10798
腰@@ 10795
吻 10795
房屋 10791
iSuppli 10790
是@@ 10783
零件 10781
难以@@ 10781
郭台铭 10779
这点 10767
稳 10765
家长 10765
男子 10759
球员 10758
银 10752
准@@ 10749
格力 10748
危害 10744
经典 10741
燃烧 10741
落实 10736
晶圆厂 10734
不敢 10730
25% 10726
篇 10725
睡眠 10724
锐@@ 10721
签订 10721
每月 10716
不变 10713
蛋白质 10712
重新@@ 10707
虚拟现实 10700
落地 10698
更改 10698
率@@ 10696
定期 10696
植@@ 10696
不好意思 10695
巧 10695
最多 10692
万个 10690
快速增长 10683
股市 10682
变压器 10680
安静 10680
电子信息 10675
企@@ 10675
鲜@@ 10667
面包 10663
合法 10662
圆 10662
惩罚 10662
访 10661
屏@@ 10661
传出 10656
豆@@ 10655
罩 10647
起步 10645
Gartner 10644
历@@ 10640
框 10639
词@@ 10639
刷 10637
哥哥 10630
拟 10622
芯@@ 10620
领导者 10619
天空 10616
爬 10613
丙@@ 10611
莎 10605
36 10604
谋杀 10596
当今 10589
扬@@ 10589
这会 10589
淘汰 10588
度过 10585
很小 10585
保守 10584
增幅 10581
演出 10577
汇率 10575
啤酒 10573
一个@@ 10566
开拓 10561
裂@@ 10560
低迷 10552
债券 10552
亲 10549
原谅 10549
那位 10545
不上 10544
提起 10541
此事 10537
AR@@ 10534
删除 10534
微笑 10531
欧美 10530
畅@@ 10527
总线 10527
对抗 10526
灌@@ 10520
10.@@ 10519
尴尬 10514
不见 10510
阿里 10509
乎 10505
国际化 10505
吓 10504
弯曲 10501
测试@@ 10496
服装 10494
纪录 10491
整理 10487
影片 10483
系列产品 10483
囊 10480
肾@@ 10477
种子 10476
谷@@ 10470
混蛋 10468
360 10468
牺牲 10468
肠@@ 10467
溶@@ 10463
个人电脑 10461
和谐 10460
鉴定 10460
等到 10458
可谓 10456
菜@@ 10453
撒@@ 10450
丹 10447
秀 10446
范@@ 10445
恶化 10438
沿着 10436
注意力 10432
夺@@ 10431
z@@ 10429
数字电视 10425
能效 10419
电脑@@ 10418
具体@@ 10413
命@@ 10412
漏@@ 10409
一道 10408
发誓 10407
似的 10406
接到 10406
叛@@ 10402
荣 10399
赚钱 10398
该死 10397
熔@@ 10397
亮相 10396
共有 10395
档 10394
加密 10390
红米 10389
利亚 10386
28@@ 10382
红外 10378
斑@@ 10376
短缺 10375
Pro 10373
职责 10371
上来 10370
拯救 10370
按钮 10369
道歉 10367
陪 10365
脸@@ 10364
DSP 10361
铺@@ 10361
in@@ 10358
泡沫 10350
南京 10346
潮流 10344
CMOS 10342
很长 10340
卫生@@ 10339
购 10338
事项 10337
兴起 10333
灭@@ 10325
多项 10323
会上 10321
缘 10318
提示 10317
1.5 10317
滴 10313
况 10310
伟 10310
or@@ 10308
种种 10306
频繁 10304
暗示 10304
被迫 10302
裂 10299
两位 10298
距 10296
多元化 10294
司法 10292
考验 10290
仿@@ 10286
一体 10285
不让 10285
制成 10281
玛 10281
猛@@ 10278
当下 10276
耳机 10273
毒品 10273
浅@@ 10272
AM@@ 10267
冒 10266
公正 10265
设法 10263
冒险 10263
几 10263
遮@@ 10261
游客 10260
韩@@ 10260
没法 10259
单纯 10258
制品 10257
上次 10255
港@@ 10255
领袖 10255
冒@@ 10254
耗@@ 10250
聚会 10249
愚蠢 10248
暗 10243
妮 10243
隆 10239
精彩 10238
营养 10238
播@@ 10235
大学生 10229
紫@@ 10228
输 10218
弟弟 10218
调研 10217
题@@ 10217
之处 10216
此举 10215
虫@@ 10211
扭@@ 10210
吊@@ 10206
繁@@ 10204
搭配 10203
票@@ 10202
麒麟 10202
带到 10201
之类 10199
助理 10194
化学@@ 10191
租@@ 10188
营运 10188
细胞@@ 10180
厂@@ 10175
天然 10175
练 10173
险 10173
灭 10172
总裁兼 10171
随机 10167
届时 10164
浪潮 10163
抵@@ 10162
老人 10162
高层 10152
序列 10149
微控制器 10147
社会主义 10146
铝 10144
拟@@ 10143
弥补 10143
糟 10142
大国 10140
尖@@ 10138
国会 10137
轴@@ 10136
题 10135
飞思 10132
凭 10131
d 10129
销售量 10128
猜测 10127
翼 10124
最具 10123
超声 10120
案@@ 10118
降低成本 10108
何时 10103
慢性 10101
宾@@ 10101
数目 10099
一组 10097
开枪 10096
手里 10091
伟达 10090
上班 10090
广告@@ 10089
汤 10083
将要 10082
疏@@ 10080
心情 10078
吨 10074
漫@@ 10073
退休 10073
北斗 10068
韩 10067
不及 10066
浪@@ 10062
t 10062
总理 10058
资深 10055
亮点 10051
调试 10049
说服 10048
荒@@ 10047
诊 10047
浓@@ 10045
推迟 10039
灾难 10039
还好 10038
斜@@ 10033
狗@@ 10033
癌症 10032
挂@@ 10031
力学 10031
市民 10030
兵@@ 10028
北京@@ 10027
这部 10022
注射 10021
挖@@ 10020
一遍 10019
终止 10018
免 10016
传闻 10015
展望 10010
洛 10008
部位 10008
蒸@@ 10004
方程 10003
修正 10002
院@@ 10000
注@@ 9998
草案 9997
觉@@ 9997
三家 9992
透 9990
酷@@ 9988
进化 9985
感应 9984
氢 9977
蛇 9976
CES 9972
朗 9972
债 9970
钟@@ 9966
焦@@ 9965
从不 9962
议会 9960
污@@ 9960
介@@ 9959
黄金 9957
疼痛 9953
黑莓 9951
氢@@ 9950
穆@@ 9948
心中 9948
爸 9948
人会 9947
边界 9947
激素 9946
能源@@ 9943
嘉@@ 9942
可编程 9941
斗@@ 9931
研讨会 9930
败@@ 9929
亡 9924
这笔 9923
子弹 9922
用作 9918
吹 9917
珠@@ 9916
证书 9914
赋予 9908
仍@@ 9908
履行 9906
ID 9904
这时 9902
产物 9897
折 9895
传送 9895
k 9895
高压 9894
搬 9891
历 9886
这块 9885
青少年 9885
锤子 9883
几家 9883
便是 9881
都@@ 9880
惨@@ 9880
冷静 9879
雾 9877
灰 9876
主机 9874
第十@@ 9874
屈@@ 9869
震@@ 9867
锂 9866
锁@@ 9864
限 9863
一层 9859
旋@@ 9858
限度 9858
线索 9858
b@@ 9857
据说 9857
新一轮 9854
周一 9852
勤 9851
从中 9850
器官 9850
便利 9845
自家 9844
播 9843
址 9842
隔 9838
亏 9838
中国电信 9838
宫 9835
拿出 9825
进口@@ 9825
民众 9824
振 9823
湿 9822
摄像机 9820
档案 9820
遗传 9818
级@@ 9817
翻 9810
单个 9807
Facebook 9806
觉 9806
貌 9803
48 9798
志 9797
盐@@ 9797
自杀 9794
前后 9794
阵 9790
寸 9790
主板 9788
重庆 9787
纳入 9785
客观 9785
版@@ 9781
无线电 9780
宗 9779
公约 9776
精 9774
迈@@ 9773
不出 9771
争夺 9769
唱@@ 9768
资源@@ 9765
财务@@ 9762
探 9761
一番 9758
逐@@ 9757
音乐@@ 9755
管制 9753
扩@@ 9745
h@@ 9744
无人 9737
乘 9736
车型 9735
关键技术 9732
剑 9731
之际 9730
宁@@ 9729
金属@@ 9728
侵权 9722
长大 9720
100% 9717
钟 9715
列表 9715
被动 9713
聚焦 9713
除此之外 9712
冠@@ 9709
产品质量 9709
约束 9704
办事处 9701
饮料 9695
挖掘 9687
筹@@ 9683
混凝土 9683
传感 9680
拔 9679
ST@@ 9679
彩 9676
华星 9671
弃 9669
统@@ 9668
阻 9667
喜爱 9667
赖@@ 9665
劳动力 9664
忽略 9663
毫无疑问 9661
爆@@ 9659
育 9658
衡量 9655
触 9645
忠@@ 9642
一篇 9634
故@@ 9629
具@@ 9628
教室 9628
柱@@ 9625
菲 9622
26@@ 9616
目光 9615
虽 9614
堆 9613
汤@@ 9610
脂 9610
个性化 9609
RFID 9608
教练 9604
洪@@ 9603
氯@@ 9603
缝@@ 9598
友好 9594
喔 9593
欲@@ 9591
两天 9588
激发 9588
合约 9586
在家 9581
变量 9580
均匀 9578
台湾地区 9576
掌 9576
亲自 9575
当作 9573
技@@ 9572
喊 9571
研究进展 9570
网页 9569
卵@@ 9567
100@@ 9566
谋@@ 9556
静脉 9551
m 9550
耶@@ 9550
影院 9547
一笔 9546
拥@@ 9546
中央@@ 9545
键盘 9544
猎@@ 9541
反射 9540
试点 9531
设有 9527
稍@@ 9524
信贷 9524
思科 9523
路灯 9521
沉 9512
需求量 9512
伏 9512
四大 9506
碰 9503
古代 9501
清理 9500
扣 9497
糖尿病 9495
高温 9494
凡 9493
美洲 9489
旅馆 9488
先后 9483
怀 9482
尘 9481
刑 9479
为止 9479
骨折 9478
企业家 9475
先前 9475
海岸 9471
再见 9469
这事 9469
下调 9467
千万 9466
蔬菜 9465
中断 9464
炸弹 9462
放到 9460
分开 9460
氧@@ 9459
不住 9456
变动 9455
建筑@@ 9453
招 9450
仪表 9446
阿富汗 9446
iPhoneX 9444
模仿 9443
故 9439
扶@@ 9438
激动 9436
焊接 9433
批量 9430
暴露 9428
链接 9427
逮捕 9427
勇气 9418
纹 9418
灾 9418
开发人员 9414
世界各地 9412
有意 9411
黄色 9411
递@@ 9409
融入 9409
判决 9408
美国政府 9407
灯光 9406
政治@@ 9405
所示 9402
顿@@ 9401
带给 9400
扩散 9397
实用 9397
男 9394
宫@@ 9393
街道 9393
向前 9391
一对 9389
婚 9388
Windows 9387
窗口 9387
IP@@ 9385
兔 9383
内心 9382
押 9381
朝鲜 9380
旗 9376
来临 9370
彼@@ 9363
痕 9359
臂 9356
戈@@ 9356
卡车 9355
游泳 9355
碱 9350
组建 9349
必 9348
课堂 9348
喜 9348
探测 9348
广场 9347
一根 9345
主张 9338
代谢 9338
IS@@ 9338
小鼠 9337
大于 9332
任意 9330
床上 9327
顺 9326
议 9325
GB 9324
同一个 9322
委会 9321
资助 9321
辞 9320
我刚 9317
迫使 9317
敢 9317
架@@ 9316
会员 9316
vivo 9315
逊 9314
贝 9314
韦@@ 9304
斑 9302
销售@@ 9300
自动@@ 9297
侵@@ 9294
11.@@ 9289
坐下 9289
空中 9285
漏 9285
拳@@ 9284
事儿 9284
跳舞 9283
初 9283
道理 9281
审 9277
介质 9277
秘@@ 9275
捐@@ 9271
处理@@ 9270
英文 9270
页面 9269
资讯 9266
中国区 9265
电站 9264
牛奶 9264
晚@@ 9262
苯@@ 9261
局@@ 9259
截止 9256
扣@@ 9255
很棒 9247
诗@@ 9246
店@@ 9242
保持@@ 9242
纠纷 9241
答 9235
科研 9231
予 9231
v@@ 9226
圈@@ 9220
肺 9219
发性 9218
回忆 9218
肩@@ 9210
骑@@ 9207
所谓 9207
画质 9204
符 9203
有权 9201
企 9200
利用率 9199
欠 9198
位居 9196
咖啡@@ 9196
矩阵 9188
盯 9187
饱和 9187
竟然 9185
视角 9182
旋 9178
账 9177
园区 9176
肯@@ 9173
硝@@ 9173
象征 9172
尘@@ 9169
陶@@ 9169
使用寿命 9169
若干 9168
鸡@@ 9166
拉动 9165
对称 9164
牌照 9164
丰@@ 9162
汽@@ 9162
乃至 9154
近几年 9151
熊 9150
综述 9147
* 9145
族@@ 9145
尖 9141
康佳 9140
察 9135
凶@@ 9134
速@@ 9133
挑@@ 9128
青年 9127
恶 9126
四年 9125
苏州 9121
必将 9121
指挥 9118
交付 9111
敌@@ 9111
布鲁@@ 9109
介入 9108
大幅度 9107
积 9107
巩固 9105
人力 9103
礼@@ 9103
文化@@ 9102
万辆 9098
译@@ 9097
补 9096
财 9094
教会 9093
再度 9093
系@@ 9083
旁@@ 9080
袭 9077
商机 9076
噪音 9072
g 9071
太空 9070
故意 9070
它会 9067
遭 9067
展览 9065
孟@@ 9064
垫 9062
生日 9062
石头 9060
贸@@ 9059
提供商 9055
节约 9052
伟@@ 9045
拜@@ 9045
善 9044
脂肪 9034
教训 9031
怎么回事 9029
垂@@ 9028
花园 9028
协商 9028
谋 9027
茨 9023
惊喜 9022
战场 9021
窗户 9016
车载 9014
老婆 9014
粒子 9012
绕 9010
审判 9009
西门子 9009
非常@@ 9006
现已 9000
商标 8996
滑 8991
共和国 8986
万人 8985
有所@@ 8985
尤@@ 8984
八 8983
封 8982
桌 8980
正好 8979
要说 8966
乔治 8964
认定 8962
周二 8961
战略@@ 8949
极端 8948
CT 8947
售@@ 8945
埋@@ 8944
艺术家 8942
秩序 8942
竞@@ 8942
吉 8940
浏览 8937
古老 8937
忍受 8936
愈@@ 8936
不满 8935
激活 8935
地下 8934
编 8933
巧克力 8932
厉害 8931
跌 8930
更具 8930
居然 8929
当初 8928
争 8923
禁 8920
合格 8920
博客 8919
展出 8918
绕@@ 8917
两人 8914
瑞萨 8912
寻@@ 8912
路由器 8906
药品 8905
当天 8899
饭@@ 8899
习@@ 8896
洋 8894
动机 8894
优惠 8893
迁移 8888
经费 8887
着手 8887
全都 8885
相互@@ 8881
牢@@ 8879
不起 8877
早晨 8876
可达 8875
放置 8873
千元 8868
玉米 8867
4000 8861
彩色 8860
时光 8853
局势 8852
不太 8851
8.5 8851
号码 8849
符号 8848
地板 8847
其余 8847
f@@ 8843
选手 8837
伴 8832
SP@@ 8830
多样化 8829
头上 8827
13.@@ 8823
标准@@ 8820
南方 8818
询问 8814
38 8814
领先地位 8810
皆 8809
暂@@ 8808
携手 8805
遵循 8800
肥 8798
一杯 8793
建筑物 8793
玛丽 8792
庭 8791
12.@@ 8791
33 8789
意愿 8788
本月 8787
均@@ 8787
缝 8784
和解 8781
电量 8780
分销商 8780
岩石 8780
雇员 8779
闹 8778
庄@@ 8775
佳@@ 8770
青睐 8767
高中 8765
扩充 8765
占领 8763
膏 8759
感激 8756
洞@@ 8754
催@@ 8750
金钱 8748
订 8745
渗透 8739
敏 8738
术后 8737
疫苗 8733
割@@ 8732
个性 8730
损耗 8728
不止 8728
法案 8727
村@@ 8726
冠 8726
柔@@ 8725
第五@@ 8723
会计 8722
轻易 8722
坚定 8720
新机 8720
样本 8712
沃 8712
分解 8711
网友 8711
焊@@ 8711
原型 8709
电磁@@ 8707
爬@@ 8704
警 8703
附加 8700
引脚 8700
六 8696
辩@@ 8694
犯@@ 8685
拆@@ 8684
撒 8683
令@@ 8681
对付 8681
总会 8677
类别 8675
滤@@ 8669
频谱 8669
普通@@ 8669
帽子 8668
焦 8662
前所未有 8661
午餐 8656
螺@@ 8654
42 8651
这条 8645
十二@@ 8642
让@@ 8641
序 8638
央行 8637
狂 8637
候选人 8637
斯坦@@ 8637
长江 8636
廉价 8634
上下 8633
凌@@ 8629
瑟 8626
好事 8619
高速公路 8618
丧失 8617
管理层 8616
生物学 8612
充足 8609
间接 8609
SM@@ 8606
陷 8606
损 8603
幻@@ 8600
iOS 8595
素质 8594
门口 8594
等于 8593
得益于 8591
PS@@ 8589
远离 8584
预定 8583
摸 8583
值得注意 8582
洛杉矶 8580
继承 8578
00@@ 8578
几次 8577
as@@ 8577
熟 8577
总之 8574
es@@ 8572
离婚 8572
表格 8571
美国市场 8569
带领 8566
伙 8564
调用 8563
区分 8563
东京 8561
手上 8560
磨 8559
考 8559
光谱 8555
析 8552
墨@@ 8552
不论 8549
司@@ 8549
c@@ 8548
征 8546
ST 8545
漏洞 8545
疑@@ 8544
u@@ 8543
一本 8543
变换 8541
p 8541
律@@ 8541
艇 8539
妇 8538
随之 8537
微处理器 8534
天津 8532
表情 8532
荷兰 8531
徐@@ 8530
薪 8526
迷 8525
摄@@ 8518
气氛 8517
随便 8516
迎@@ 8515
插入 8515
裸@@ 8514
分裂 8513
引用 8512
账户 8512
渗透率 8509
洲 8508
革新 8506
融@@ 8506
烤@@ 8505
滴@@ 8504
戒@@ 8503
耦合 8503
烈 8498
顶级 8497
东部 8497
亿台 8496
皇@@ 8490
败 8490
一声 8490
帝国 8489
隙 8489
总数 8489
滋@@ 8488
仁 8483
峰会 8482
标牌 8478
OS@@ 8478
阵@@ 8474
er 8474
增长速度 8473
息@@ 8470
选用 8470
尔斯 8469
天使 8469
平静 8466
竞选 8465
同行 8462
这边 8462
越南 8462
发达 8462
管理系统 8459
渐渐 8457
骄傲 8456
en@@ 8455
勇敢 8454
备受 8453
乘客 8453
挤@@ 8452
滚 8441
签 8438
价格战 8437
操@@ 8437
热量 8437
熟@@ 8435
章@@ 8434
缺 8434
ad@@ 8431
审计 8430
人家 8430
发放 8429
重大@@ 8429
枝 8425
首个 8425
滤波器 8422
萎缩 8422
相继 8419
权威 8414
32@@ 8410
骗@@ 8399
树脂 8399
肺@@ 8397
住宅 8395
池 8395
沉积 8395
例外 8394
胃 8394
导入 8389
姐姐 8389
半年 8381
好消息 8381
设想 8373
无关 8373
内在 8372
报警 8370
鸿@@ 8370
该项 8368
荣@@ 8368
效能 8361
有意思 8361
充分@@ 8359
辩论 8359
梯@@ 8357
盛 8356
抗议 8351
泰国 8346
人民@@ 8343
准则 8341
证券@@ 8337
消费类 8337
科研@@ 8336
负荷 8332
本届 8332
意图 8331
福利 8326
戏@@ 8325
撒谎 8324
某人 8322
尽力 8316
锻炼 8312
多样性 8310
优质 8308
平稳 8307
不算 8306
热门 8305
现代@@ 8305
一间 8302
臭@@ 8302
材质 8298
莱 8297
电子元件 8294
肝 8288
景气 8287
纽@@ 8283
短信 8282
我家 8279
圣诞节 8279
今@@ 8276
琳 8275
碎@@ 8275
均衡 8273
有机@@ 8273
出血 8273
巴基斯坦 8268
宇 8266
锋 8266
拔@@ 8261
打印机 8261
使用@@ 8260
公式 8258
电力@@ 8256
漂@@ 8255
抛弃 8252
家中 8252
底部 8251
景观 8250
享有 8249
阀 8248
支援 8248
巨额 8248
提及 8248
凸@@ 8247
套件 8247
老鼠 8247
郎 8244
l@@ 8242
大卫 8241
入口 8238
祈祷 8237
鲍@@ 8232
公 8232
献@@ 8232
诉@@ 8231
著@@ 8230
放下 8227
小子 8226
愿望 8225
辞职 8220
PM@@ 8214
肢 8211
风暴 8205
数百@@ 8203
舟 8202
运转 8202
舰 8198
止 8197
链@@ 8195
一方 8194
不断@@ 8190
舍 8190
擅长 8189
江苏 8187
脂@@ 8186
怀孕 8185
隐私 8179
清洗 8174
呈现出 8174
码@@ 8173
窗@@ 8172
氏@@ 8169
吞@@ 8168
杀手 8167
招聘 8165
功 8165
际 8165
一大@@ 8164
加热 8161
规 8160
上下游 8159
眠 8157
频道 8155
强势 8154
不清 8151
诱@@ 8151
便捷 8150
自信 8149
黎@@ 8149
浅 8149
借鉴 8149
太阳@@ 8146
64 8145
两倍 8143
防 8141
节奏 8141
一致性 8138
极限 8137
每周 8137
序@@ 8134
g@@ 8134
签名 8134
一人 8134
月初 8125
传言 8124
天然气 8122
驱@@ 8121
闹@@ 8120
损@@ 8119
载体 8116
众所周知 8115
哇 8115
项@@ 8114
防治 8110
摆 8110
企图 8110
生理 8106
主义者 8105
上个月 8104
端口 8095
余 8094
个体 8092
爱尔兰 8090
致命 8089
碰到 8087
变频器 8086
氮 8085
绿 8084
估值 8084
文献 8084
桥@@ 8084
脉@@ 8082
春 8080
末@@ 8080
间距 8077
清除 8074
累@@ 8074
严峻 8069
共识 8068
外交@@ 8067
扎 8067
户外 8065
告知 8064
Galaxy@@ 8064
血清 8061
保罗 8061
泽@@ 8058
龙芯 8057
制订 8057
27@@ 8056
椅子 8055
尿 8053
买家 8052
震惊 8048
拜 8046
审议 8041
攻 8040
虎 8040
拨@@ 8038
涨幅 8036
增多 8036
便携 8034
邻居 8033
分化 8033
不小 8031
纷@@ 8027
晓@@ 8025
签约 8022
赤@@ 8021
CO@@ 8019
14.@@ 8016
中文 8015
Linux 8014
脱离 8014
童@@ 8013
神经网络 8012
欣@@ 8004
泛@@ 8004
反复 8003
平均@@ 8003
财季 8003
变更 8003
外壳 8002
Al@@ 8002
瑞士 7999
打扰 7999
应付 7998
宪法 7991
左 7991
这张 7990
泡@@ 7990
梁 7987
依 7986
优于 7985
深圳市 7984
联电 7983
绝大多数 7983
好多 7981
心灵 7979
合金 7978
乐队 7974
无数 7973
去世 7972
获悉 7971
桌面 7967
沟 7966
肖@@ 7966
可不是 7966
外形 7963
头脑 7963
消化 7961
谢 7960
辉煌 7960
物种 7959
饮食 7957
返@@ 7957
家具 7957
制裁 7957
麦 7956
骑 7955
LGD 7955
产线 7953
杀人 7952
52 7952
AN@@ 7952
阵列 7951
促销 7948
助手 7948
视野 7948
送给 7945
界@@ 7943
正义 7942
权益 7936
七 7934
贾跃亭 7934
东方 7932
恋 7930
君@@ 7929
此后 7928
证人 7928
板块 7926
勤@@ 7925
诱导 7923
女朋友 7922
暂停 7919
葡萄酒 7917
付款 7915
豆 7915
基金会 7915
决 7914
疗法 7913
群众 7913
r@@ 7907
吸附 7907
将军 7904
纪念 7902
医疗@@ 7901
硅谷 7901
仓库 7897
搭@@ 7897
认同 7891
种植 7890
市长 7887
再生 7886
发力 7886
厂房 7885
商家 7878
首批 7877
功能@@ 7876
复杂性 7873
发酵 7873
完全@@ 7870
锦@@ 7870
辅@@ 7869
伏@@ 7869
整 7867
集群 7862
典@@ 7861
95 7859
信用 7857
ic@@ 7857
挡 7856
仁@@ 7856
边框 7854
掉@@ 7853
可不 7850
讨@@ 7850
行星 7850
煤 7850
烂 7849
拉斯 7843
将近 7840
益@@ 7839
柯@@ 7837
行业协会 7837
无可@@ 7837
中国联通 7836
Q 7834
乡村 7833
期限 7833
脏 7833
不去 7833
骂 7827
修订 7827
仪器仪表 7826
防护 7823
恰@@ 7823
学术 7817
实质 7816
玻璃@@ 7815
竞赛 7815
计量 7814
120 7814
北方 7807
DS@@ 7806
广电 7805
统计@@ 7799
生产力 7798
每日 7796
任命 7794
用品 7791
强制 7790
找个 7789
确立 7789
金立 7786
新建 7785
铺 7783
瞬间 7781
继电器 7780
露出 7776
腐@@ 7776
微生物 7775
种族 7775
搞定 7773
经济学 7773
奖励 7773
涨@@ 7770
危@@ 7767
IN@@ 7766
奠定 7760
海思 7760
积极@@ 7760
无论如何 7759
回复 7758
咬 7757
春天 7756
串@@ 7756
黑人 7753
EC@@ 7753
欺骗 7751
崩溃 7751
可行性 7749
不确定性 7749
杂 7747
途 7746
欧洲@@ 7746
粮食 7745
编写 7744
CDMA 7744
联通 7743
韦斯特 7741
点儿 7739
稍 7739
区块 7736
一倍 7733
察@@ 7731
奇迹 7729
雄 7728
充分利用 7728
农场 7721
进度 7720
犬 7720
运动@@ 7719
青 7717
座@@ 7714
三季度 7714
里克 7711
英尺 7710
am@@ 7710
队员 7709
29@@ 7705
牧@@ 7705
带走 7704
按键 7704
NFC 7699
看待 7698
般的 7698
34 7695
统 7695
解读 7690
4.0 7690
舱 7686
攀升 7680
株 7679
潮@@ 7679
颠覆 7675
不良 7673
基础@@ 7672
护士 7671
鲁 7670
聊天 7665
庆 7665
才@@ 7662
易于 7662
尼斯 7661
RF 7658
梁@@ 7657
宝宝 7657
现阶段 7657
揭示 7657
仙@@ 7657
周四 7656
委托 7655
斯特@@ 7653
宏 7650
客房 7650
奥运 7647
笑@@ 7642
联合@@ 7642
迟到 7641
暴 7641
冬天 7641
阿里巴巴 7640
SO@@ 7637
显卡 7637
恐怖 7635
失踪 7634
老大 7633
赞@@ 7630
幻想 7630
溶液 7630
困@@ 7629
帝@@ 7624
1994 7622
法律@@ 7616
摩尔定律 7616
黏@@ 7613
早些时候 7612
海军 7611
续@@ 7609
当代 7609
写作 7609
第二次 7608
瞧 7608
周三 7607
对比度 7602
采 7602
申@@ 7600
川 7599
搭建 7598
小学 7598
解决问题 7598
看不到 7597
荡 7591
上学 7591
静态 7590
分歧 7586
自有 7585
收获 7583
酷派 7580
近来 7580
耳朵 7580
屁股 7578
标识 7576
CE@@ 7574
不可避免 7571
诚实 7570
毒性 7569
多达 7568
宾 7562
狼 7562
0% 7562
反弹 7561
组织@@ 7559
优异 7557
使命 7556
地铁 7555
直播 7555
吐@@ 7554
世代 7554
意法 7552
杭州 7551
摔@@ 7550
无法@@ 7549
中学 7549
傻 7549
首都 7547
办公@@ 7546
促 7546
餐馆 7546
切割 7542
植入 7541
信号@@ 7541
消息人士 7540
经济学家 7539
混 7538
浦@@ 7537
就让 7530
境内 7530
顺序 7530
弥@@ 7530
战略性 7525
女子 7521
精准 7520
窄 7513
忍@@ 7513
圣 7513
收缩 7511
15.@@ 7509
夜晚 7509
一加 7509
奈@@ 7507
傻@@ 7505
审核 7501
屋顶 7497
耐心 7494
激情 7493
技术支持 7490
热潮 7489
难民 7489
平板电视 7488
无效 7486
饰 7485
入侵 7482
推行 7480
勇@@ 7480
擦 7480
成人 7478
默 7471
说出 7468
一百@@ 7467
情报 7467
编制 7465
挺@@ 7462
砂@@ 7462
温暖 7461
后期 7460
飘@@ 7452
CS@@ 7452
发改委 7451
看作 7449
双重 7449
智能机 7448
京东 7447
拖 7446
数码相机 7442
筛选 7441
插 7441
微博 7440
发售 7438
性格 7437
生活@@ 7433
珍@@ 7431
季节 7431
涉@@ 7431
条约 7430
脉 7427
相关性 7418
赵@@ 7417
信用卡 7417
创立 7417
塑@@ 7414
产品设计 7414
实时 7411
停留 7409
尊敬 7407
仿佛 7406
大胆 7404
怒 7402
开源 7400
进攻 7399
乐意 7395
死去 7394
确信 7390
播放器 7389
牧师 7388
扩产 7387
37 7386
段时间 7384
伤口 7383
46 7383
寻常 7383
徒@@ 7382
弗 7380
ID@@ 7380
眼前 7379
粉丝 7378
过分 7378
鬼@@ 7376
分公司 7371
爽 7371
颇 7370
粒@@ 7370
专项 7367
疲软 7365
投资@@ 7364
埋 7364
遗传@@ 7363
缩减 7361
年间 7359
焦虑 7356
眉@@ 7355
日立 7354
办理 7353
租赁 7351
假期 7351
is@@ 7351
电视台 7349
通信@@ 7349
奔@@ 7348
做成 7347
遍 7345
外媒 7344
注定 7344
庭@@ 7344
口袋 7343
MP3 7343
奋@@ 7341
孤独 7340
假装 7340
渔@@ 7340
弯 7339
分割 7339
摊@@ 7338
各种各样 7337
忧@@ 7337
讲述 7336
字母 7330
抱@@ 7330
几十年 7330
锁定 7330
烦@@ 7329
患@@ 7329
云端 7327
唯@@ 7325
嵌入 7324
连接@@ 7322
不佳 7321
炮@@ 7321
频段 7319
面部 7314
涌 7313
枯@@ 7307
周边 7305
埃 7305
1500 7303
船舶 7302
夫妇 7302
乡 7299
操作@@ 7298
n 7298
南非 7297
点击 7297
J 7296
六个 7296
周年 7295
裤 7291
佳 7291
十大 7290
装配 7290
收取 7289
贝斯特 7289
得知 7289
浪漫 7287
香港@@ 7287
掌控 7285
RAM 7284
车用 7283
还原 7283
鼻子 7281
AP@@ 7280
EM@@ 7279
椅 7277
铝@@ 7272
椎@@ 7270
建模 7268
贫@@ 7268
复 7267
逾 7263
从前 7260
集合 7258
试试 7256
WiFi 7256
富士通 7251
电能 7249
库克 7247
良率 7245
处罚 7245
街上 7245
美光 7245
酱 7244
SK 7244
创下 7242
投诉 7241
瓣 7241
两项 7240
寻 7240
出资 7240
专业@@ 7239
驻@@ 7235
当事人 7234
几分钟 7232
追 7231
研究者 7230
1993 7229
从来不 7226
掀起 7224
二者 7224
验 7222
催化剂 7221
炸@@ 7220
碎片 7220
卸@@ 7218
下次 7218
钙 7217
差点 7217
调制 7216
冷却 7215
喝酒 7214
交谈 7212
放电 7212
颈@@ 7211
调控 7210
升高 7210
大气 7207
容器 7202
评 7200
帽 7199
Y 7198
内涵 7198
问世 7196
排列 7195
贫困 7190
一阵 7188
囊@@ 7188
幕@@ 7187
出口@@ 7186
必需 7186
番 7186
大声 7184
乔 7182
兼@@ 7181
夏 7180
研 7179
新兴产业 7175
籍 7175
障 7173
彼得 7171
刷@@ 7169
指南 7168
事宜 7167
丢失 7167
称之为 7165
沿 7164
释@@ 7163
凡@@ 7163
脚步 7162
所用 7161
大门 7161
奇美 7159
芬 7159
有效性 7159
助力 7157
外延 7157
户@@ 7156
自豪 7153
炮 7153
有益 7152
纤@@ 7152
创新能力 7149
职务 7149
大屏 7146
88 7145
饿 7144
始@@ 7144
几周 7141
芽 7138
歌曲 7135
音响 7133
通话 7132
债@@ 7131
小麦 7130
硅片 7129
成效 7129
涉足 7129
依赖于 7128
港口 7128
董明珠 7128
欠@@ 7126
如果说 7123
校长 7121
作战 7120
诊@@ 7118
失业 7118
款@@ 7116
驻 7115
触发 7114
统计数据 7112
参与者 7109
35@@ 7107
脑袋 7105
解除 7105
汉语 7104
开发商 7103
泉 7102
雌@@ 7101
MC@@ 7100
有线 7089
做些 7088
搭 7087
前者 7085
贩@@ 7085
隧道 7084
奢@@ 7082
前期 7081
许可证 7080
轰@@ 7080
右 7080
扯 7079
银行@@ 7078
存储芯片 7077
侦@@ 7076
市占率 7074
太大 7074
一轮 7073
程序@@ 7073
分泌 7071
商业化 7071
劫@@ 7070
不像 7070
墙上 7067
大人 7067
操纵 7064
an 7064
城镇 7062
英国@@ 7060
两名 7059
责 7057
疲劳 7057
罚款 7057
靠@@ 7057
烦 7057
干燥 7055
冬@@ 7055
军事@@ 7055
折磨 7053
个别 7051
瞄准 7050
缺货 7050
俗@@ 7049
商人 7048
海滩 7047
恶劣 7047
没关系 7046
产出 7044
无锡 7044
IoT 7043
乐趣 7042
罪犯 7041
演进 7037
招标 7036
罐 7036
知识@@ 7035
歧视 7034
随意 7033
封闭 7030
一会 7027
艺术@@ 7023
而成 7019
难过 7018
驾@@ 7018
源于 7015
卖场 7015
水准 7014
勾@@ 7013
空白 7012
替换 7008
街@@ 7008
未经 7008
烈@@ 7007
阴影 7003
舞蹈 7002
生产能力 7000
主权 7000
85 7000
模拟@@ 6998
堆@@ 6998
指望 6995
PS 6993
太平洋 6992
离职 6991
一同 6991
直观 6989
比较@@ 6986
夏季 6982
保密 6982
烤 6980
寒@@ 6980
授@@ 6975
举动 6968
微波 6967
迄今为止 6967
凉 6964
39 6963
奉@@ 6962
碗 6962
既有 6962
大街 6961
恶心 6960
电子展 6959
酸盐 6958
盲@@ 6957
附 6953
49 6953
牙齿 6952
合计 6951
英镑 6950
芬@@ 6950
蓄@@ 6947
鸡蛋 6946
病变 6946
MOSFET 6943
懂得 6940
中东 6940
些@@ 6938
敬 6937
iPhone5 6937
1999 6936
出租车 6934
终 6931
向上 6930
导弹 6929
燃料电池 6924
全力 6923
选民 6921
几何 6920
客户@@ 6916
第二天 6916
识 6916
基督 6911
脆弱 6910
积分 6910
客户端 6907
迁@@ 6907
列出 6906
这类 6904
势力 6903
走势 6902
充电器 6902
几十@@ 6900
碰撞 6900
趋@@ 6899
胎 6898
列入 6896
万吨 6894
数年 6891
玉@@ 6889
邪恶 6889
申请@@ 6888
天堂 6886
磷@@ 6886
研究@@ 6885
肯 6884
ch@@ 6881
43 6881
栋 6881
沃尔@@ 6881
沮丧 6878
预见 6877
结构@@ 6873
第五 6872
势头 6870
温和 6868
产业@@ 6868
泥 6864
财经 6862
赶上 6861
麻 6858
撞@@ 6858
摄影 6857
霉素 6856
无聊 6854
炼@@ 6854
GalaxyS@@ 6854
宝贵 6854
本国 6854
形容 6853
16.@@ 6851
发展@@ 6846
有害 6846
倾斜 6846
11@@ 6844
www 6842
性别 6842
壮@@ 6841
手臂 6841
丰 6840
以至于 6840
虎@@ 6839
拿走 6839
回升 6836
贫穷 6832
腾@@ 6831
封测 6831
茎 6830
匠 6830
双手 6828
日起 6827
日常生活 6826
帧 6825
电子行业 6825
弯@@ 6817
脖子 6817
华尔街 6817
捕 6816
病理 6815
俱@@ 6811
秋@@ 6809
登陆 6809
译 6808
西安 6807
辉 6807
误 6806
可惜 6805
脊@@ 6802
神奇 6801
集中@@ 6799
晕 6798
棒@@ 6796
GDP 6793
合肥 6792
迭代 6792
持股 6790
神经元 6789
东莞 6786
自行 6785
相比之下 6783
泽 6783
被告 6782
日报 6781
应急 6777
教徒 6777
扬声器 6776
荧光 6775
奶@@ 6775
顽@@ 6773
6000 6771
席 6771
纱 6770
座位 6769
沙漠 6766
低温 6764
蜂@@ 6763
斯坦 6762
51 6760
IM@@ 6757
凭@@ 6756
设@@ 6755
图案 6754
一眼 6754
文中 6754
一头 6752
壁垒 6751
魅蓝 6751
Web 6750
小小的 6749
丢@@ 6749
拐@@ 6748
用户@@ 6748
演变 6747
腐败 6747
TC@@ 6747
亿部 6747
卓@@ 6746
68 6743
担保 6742
谴责 6742
四川 6742
吃惊 6741
华硕 6741
观测 6740
摧毁 6739
同志 6738
佛 6738
微米 6736
艘 6735
彻@@ 6735
宿@@ 6734
应用@@ 6732
渗@@ 6727
依托 6726
逃 6726
造型 6726
荣誉 6726
所知 6725
遇@@ 6725
明智 6723
便于 6723
答@@ 6721
独家 6719
17.@@ 6719
局长 6717
幻 6717
拥抱 6715
磅 6714
挖 6713
偶尔 6710
非线性 6709
at@@ 6709
所述 6707
物料 6705
病例 6703
经营@@ 6702
济@@ 6699
同情 6698
担@@ 6695
悲伤 6694
行李 6694
手势 6692
覆 6690
英特尔公司 6689
押@@ 6689
体外 6689
王子 6684
赴 6683
少量 6683
id@@ 6682
之地 6681
无缝 6681
订购 6679
小编 6678
依照 6677
终端产品 6675
醒@@ 6674
SC@@ 6674
勇 6673
鹰 6673
升值 6672
兽 6671
裁决 6670
摩 6669
天下 6669
海关 6668
钉 6667
聊 6667
珠海 6666
传输@@ 6665
传说 6665
没想到 6663
带上 6661
淋@@ 6660
汽车产业 6659
旺季 6659
理论@@ 6655
节日 6654
九 6653
发动 6653
册 6653
剂量 6652
英格兰 6651
全体 6650
主持 6650
肿 6649
供货商 6646
软硬件 6645
炼 6641
蓝宝石 6640
划 6639
留给 6638
反正 6638
浴 6637
鹿 6637
简要 6636
词汇 6635
上诉 6634
齿 6632
暨 6632
技术水平 6631
承 6630
阶 6630
罪行 6630
友谊 6629
宠物 6629
城市@@ 6628
技术人员 6628
刮@@ 6627
膨胀 6626
探员 6625
印度@@ 6620
怒@@ 6619
真空 6618
An@@ 6617
荣幸 6613
寄 6611
杆菌 6611
品牌@@ 6609
剩 6604
削 6603
妙 6601
闻@@ 6601
高出 6601
英语@@ 6600
领导@@ 6599
范畴 6598
纯粹 6596
汇 6596
梅 6596
稍微 6595
希 6595
失效 6595
疑问 6595
流明 6592
体会 6592
舍@@ 6591
信息安全 6590
氨@@ 6589
菜单 6589
一级 6588
狼@@ 6588
高频 6587
大战 6586
灰色 6585
珠 6584
破裂 6584
分销 6582
汗 6582
切除 6581
90@@ 6581
奥斯@@ 6578
人人 6577
屋@@ 6576
联想集团 6576
赫 6576
客厅 6572
Si@@ 6571
转换器 6571
彭@@ 6570
役 6568
设计业 6567
这句 6566
动性 6566
腺@@ 6564
礼貌 6563
磁场 6562
提案 6558
贝尔 6556
堂@@ 6556
童 6554
值得一提的是 6551
度假 6551
镜@@ 6551
废物 6550
绑架 6550
录像 6548
驰 6546
it@@ 6545
聚合物 6545
没人 6542
圆形 6536
尽管如此 6535
龄@@ 6535
剩余 6534
宜@@ 6531
润@@ 6529
径@@ 6528
墙@@ 6526
偏 6524
浙江 6521
以太网 6521
吸 6517
莫 6516
外交 6515
收拾 6515
基准 6513
险@@ 6513
更快 6512
晋@@ 6511
定量 6508
犹@@ 6507
迎接 6507
矩 6506
强迫 6505
缺失 6504
一股 6503
固 6501
周五 6501
鼓 6501
娅 6500
极了 6499
就此 6497
Ch@@ 6494
变为 6493
抢占 6493
47 6492
大大@@ 6492
j@@ 6490
估@@ 6489
领土 6488
营养@@ 6487
好奇 6486
过多 6486
原先 6486
锐 6486
涌@@ 6486
Mo@@ 6485
le@@ 6485
经济体 6484
小于 6484
垃圾@@ 6483
沉默 6481
着重 6475
百分之@@ 6475
各家 6474
昆虫 6470
天才 6469
什@@ 6468
手环 6462
踢 6461
诚 6461
第二季 6460
渣 6457
新高 6455
调度 6454
低成本 6454
开设 6451
匹@@ 6450
桃@@ 6447
奶奶 6445
泄露 6443
坛 6440
苏联 6439
密封 6439
挑选 6438
虚拟@@ 6436
只好 6435
津@@ 6435
镀@@ 6434
岗位 6432
吐 6432
昂 6431
数十@@ 6430
醉 6429
ar@@ 6429
不在乎 6428
乳 6427
神圣 6427
既@@ 6425
过高 6425
免疫@@ 6425
1996 6424
包裹 6423
下列 6423
900 6423
l 6422
炉@@ 6419
分成 6418
坑 6413
环境保护 6413
分支 6412
一点点 6412
氧化物 6411
映 6410
次数 6409
纽约@@ 6409
临 6409
心脏病 6409
昏@@ 6407
广东省 6406
联络 6405
态@@ 6405
猎 6404
涂 6404
相较 6404
盟 6403
汽车行业 6402
首要 6401
走过 6401
历程 6400
腐蚀 6398
悲剧 6398
毫@@ 6396
绵@@ 6396
视网 6396
参展 6395
读取 6394
确切 6391
相处 6390
加油 6390
演奏 6389
公主 6389
最有 6388
3.5 6387
不介意 6385
卧室 6381
阿拉伯 6380
2.0 6380
有过 6379
此项 6378
企业@@ 6377
停车 6377
布莱@@ 6374
客车 6372
光明 6371
产品开发 6370
削弱 6369
独自 6369
信念 6368
推测 6367
住房 6366
去过 6365
钠 6364
李 6360
持久 6360
极具 6359
上海@@ 6358
灾@@ 6358
对面 6356
70@@ 6356
哀@@ 6351
电信@@ 6349
酚 6349
1.2 6347
而来 6345
性感 6343
工会 6342
地理 6342
健身 6342
克里@@ 6340
函 6340
真理 6340
叔叔 6339
il@@ 6339
钩 6339
支票 6337
球场 6337
DLP 6336
偶 6336
待遇 6333
渡@@ 6333
汀 6331
额@@ 6331
附件 6328
支持者 6327
疼 6326
生效 6326
不同于 6326
浏览器 6325
大厦 6324
罐@@ 6323
气候变化 6322
EC 6321
棉@@ 6321
封信 6319
传统@@ 6317
院校 6317
鼠标 6314
投射 6312
鞋@@ 6311
还给 6310
报表 6310
RA@@ 6309
锅 6309
市面上 6307
痕迹 6307
44 6307
同类 6306
那条 6304
电梯 6304
模具 6303
8K 6303
CM@@ 6301
信息系统 6299
毒素 6299
一时 6299
面试 6298
清醒 6298
武装 6298
后续 6297
尺 6297
发展前景 6296
五大 6293
展览会 6291
好转 6285
重心 6282
橡胶 6280
处境 6279
旗@@ 6278
仅次于 6278
长期以来 6278
同性恋 6276
授予 6275
不高 6275
主角 6275
厄@@ 6275
缓@@ 6275
Power@@ 6273
欲望 6273
保健 6271
联手 6269
有钱 6267
w@@ 6267
代理商 6266
72 6266
消费@@ 6266
别说 6264
橡@@ 6262
2025 6262
此基础 6259
一向 6255
不管怎样 6255
us@@ 6253
AP 6252
断裂 6252
商场 6251
顾 6251
产品价格 6250
执行@@ 6249
成员国 6248
挤 6247
DVD 6247
示波器 6247
交往 6246
覆@@ 6245
催化 6245
解雇 6244
纪@@ 6239
SSD 6238
线下 6238
in 6237
康复 6232
我爱你 6231
模块化 6231
典 6229
雇主 6228
苗 6228
APP 6228
投资人 6226
显现 6226
二次 6225
配有 6225
厦门 6224
溜@@ 6223
笑话 6221
前沿 6217
夹 6215
男朋友 6214
副总经理 6214
言论 6213
泄漏 6212
地质 6209
合作@@ 6209
火箭 6207
佐@@ 6206
罚 6206
安理会 6205
火灾 6205
忠诚 6204
国民 6202
贾@@ 6200
医 6200
烦恼 6199
Pro@@ 6198
绝不 6198
深化 6196
跨越 6195
漫长 6195
这套 6193
操控 6193
短暂 6189
禁令 6184
委员 6180
剑@@ 6179
桌@@ 6177
大屏幕 6177
量化 6176
赶 6173
离不开 6171
比如说 6171
折叠 6171
从此 6171
重申 6169
躲 6169
多元 6168
妨碍 6167
头部 6166
拼接 6164
符合@@ 6164
戒指 6163
解析 6163
布朗 6162
残酷 6159
实验@@ 6156
2G 6156
结果显示 6155
19.@@ 6154
救援 6151
低价 6151
麦克风 6151
名词 6150
ASIC 6149
过后 6149
DM@@ 6148
降到 6148
抵押 6147
分布式 6146
预示 6146
术语 6145
流畅 6143
奏@@ 6142
AB@@ 6141
不得@@ 6141
魔法 6140
蠢@@ 6136
味@@ 6136
圣经 6135
敏@@ 6135
体重 6133
件事 6131
据称 6131
祖@@ 6130
宽度 6130
扑@@ 6129
LT@@ 6128
世界杯 6127
地带 6126
56 6126
工艺@@ 6126
IPO 6125
墨 6124
似 6124
占用 6122
责@@ 6120
驶@@ 6120
第三季 6120
维尔 6117
裤子 6114
AC@@ 6114
氟@@ 6113
申报 6109
钢琴 6108
各级 6107
支架 6106
零售@@ 6106
日元 6106
背光源 6104
窃@@ 6101
审批 6101
狭窄 6101
犯罪@@ 6100
缓存 6098
直流 6097
块@@ 6096
弧@@ 6095
MP@@ 6094
自愿 6094
内外 6093
污 6093
多人 6093
会儿 6090
中毒 6090
国产化 6088
66 6088
绝缘 6087
吓@@ 6086
布什 6084
安娜 6080
把手 6080
船上 6080
谱@@ 6078
树立 6078
箱子 6077
不敢相信 6077
见过 6075
41 6075
三次 6073
氨酸 6071
堪@@ 6069
耕@@ 6069
惹 6069
席@@ 6067
场地 6065
去除 6065
相对@@ 6063
所致 6063
精英 6063
瑟@@ 6062
成型 6061
员@@ 6060
过滤 6059
主力 6059
恰当 6058
含义 6058
明亮 6057
亏@@ 6055
65@@ 6053
帐 6052
收回 6049
宜 6046
基督教 6044
乎@@ 6044
会议室 6043
直至 6042
种族@@ 6041
底层 6039
见证 6038
权限 6038
震 6038
羞@@ 6034
高通公司 6034
会谈 6034
违@@ 6033
骨头 6032
大厅 6032
趣 6032
马克 6031
帅 6031
灵敏度 6030
严重@@ 6029
白宫 6028
Ar@@ 6026
颈 6025
大致 6024
据介绍 6024
验@@ 6023
Windows8 6022
预言 6022
柄 6022
多样 6022
聚合 6022
饭店 6020
走上 6017
现行 6016
无线通信 6016
好莱坞 6015
厕所 6015
增益 6013
卵 6012
凯 6012
丘@@ 6011
盗 6009
克隆 6009
价格上涨 6007
LGDisplay 6006
工作组 6005
成年人 6005
罕见 6003
生产成本 6002
巾 5999
一期 5999
迷人 5998
工业化 5998
贼 5995
瑞典 5995
存款 5995
叶片 5993
洗衣机 5992
神话 5989
首相 5988
管理者 5987
团结 5986
Note@@ 5986
高峰 5984
停下来 5983
维亚 5981
吸烟 5978
航班 5976
追赶 5976
笨@@ 5973
行业标准 5973
1995 5973
回事 5972
做过 5972
气味 5971
绝望 5970
呆@@ 5970
几百@@ 5970
趋于 5968
十分@@ 5968
水中 5967
综合征 5966
停车场 5964
用以 5963
语法 5959
打败 5959
世上 5958
法人 5957
摩擦 5957
车里 5956
映@@ 5953
掩@@ 5952
首选 5950
氛围 5949
融 5949
车间 5947
扭转 5946
摘@@ 5944
纪念@@ 5943
车上 5942
困惑 5941
轿车 5941
跟随 5940
稀土 5940
窝 5939
预订 5936
持平 5936
捉@@ 5935
霸@@ 5934
威尔 5933
传媒 5933
22@@ 5933
零售商 5932
搜@@ 5932
指导@@ 5931
遗产 5928
维库 5927
闪 5926
倒闭 5925
安慰 5924
琴 5923
再生能源 5923
想着 5921
mA 5921
价值观 5920
抵达 5919
坎@@ 5916
桥梁 5915
国美 5915
议程 5913
第六@@ 5912
严厉 5912
利好 5911
肿@@ 5907
意志 5905
秘书 5904
月光 5904
账@@ 5903
一波 5903
进出口 5902
分手 5901
游戏机 5900
背面 5899
太棒了 5899
麦克 5899
圣诞 5898
大唐 5896
试着 5894
罗斯 5892
解码 5892
码头 5891
中间@@ 5891
无辜 5890
民主@@ 5890
运气 5889
夏普@@ 5888
捷 5888
良 5887
迈克尔 5883
旺 5882
借口 5881
姿态 5880
玫瑰 5878
平时 5875
又@@ 5875
仗 5874
腰 5874
坚决 5873
一所 5873
枝@@ 5872
开工 5869
强有力 5869
暖@@ 5868
伪@@ 5865
织@@ 5865
河流 5865
树木 5862
冻 5862
识@@ 5862
空气@@ 5862
砸 5860
固体 5859
某种程度 5857
磷酸 5856
恐 5855
撤@@ 5855
评级 5855
鸣 5855
奏 5854
抹 5854
虚 5854
一贯 5854
白炽灯 5853
永久 5852
培@@ 5852
年级 5849
用到 5848
膜@@ 5848
峰值 5848
研究员 5848
暖 5848
优良 5844
人来 5844
薪酬 5843
12% 5843
看似 5843
万一 5842
模板 5842
白痴 5839
两周 5838
海上 5838
肾 5838
供需 5836
或者说 5835
顶部 5833
瓜@@ 5831
赛季 5830
第一款 5830
霜 5830
3C 5829
好看 5828
第一步 5826
滥用 5825
多种@@ 5824
新生 5824
仍旧 5822
臭 5821
在场 5819
剪 5817
SD@@ 5817
警官 5815
郡 5814
舞会 5814
CRT 5813
结局 5812
姓名 5812
停下 5811
地狱 5809
and@@ 5809
67 5808
日渐 5808
尝@@ 5808
策 5806
映射 5804
外科 5804
伴@@ 5803
漆 5803
价位 5802
更长 5801
人能 5801
院长 5798
戏剧 5797
枚 5797
钻石 5797
坝 5796
租 5796
钱包 5795
电影@@ 5795
醒来 5795
苏格兰 5795
拍卖 5794
凹@@ 5793
策划 5793
老爸 5789
握 5788
桃 5788
水分 5787
z 5785
采取行动 5785
微小 5784
谐@@ 5783
驾驶员 5782
州市 5781
Plus 5780
两条 5779
苯 5779
作物 5776
部落 5776
督@@ 5776
锡@@ 5776
狱 5773
耐 5773
赞成 5772
好人 5772
三分之一 5772
人工@@ 5771
披@@ 5770
名义 5769
安捷伦 5768
己 5768
耶 5768
水泥 5767
86 5764
比尔 5764
解锁 5764
星球 5763
激光器 5762
美味 5760
帐户 5760
民间 5758
相互作用 5758
年纪 5758
人道主义 5758
概率 5756
限于 5753
流体 5752
商品@@ 5751
62 5751
盗@@ 5751
绘画 5750
牢 5750
歇@@ 5749
分立 5749
帐@@ 5749
锌 5747
纤维@@ 5747
整天 5747
理学 5746
返 5745
鞋子 5744
坚果 5741
眼球 5741
在意 5741
估算 5741
严肃 5740
AC 5738
睡着 5738
庆@@ 5738
询 5735
人为 5733
98 5732
视网膜 5732
250 5730
子宫 5730
赖 5730
竹@@ 5729
开门 5728
妥协 5727
Mac@@ 5723
不肯 5723
职员 5723
铸@@ 5720
更强 5720
围 5720
欺@@ 5720
并发症 5717
蛋@@ 5717
万物 5716
无力 5716
劣 5715
叙述 5715
冻@@ 5714
ed@@ 5710
绞@@ 5710
政权 5709
伞 5708
干涉 5707
53 5707
认 5706
标题 5706
伤心 5706
严 5705
买卖 5704
该机 5704
贪@@ 5703
开口 5703
市政府 5703
步入 5703
鲜 5702
航天 5701
DC 5700
纹@@ 5700
土耳其 5699
秘 5697
手册 5697
钴 5696
兹@@ 5694
研究成果 5693
改良 5691
祝@@ 5691
日趋 5689
抵抗 5689
财政部 5688
遇 5688
苏宁 5687
朝着 5687
Google@@ 5686
偿 5686
郭@@ 5685
补助 5684
电厂 5684
必达 5683
后悔 5683
判 5681
转载 5681
铅 5679
增至 5678
多款 5678
健全 5677
郑@@ 5675
磷 5675
SI@@ 5675
延 5674
滤波 5674
瘾 5673
en 5670
中华 5670
砍@@ 5668
营造 5667
储能 5667
苗@@ 5666
公认 5665
砖 5665
赶紧 5663
拜访 5661
仲裁 5660
航天@@ 5660
衬衫 5659
半导体业 5657
20.@@ 5657
缠@@ 5657
手持 5656
布置 5651
成长率 5651
管理人员 5651
根本@@ 5648
杀害 5648
小镇 5647
鸟@@ 5647
平方@@ 5646
毕业生 5646
豪 5646
管理局 5645
很强 5645
尊@@ 5643
相连 5642
校正 5642
乙烯 5641
ES@@ 5640
现货 5639
拿下 5639
轮胎 5639
幼儿园 5639
NVIDIA 5638
胎@@ 5638
短时间 5638
缺口 5637
填补 5637
扰@@ 5637
陷@@ 5633
硫 5632
国防 5632
攀@@ 5631
疹 5631
避开 5630
葡萄@@ 5630
逃跑 5629
雾@@ 5627
电感 5626
仓 5626
降解 5625
闷 5623
前途 5623
CC@@ 5620
唱歌 5618
初始 5617
做事 5615
女王 5615
劳动@@ 5613
甜 5612
复兴 5612
多方面 5612
每当 5611
室@@ 5611
遥控器 5608
人力资源 5607
桌上 5606
岭 5606
评测 5605
并不@@ 5604
藻 5604
仰@@ 5601
三天 5599
诗歌 5599
废 5598
浩@@ 5597
全球性 5597
短期内 5597
18.@@ 5596
减弱 5596
手法 5595
交易所 5595
仓@@ 5595
Mac 5595
家居 5593
二氧化碳 5593
简 5592
选择性 5592
湿度 5591
应有 5591
当成 5589
发作 5587
纪 5587
热带 5586
习 5585
波形 5582
队长 5581
一堆 5580
书籍 5578
详细@@ 5578
大批 5577
王国 5575
侧面 5575
白天 5575
眼中 5574
急剧 5574
通胀 5573
阔 5573
话语权 5573
整车 5573
最大化 5572
Re@@ 5571
恐@@ 5570
政党 5569
兆@@ 5569
一处 5567
三款 5566
割 5566
犹太人 5565
消费市场 5565
龙头企业 5563
深入@@ 5562
贯@@ 5560
持续增长 5559
毫不@@ 5559
电话@@ 5558
凸显 5558
下周 5558
维生素 5557
翔 5556
比起 5556
坠@@ 5555
版权 5555
WiMAX 5555
诱惑 5555
战士 5555
轻薄 5555
天赋 5554
信赖 5554
IT@@ 5554
府 5553
里斯 5553
收购@@ 5552
高昂 5552
直径 5551
睿 5548
沉重 5548
直升机 5548
胸 5546
冲动 5546
流动性 5545
说谎 5545
洗牌 5544
爆炸@@ 5543
物理@@ 5543
迅猛 5542
波长 5542
3D@@ 5542
马来西亚 5542
飞船 5541
超声波 5540
食用 5537
似@@ 5536
严格@@ 5536
姐妹 5535
广播@@ 5535
吵@@ 5535
绳 5534
立体 5532
Mate@@ 5532
校准 5530
300@@ 5530
候@@ 5530
刑@@ 5530
宇@@ 5530
高效率 5529
兴建 5528
到位 5528
PA 5525
美分 5524
扁@@ 5523
保安 5523
指引 5523
平民 5522
5.5 5522
58 5522
净化 5522
斌 5520
消灭 5517
充满@@ 5516
民用 5516
快捷 5516
流感 5516
ol@@ 5513
硬化 5512
庄 5511
受体 5510
汽 5510
伴侣 5510
劝@@ 5509
没能 5508
共和党 5507
喊@@ 5506
修理 5505
不久前 5505
质量@@ 5504
旦 5503
概@@ 5502
躁 5500
欢乐 5500
em@@ 5500
斯顿 5500
线圈 5498
孕@@ 5497
航空公司 5497
爱好者 5496
全身 5496
不准 5495
时间表 5494
63 5493
国产品牌 5492
职能 5492
工序 5489
不当 5488
遥远 5487
市场经济 5487
毁灭 5487
抢劫 5487
首歌 5487
猫@@ 5486
生命@@ 5485
何种 5484
刑事 5484
死者 5483
相位 5483
车子 5482
HD 5482
分析@@ 5480
传达 5480
RF@@ 5480
昆@@ 5479
史密斯 5476
这部分 5474
汗@@ 5474
坚强 5473
老兄 5473
疑 5473
惹@@ 5473
傻瓜 5472
涡@@ 5471
奔 5470
今 5469
一员 5467
父@@ 5466
NANDFlash 5464
光子 5463
穆斯林 5463
白人 5463
汽油 5463
沙发 5462
超市 5460
躲@@ 5457
辞@@ 5457
揭@@ 5457
嘲笑 5456
卖出 5455
杰出 5455
工作者 5454
祝福 5454
海水 5453
08 5453
猜@@ 5450
第三个 5450
国家标准 5449
无所@@ 5449
微信 5449
单词 5445
串 5445
廊 5445
杯@@ 5444
锡 5443
干吗 5443
抑@@ 5442
DisplaySearch 5441
戒 5440
来源于 5440
缘@@ 5440
可观 5440
酒精 5440
大连 5440
艾 5439
TM@@ 5437
幽@@ 5435
跨国公司 5435
逼@@ 5435
氮@@ 5434
三是 5433
兼容性 5432
肽 5432
击败 5431
妮@@ 5429
生病 5428
部份 5428
应用软件 5427
议题 5425
38@@ 5424
衬@@ 5422
LP@@ 5422
科学技术 5421
偿@@ 5419
旅客 5419
挣扎 5419
偶@@ 5419
柏@@ 5418
不动 5417
效力 5417
哪怕 5414
闭嘴 5414
第一季 5412
消防@@ 5412
功夫 5412
HD@@ 5411
衰@@ 5411
多重 5410
福特 5409
MT@@ 5409
斯蒂@@ 5408
茂@@ 5408
谦@@ 5407
邻@@ 5407
虾 5406
芝加哥 5405
讽刺 5405
受损 5404
问问 5400
战胜 5400
屑 5399
尼克 5396
帕 5395
表现@@ 5394
行走 5393
不易 5393
老年人 5392
发生变化 5392
建厂 5392
忘@@ 5389
服务业 5388
阻抗 5387
大师 5386
设计@@ 5385
两国 5384
前来 5383
引 5382
洪水 5381
54 5381
图表 5380
摸@@ 5379
定向 5378
宁愿 5378
事先 5377
心理学 5377
背部 5376
练@@ 5374
密集 5374
陈述 5374
TE@@ 5373
发病 5373
繁殖 5373
契机 5371
综@@ 5370
极致 5369
中部 5368
出版@@ 5368
付费 5367
爆 5365
城里 5363
电磁 5362
轨迹 5361
干细胞 5361
流失 5359
半个 5358
壮大 5358
剥@@ 5357
柏林 5357
操 5357
强国 5356
误解 5356
重要@@ 5353
LG@@ 5353
h 5352
正当 5351
对接 5351
防御 5351
卧@@ 5350
反应@@ 5350
所得 5350
妥@@ 5350
凉@@ 5350
优雅 5349
搅@@ 5347
毫无@@ 5347
这使 5346
四周 5346
交所 5345
在乎 5344
23@@ 5344
偶然 5344
塑造 5341
得多 5340
无意 5340
芭@@ 5340
抗体 5339
齿轮 5338
眼下 5338
刊 5338
高质量 5338
移动@@ 5337
撕@@ 5337
那次 5334
折扣 5334
备份 5333
午@@ 5333
单价 5332
横向 5332
预约 5331
移动电话 5329
GE 5329
名叫 5328
壳@@ 5328
小型化 5328
分区 5327
欧元区 5326
否定 5324
调制解调器 5323
得不到 5323
报复 5323
一顿 5323
嫁给 5322
首发 5322
学到 5322
负面 5321
昌 5318
洁 5318
主导地位 5317
村庄 5315
甚 5314
稻@@ 5313
不足以 5312
全是 5312
无线网络 5311
迈克 5311
挤压 5311
LC@@ 5311
滞@@ 5311
棋 5311
砂 5309
转动 5308
列车 5308
屋子 5307
流通 5306
Co@@ 5305
三元 5304
祥 5303
线程 5299
韦 5298
项目@@ 5296
人口@@ 5295
癌@@ 5293
增长点 5292
恶意 5291
竞争者 5290
鼎@@ 5290
闭 5289
陪审团 5287
方针 5285
吻合 5285
启用 5283
月球 5282
看不见 5282
电视节目 5277
雇佣 5277
堵 5277
剧院 5276
有待 5275
凌晨 5274
克莱@@ 5274
醛 5274
间谍 5274
流行@@ 5273
涉嫌 5272
累积 5272
愿@@ 5271
恋@@ 5271
冬季 5270
is 5269
篇@@ 5269
依法 5269
劲@@ 5266
开会 5266
os@@ 5266
四处 5266
辈 5265
咬@@ 5265
崇拜 5263
疗@@ 5263
健 5261
幽默 5261
胰@@ 5261
女士们 5260
究 5260
熊@@ 5260
4.5 5259
绩效 5258
夸@@ 5257
煮 5256
崇@@ 5255
新年 5255
一架 5254
属@@ 5253
撤销 5252
橄榄@@ 5251
紧缩 5250
沸@@ 5249
在一起 5248
管理员 5247
支配 5246
没用 5246
潘@@ 5246
指向 5243
陌生人 5242
千年 5242
盆 5242
蜂窝 5241
工艺技术 5240
上方 5238
RIM 5238
性价比 5238
镜子 5238
诗人 5237
降至 5237
留下来 5235
哥们 5234
u 5234
TS@@ 5231
代表性 5231
子女 5231
产品组合 5230
拘@@ 5230
树林 5229
耻 5228
61 5227
并行 5226
里程碑 5226
罢了 5225
我用 5224
联发 5221
超高 5220
信道 5219
赤字 5219
秒钟 5217
参考@@ 5216
件@@ 5216
产业园 5212
天生 5211
水面 5211
拳 5211
邓@@ 5209
生产工艺 5207
根源 5207
置于 5207
遇见 5206
环比 5204
公开@@ 5203
皇家 5203
逝 5202
革命性 5202
服用 5201
脾气 5200
走廊 5199
蓬勃发展 5198
戈 5198
纠正 5197
目的地 5195
交叉 5194
盆@@ 5194
日志 5193
瓷@@ 5193
零组件 5192
顶尖 5191
专 5191
都市 5189
征收 5188
食品@@ 5187
扭曲 5186
减缓 5184
廉@@ 5184
1200 5184
试验@@ 5182
基因@@ 5182
燃 5182
有序 5181
大赛 5180
笼@@ 5180
技术标准 5177
y 5177
钢铁 5176
农 5176
熊猫 5175
永恒 5174
燃油 5173
外设 5173
鉴别 5172
提名 5172
裔 5172
赌 5172
前列 5171
合伙人 5171
审美 5171
69 5170
沟@@ 5169
亨利 5165
心态 5164
术@@ 5163
开幕 5162
忠 5159
典礼 5155
有毒 5154
丰田 5153
上演 5152
美金 5152
瞩目 5151
裙 5150
极度 5150
溢@@ 5149
完整性 5149
容忍 5148
导电 5147
一日 5146
薄弱 5146
岛屿 5146
概述 5146
剥离 5145
罚@@ 5145
启示 5145
国际标准 5144
媒介 5144
1998 5144
特有 5143
测量@@ 5142
慈@@ 5139
代表@@ 5138
放心 5137
城堡 5137
巴勒斯坦 5137
成品 5137
蜜@@ 5136
底下 5136
XML 5135
请问 5135
歌手 5135
北京市 5132
书面 5132
迟 5131
最优 5129
$ 5129
设计者 5127
实质性 5124
春节 5124
境@@ 5124
筋 5123
织物 5122
跌幅 5122
默认 5121
简洁 5120
要点 5120
表示@@ 5118
裙子 5118
覆盖@@ 5117
贷 5116
逆 5116
辛 5116
专利费 5114
旅@@ 5114
奖金 5114
痴@@ 5113
人脸识别 5113
反向 5112
武 5112
首位 5110
染色体 5108
温度@@ 5108
多名 5108
Android@@ 5107
贮@@ 5107
间隔 5106
35% 5106
辖@@ 5106
之路 5106
穷@@ 5105
扫 5104
休闲 5100
拦@@ 5099
处置 5099
灵感 5099
年均 5099
却@@ 5098
盆地 5097
Z 5097
平方米 5096
航空@@ 5095
十足 5095
搭档 5095
一门 5095
过热 5095
寒 5095
热爱 5094
深深 5094
布斯 5094
消化@@ 5093
捕获 5093
近年 5092
寡@@ 5092
今年以来 5091
日本@@ 5091
染 5091
变异 5090
第四季 5089
龄 5088
Win@@ 5088
群岛 5088
船长 5086
单片机 5086
外表 5086
绝大部分 5086
职业@@ 5086
悲@@ 5084
旺盛 5083
饥饿 5083
日系 5082
r 5081
博览会 5080
看电视 5080
念@@ 5080
经济效益 5079
商务部 5079
检查@@ 5077
有效@@ 5077
池@@ 5077
行情 5076
高潮 5076
MA@@ 5076
拼 5073
散步 5073
市场调研 5072
探测器 5071
全球@@ 5071
登录 5071
设在 5070
坡@@ 5070
人心 5070
手套 5069
血压 5067
ADI 5067
优先@@ 5066
嫉妒 5066
狭@@ 5065
生态@@ 5065
星期五 5064
不明 5063
中关村 5062
嘉宾 5062
火山 5062
亲密 5062
幸 5062
旧金山 5059
批量生产 5059
一新 5059
GB@@ 5058
re@@ 5058
dzsc 5058
生命周期 5056
终结 5055
充分发挥 5053
坚信 5053
爱好 5053
炎@@ 5052
楼梯 5051
施 5051
金融机构 5049
午饭 5048
困 5047
11% 5046
中国台湾 5046
醉@@ 5045
回避 5045
不可或缺 5045
浮 5043
阿拉@@ 5042
um@@ 5042
动荡 5042
释 5041
0.0@@ 5039
图形@@ 5038
登上 5034
动能 5033
收音机 5033
扇 5032
情景 5032
切入 5031
一般@@ 5030
主营业务 5030
必要性 5030
直线 5030
听听 5029
上校 5029
答复 5029
谎言 5029
踢@@ 5027
女生 5027
一幅 5026
陆 5025
弊 5025
简便 5023
挣@@ 5023
IGBT 5022
份@@ 5022
裁定 5021
电源@@ 5020
上床 5020
国民经济 5017
网格 5017
电台 5016
亟@@ 5015
低估 5015
悄@@ 5014
想像 5014
约定 5013
三十@@ 5013
券 5012
普拉斯 5011
寒冷 5010
穿越 5009
波兰 5008
13% 5008
就行了 5007
入股 5007
已知 5006
叹 5006
赏@@ 5005
铃 5004
显而易见 5003
经济衰退 5002
投影仪 5002
抽象 5001
遵@@ 5000
周日 5000
霸 5000
捕捉 5000
互补 4999
没见 4999
成千上万 4998
磁性 4998
蕴@@ 4997
掩盖 4996
HDR 4994
耀 4993
不着 4993
几点 4993
以免 4993
采样 4993
改性 4991
不时 4991
II 4990
齿@@ 4989
比率 4988
浴室 4988
ro@@ 4987
涛 4986
丝毫 4984
丛 4984
检索 4983
塞尔 4981
优 4980
在此之前 4978
县@@ 4977
承载 4974
淀粉 4974
背叛 4973
眼光 4973
小巧 4973
奶 4972
岛@@ 4971
景象 4970
必不可少 4970
大学@@ 4969
泄 4969
善于 4969
弦 4967
民族@@ 4966
用户界面 4965
赞同 4964
忧虑 4964
原子@@ 4964
导向 4963
苷 4963
MIPS 4963
主管部门 4962
鸿 4962
突变 4961
医师 4961
化工 4961
鼓舞 4961
妇@@ 4960
妹 4960
阶层 4959
外观设计 4958
发热 4957
伪 4957
弗兰克 4957
糊@@ 4956
书记 4956
摩托车 4956
伍 4955
正向 4954
薪水 4954
st@@ 4949
轻微 4949
瘦@@ 4948
疫 4947
地域 4947
女孩子 4947
不妨 4946
溶剂 4946
草地 4946
发现自己 4945
液晶显示 4945
完毕 4945
智力 4944
外国人 4944
切断 4943
换句话说 4942
iPad@@ 4941
论证 4940
传导 4939
箱@@ 4938
ter@@ 4937
增添 4936
PP@@ 4935
肩 4935
一事 4935
违法 4934
适配器 4933
猪@@ 4933
走路 4933
时会 4932
恐怖主义 4932
Apple@@ 4932
脏@@ 4931
周六 4930
弃@@ 4929
震撼 4929
娶 4928
家电企业 4928
奖项 4927
头痛 4927
衰 4925
开来 4925
入手 4924
成年 4923
重构 4923
震动 4922
魏@@ 4922
考核 4921
稳定@@ 4921
燕@@ 4920
民主党 4919
垫@@ 4919
iPhone8 4918
加载 4917
山东 4917
示例 4916
网络安全 4916
视频@@ 4916
逃避 4915
召回 4913
大道 4913
业主 4913
激 4912
布线 4912
黑客 4911
市场前景 4910
现今 4910
张忠谋 4909
一辈子 4909
整体@@ 4908
读书 4907
软件开发 4907
废水 4907
解剖 4906
秘书处 4906
菲律宾 4906
用性 4905
仑 4905
忙@@ 4905
特朗普 4903
英国人 4903
镍 4902
福建 4901
赛事 4901
吴 4900
骑士 4898
直觉 4896
行事 4895
失误 4894
互连 4894
8000 4893
海量 4893
针对性 4892
手续 4891
语义 4890
ti@@ 4889
资本主义 4889
功能性 4888
消 4888
尝 4887
Research 4885
专家@@ 4885
东南亚 4885
求解 4883
风景 4883
盲目 4882
丑闻 4881
放映 4879
医药 4878
视图 4877
华虹 4875
总体@@ 4874
轴承 4872
预报 4872
车企 4872
iPhone4 4871
抽 4870
栖@@ 4870
专利申请 4868
特别@@ 4867
烯@@ 4867
续 4867
被捕 4867
官司 4865
键@@ 4865
古怪 4864
站点 4864
雅虎 4863
不断扩大 4863
火热 4862
卡特 4861
成本@@ 4861
搜查 4861
箭@@ 4861
静电 4860
角落 4859
解放 4859
格力电器 4859
开发区 4859
88@@ 4858
炭 4858
白光 4858
小伙子 4857
致使 4857
疗 4856
高血压 4855
尔顿 4855
你家 4855
狮子 4854
履@@ 4854
阻力 4851
地毯 4851
胚胎 4848
行人 4848
老年 4848
供不应求 4847
下方 4846
ar 4846
辩护 4845
数以@@ 4844
磨损 4844
一分钟 4843
陌生 4843
营业额 4842
振兴 4842
NE@@ 4841
学位 4841
祝贺 4840
韩国@@ 4840
分数 4839
萌@@ 4838
多大 4837
六个月 4836
手下 4835
君 4834
日至 4832
同等 4832
】 4831
奴隶 4831
胳膊 4830
詹@@ 4830
低廉 4829
忧 4828
辨@@ 4828
小时候 4828
显微镜 4828
蔓延 4826
列为 4826
小女孩 4825
较强 4825
这片 4825
室外 4824
不良@@ 4824
不可思议 4822
字符 4822
火爆 4822
短短 4822
减排 4817
颁布 4816
抬@@ 4815
技 4815
我该 4814
车站 4813
耗 4812
肚子 4812
伦理 4811
唑 4811
政府部门 4810
装修 4809
深处 4808
替@@ 4808
一副 4808
资本@@ 4808
知名 4807
197@@ 4806
洁@@ 4805
开采 4804
奋斗 4803
开出 4802
任正非 4802
美妙 4801
婆 4800
粗 4800
骗子 4800
一口 4800
扔@@ 4799
中方 4799
分之一 4798
78 4798
跟进 4797
染@@ 4797
共同@@ 4796
竖@@ 4794
一刻 4793
看重 4792
57 4791
涉 4791
对照 4789
考量 4788
参议员 4788
开辟 4788
36@@ 4788
塌 4788
人性 4788
盟@@ 4786
清晰度 4786
600@@ 4785
上线 4785
侵蚀 4785
包围 4783
辉@@ 4783
LM@@ 4782
准确性 4780
豹 4780
描绘 4777
HDMI 4777
适宜 4776
活性@@ 4776
生长@@ 4776
导演 4775
热烈 4775
不已 4775
银隆 4773
最高@@ 4773
未知 4773
院士 4772
屏蔽 4771
14% 4768
路由 4768
落户 4768
球迷 4767
唱片 4767
推理 4766
用水 4766
脚本 4765
沉浸 4763
流入 4763
类产品 4763
通货膨胀 4762
逐年 4761
辣 4761
促成 4760
篇文章 4760
澄清 4760
尸@@ 4759
植 4758
极高 4757
64@@ 4757
饮 4755
别忘了 4755
平常 4754
缴@@ 4753
葡萄 4751
嘘 4751
赌@@ 4751
吸血鬼 4750
巨人 4749
拨 4749
狂热 4749
1997 4748
所作 4746
生动 4745
安森美 4743
不必要 4742
96 4742
炬 4741
FF 4741
排队 4741
界定 4741
街头 4741
预料 4740
霸主 4740
1990 4740
商务@@ 4739
艺@@ 4739
炒 4739
人格 4738
恒 4738
跟上 4734
Li@@ 4734
动手 4733
豪华 4732
数额 4732
虚假 4732
Wi@@ 4730
76 4730
生育 4730
护照 4729
鼻 4728
饰@@ 4728
筹 4727
夜间 4727
犹豫 4727
愈 4724
踩 4724
上调 4722
无比 4722
出手 4720
刚好 4720
起点 4717
感冒 4716
疯子 4715
宗@@ 4715
业务@@ 4715
帆@@ 4714
果实 4713
清华大学 4713
罢工 4712
言语 4712
污染物 4711
机床 4710
莎@@ 4709
肝脏 4708
射击 4708
AV@@ 4708
明显@@ 4708
即时 4707
秋 4707
好玩 4707
or 4707
施加 4706
电荷 4706
紧凑 4705
下属 4705
恐慌 4704
火焰 4704
高等教育 4703
魔 4702
进一步提高 4701
大事 4700
撑@@ 4700
保险公司 4700
添@@ 4698
测器 4698
智能型 4697
第一代 4696
贸 4693
芝@@ 4693
汇报 4692
主打 4692
利比亚 4692
这台 4692
位移 4690
怪物 4689
非凡 4689
秀@@ 4688
乘用车 4688
成形 4687
评选 4687
美学 4686
屋里 4685
1992 4684
市中心 4684
频频 4684
妥 4683
宣言 4679
演化 4679
信号处理 4679
排行榜 4678
MI@@ 4678
雇 4678
如图 4677
飞行员 4676
上课 4675
开创 4675
群创 4674
以为@@ 4673
【 4673
所能 4670
船只 4669
巨大@@ 4668
110 4667
鹏 4667
尤为 4666
玩笑 4666
执法 4664
GP@@ 4664
点燃 4663
椎 4662
奉 4661
偏见 4661
三菱 4660
第三代 4659
老化 4658
实用@@ 4657
势必 4656
好几个 4655
辽@@ 4655
浆@@ 4654
青春 4653
忽@@ 4653
手动 4652
西部数据 4651
麻醉 4651
不来 4650
趣@@ 4650
蔽 4649
司法@@ 4647
矿物 4645
PLC 4644
愚@@ 4644
130 4643
录播 4643
战术 4642
二季度 4642
17% 4641
停产 4640
第一位 4639
威盛 4639
美联储 4638
ec@@ 4637
拓扑 4636
以期 4635
高级@@ 4635
普遍认为 4634
回落 4634
v 4634
己@@ 4633
穷 4633
踪@@ 4633
六年 4632
会员国 4632
挪@@ 4631
逢 4630
取出 4630
必然@@ 4628
el 4628
出行 4628
国际贸易 4627
73 4627
th@@ 4627
尸 4625
主导@@ 4624
税率 4623
劳工 4620
母公司 4619
始 4617
出门 4617
美高 4616
第一批 4616
一月 4615
录音 4613
束缚 4612
衷 4612
矮@@ 4612
贬值 4611
畸形 4611
厌恶 4610
数码@@ 4610
饼干 4610
申请人 4609
精细 4609
明基 4609
万亿韩元 4606
港元 4606
分析仪 4606
高亮度 4606
牌@@ 4604
狄@@ 4604
抚@@ 4603
惊 4601
猛 4601
秋季 4598
实际@@ 4597
晚间 4594
争端 4593
宝石 4592
洒 4592
小幅 4591
听众 4590
百姓 4590
的是 4589
陈 4589
检察官 4588
迁 4587
# 4587
色素 4587
放进 4586
拒@@ 4586
LTC@@ 4586
大中华区 4586
绘制 4585
可视化 4584
威尔@@ 4584
偿还 4584
平行 4583
虽@@ 4582
整整 4581
胖 4580
翅膀 4580
好吃 4579
誉 4577
获胜 4576
市区 4575
该款 4575
焊 4574
范 4573
迫切 4573
好象 4573
柴@@ 4573
事务所 4572
情报@@ 4572
冬 4570
18% 4569
受害人 4568
愧 4568
第一家 4567
出路 4567
秉@@ 4566
反抗 4566
想过 4566
16% 4563
总共 4563
忌 4562
7nm 4562
突 4562
胚@@ 4561
屡@@ 4560
镓 4560
卖掉 4558
分工 4558
夸张 4558
仆人 4557
奥地利 4556
月亮 4556
宠@@ 4555
马达 4554
能为 4553
干部 4553
as 4552
违背 4550
创造性 4549
套房 4548
查找 4547
太高 4546
排序 4546
真菌 4544
得分 4543
ke@@ 4542
分发 4542
创伤 4541
现金流 4541
位列 4541
IHS 4541
单击 4539
封锁 4539
娱乐@@ 4538
万平方米 4538
安置 4537
蓄电池 4537
魔鬼 4537
1.8 4536
ON 4536
500@@ 4535
候 4535
接收器 4532
工商@@ 4531
花钱 4531
专利技术 4530
外围 4530
握@@ 4529
八个 4528
展台 4528
冻结 4527
API 4527
浇@@ 4526
车道 4524
会面 4523
百强 4523
ICInsights 4522
吉姆 4521
鲜明 4520
嘴@@ 4520
苍@@ 4518
实践@@ 4518
束@@ 4518
恶魔 4517
平安 4517
分析方法 4517
祝 4516
大使 4516
岸@@ 4515
Mar@@ 4514
丸 4513
记忆体 4511
不论是 4510
占有率 4510
投放 4509
丧@@ 4509
放入 4508
多余 4508
缸 4507
在外 4506
意味 4506
所有权 4504
捐赠 4504
者@@ 4504
92 4503
机密 4503
iPhone7 4503
德里 4502
技术开发 4501
最强 4500
奴@@ 4499
此刻 4498
毕@@ 4498
享 4498
裂缝 4498
书写 4498
预防@@ 4497
ent@@ 4496
售出 4496
拥挤 4495
聊@@ 4495
话语 4495
最少 4494
石油@@ 4493
窥@@ 4491
介 4489
争吵 4489
稳健 4487
制服 4486
蔡@@ 4485
悟 4485
三网 4485
访@@ 4483
第二代 4481
7000 4480
以内 4480
中午 4479
SE 4478
TFT 4478
航行 4478
拆解 4477
患有 4476
son 4476
取得成功 4475
俯@@ 4474
传来 4473
会见 4473
介意 4472
黛@@ 4471
负面影响 4467
志愿者 4467
旅游@@ 4465
芬兰 4465
不太可能 4465
真诚 4464
文学@@ 4464
收发器 4463
行使 4463
77 4462
外套 4462
晚些时候 4462
首尔 4462
驾驶@@ 4461
灰尘 4461
400@@ 4461
不景气 4461
利用@@ 4461
危 4460
礼拜 4459
火星 4459
视力 4459
灾害 4459
穷人 4458
漫 4458
滞 4457
可视 4456
窃 4456
巧妙 4456
颁发 4455
慈善 4454
综合@@ 4453
接地 4453
烂@@ 4453
液压 4453
决赛 4452
政治家 4452
颅@@ 4451
崩@@ 4451
按摩 4451
身后 4450
x86 4450
詹姆斯 4449
弟 4449
垒 4448
稳压器 4447
呼叫 4446
手工 4446
这才 4445
遍布 4445
救济 4443
晨@@ 4442
杨元庆 4441
在我看来 4440
思想@@ 4439
存活 4438
材@@ 4438
川@@ 4437
Apple 4437
od@@ 4436
未必 4435
TE 4433
加深 4432
涌现 4431
晕@@ 4431
规矩 4429
大城市 4429
一整天 4429
变性 4428
滩 4427
陪@@ 4427
淘@@ 4426
鑫 4426
恰恰 4425
与众不同 4425
涂层 4424
使人 4424
数据传输 4423
搜寻 4423
台式机 4422
十字@@ 4422
理智 4422
绑 4422
宣告 4421
照射 4421
剧烈 4420
创办 4420
输送 4419
好运 4419
叠@@ 4419
宋@@ 4419
它@@ 4418
穴 4418
数据处理 4418
一看 4416
og@@ 4416
钾 4415
珍贵 4415
壶 4415
孙 4413
瞬@@ 4413
下行 4412
贵族 4412
血糖 4411
蚀 4410
何 4410
动画 4409
鸣@@ 4408
报酬 4408
保守@@ 4408
软骨 4408
市场营销 4407
非常适合 4407
临近 4407
结晶 4407
青岛 4406
待机 4406
政客 4406
力争 4403
路线图 4403
独有 4402
95% 4402
放开 4401
每秒 4401
75% 4401
表态 4400
插座 4399
途@@ 4399
挨@@ 4397
91 4396
惊奇 4396
角度看 4395
TC 4395
单芯片 4394
飙升 4394
蒸发 4394
衫 4394
解决办法 4392
.. 4392
享用 4392
MX@@ 4391
短期 4391
顺便 4390
芳@@ 4390
密切相关 4389
子系统 4389
中是 4388
银行业 4388
而生 4388
句子 4387
图书 4386
公斤 4386
难以置信 4385
身份证 4384
格兰@@ 4384
反思 4384
星星 4384
82 4383
不通 4382
卢 4382
高精度 4380
恐怖分子 4380
炸 4379
通路 4378
梯 4378
时间@@ 4378
烘@@ 4377
Nvidia 4377
述@@ 4376
21@@ 4373
解放@@ 4373
坐标 4373
兔子 4372
近两年 4371
连锁 4370
盈@@ 4370
恶性@@ 4370
行列 4369
达成协议 4369
毫不 4368
山区 4368
南省 4367
爷爷 4367
声誉 4367
富裕 4365
览 4365
视线 4364
怨@@ 4363
凑@@ 4362
之初 4362
牲@@ 4362
预警 4361
勃@@ 4360
废弃 4360
军人 4360
填充 4359
切除术 4358
刘海 4358
段@@ 4358
红利 4357
核武器 4357
激进 4356
交货 4356
LE@@ 4355
恋爱 4354
法则 4353
概括 4353
营业@@ 4352
拉克 4351
货币政策 4351
挫 4350
说起 4349
螺旋 4348
偏差 4347
34@@ 4346
一共 4346
CP@@ 4345
抵制 4345
年末 4343
跃 4343
辨识 4342
舆论 4342
笨蛋 4342
尺度 4341
CN@@ 4341
小孩子 4340
烟草 4338
精灵 4338
调查@@ 4337
人性化 4337
惯例 4336
im@@ 4336
大海 4335
西亚 4334
大豆 4334
受惠 4334
另一家 4333
中小企业 4332
大宗 4332
71 4331
会长 4331
已达 4331
颁@@ 4330
发射@@ 4330
囚犯 4330
剥夺 4330
ER@@ 4328
四种 4328
摆在 4327
CD@@ 4327
选购 4326
回头 4326
榜 4326
柔软 4326
之争 4325
SD 4323
弱点 4323
桑 4323
手机@@ 4321
抵消 4321
交流@@ 4320
公共汽车 4319
迄今 4319
价钱 4319
爸@@ 4319
挡@@ 4318
步行 4317
秋天 4317
坊 4316
敲 4316
篮球 4315
全市 4312
et@@ 4312
Qu@@ 4311
摊 4308
亿美金 4308
鞭@@ 4307
特许 4305
有事 4305
振荡器 4305
宴会 4305
固有 4304
佩戴 4303
葛@@ 4303
EUV 4303
喀@@ 4302
概念@@ 4302
屁 4302
无奈 4301
遍@@ 4299
不同@@ 4299
髓 4299
威廉 4298
丰厚 4298
两类 4298
货车 4298
栓 4297
防范 4297
猴子 4297
爵士 4297
水稻 4297
边境 4296
胀 4294
毁@@ 4293
180 4293
ab@@ 4292
新西兰 4292
不难 4291
万名 4290
据统计 4290
一带 4289
原油 4289
天马 4287
消费品 4287
竟 4286
停滞 4285
监视器 4284
一般来说 4284
有名 4281
治愈 4281
不远 4281
莫斯科 4280
死刑 4279
肥胖 4279
法语 4279
姓 4279
源自 4278
和平@@ 4278
旭@@ 4277
葬礼 4277
塘 4277
充当 4277
晚会 4277
古巴 4276
军方 4275
OFweek 4275
总计 4274
综合性 4273
导航系统 4272
同质化 4272
运送 4272
木材 4270
身体@@ 4268
享@@ 4268
科视 4267
主办 4266
今年年底 4265
过时 4264
厌倦 4264
支柱 4263
一艘 4262
做爱 4262
蒸汽 4262
肩膀 4261
功率@@ 4261
ur@@ 4261
诚信 4261
精致 4260
七个 4259
意料 4259
录制 4259
牛肉 4258
脑子 4258
污水 4257
嵌 4257
姿势 4256
拉斯维加斯 4255
一行 4254
兼并 4253
通讯@@ 4252
稳步 4252
很漂亮 4252
跨 4251
明确@@ 4251
泊@@ 4250
呼 4250
植物@@ 4250
染色 4250
留言 4250
墙壁 4250
口号 4249
轻轻 4249
iOS@@ 4248
有何 4248
切实 4247
结构调整 4246
货币@@ 4244
拿来 4244
容纳 4243
做个 4242
用电 4242
辩 4242
良性 4241
数据分析 4240
家乡 4237
专员 4237
中华@@ 4237
到期 4237
判定 4236
油价 4236
线上 4236
经济危机 4236
不便 4236
MAX@@ 4236
外出 4236
关切 4235
PWM 4235
难点 4234
荡@@ 4234
写入 4233
St@@ 4233
一下子 4232
界限 4232
ia@@ 4231
化石 4231
迅@@ 4230
买下 4230
源代码 4229
袖@@ 4229
充 4229
冥@@ 4228
天天 4228
星期一 4228
句@@ 4228
电气@@ 4227
可控 4227
泄@@ 4226
糊 4226
衰减 4225
维斯 4224
提问 4224
诡@@ 4223
壮 4223
视讯 4223
iPhoneX@@ 4222
腹 4222
研究生 4222
络 4220
缺损 4219
公务员 4218
用量 4218
感动 4218
苛刻 4217
咪 4216
IDM 4215
探究 4215
境外 4215
卖点 4215
下雨 4214
色域 4213
遥控 4213
配方 4213
定律 4211
820 4210
梳理 4210
劝 4210
维度 4209
警报 4209
舰@@ 4209
变化@@ 4208
挽救 4208
动摇 4207
跨国 4206
着力 4205
升级@@ 4205
情节 4205
头盔 4204
算了 4204
伯格 4204
引爆 4200
斥 4200
苹果@@ 4199
专业化 4199
高等@@ 4198
突破性 4198
转而 4198
适度 4197
巢 4196
稳固 4196
隐瞒 4195
扰 4194
天花板 4194
短板 4194
孕 4194
两只 4194
紧紧 4193
索引 4193
竹 4193
打扮 4193
不定 4193
毛病 4192
欧司朗 4192
合法@@ 4191
耍 4191
滞后 4190
通往 4190
琴@@ 4190
逆转 4190
ot@@ 4189
栏@@ 4189
祭@@ 4187
文件夹 4187
负债 4186
第三方 4185
SE@@ 4184
祖国 4184
救助 4183
尔德 4182
利斯 4182
洲@@ 4182
旅程 4181
里程 4180
军官 4180
超级计算机 4179
向下 4179
榜单 4178
事务@@ 4177
一身 4177
电平 4176
棍 4176
这名 4175
眼里 4174
二级 4174
干掉 4173
彩虹 4173
嘉 4173
烷 4171
迈出 4171
端的 4171
写道 4169
评审 4169
赢家 4169
先机 4168
岛上 4168
风口 4168
纵向 4167
创新@@ 4167
打断 4165
面上 4165
休 4164
绳子 4164
小男孩 4164
观察@@ 4163
殖@@ 4163
IS 4162
赐@@ 4161
发电机 4161
华丽 4160
喂@@ 4160
斜 4159
创造力 4158
制造@@ 4157
2500 4157
打个 4157
选取 4156
卑@@ 4155
温柔 4155
奶酪 4154
叙利亚 4154
马拉@@ 4153
标的 4153
新浪 4153
环球 4152
七年 4152
加盟 4151
创业者 4151
上扬 4151
LSI 4151
推向 4151
借此 4149
工作效率 4149
长远 4149
瘦 4149
有线电视 4149
游泳池 4148
沈@@ 4148
台阶 4146
化物 4145
87 4143
假定 4143
分子@@ 4142
胎儿 4142
琼斯 4140
敦促 4140
单体 4140
塑料@@ 4139
抖动 4139
降幅 4139
22.@@ 4138
自定义 4138
洽谈 4137
台上 4137
康宁 4137
横 4136
雇用 4136
关键因素 4135
髓@@ 4135
宝马 4134
虚拟化 4134
快要 4132
搞砸 4132
前方 4132
岗 4130
大选 4130
用力 4130
海底 4130
苏 4129
媒 4129
三明治 4129
固定@@ 4129
画家 4125
这辆 4125
备忘录 4125
ap@@ 4125
实用性 4125
契约 4124
劣@@ 4123
祖先 4123
起源 4120
盛大 4120
器材 4119
坦 4117
最先 4117
愿景 4116
赞扬 4116
不容@@ 4115
附属 4114
日圆 4113
选定 4113
09 4112
警惕 4112
女友 4111
ay@@ 4109
硬币 4109
情人 4109
En@@ 4108
发布公告 4107
帆 4105
猩猩 4105
鹅 4105
佩 4105
叹@@ 4104
电子邮件 4104
罗伯特 4103
过得 4101
重塑 4100
乘坐 4100
弟@@ 4100
医疗器械 4099
德尔 4099
逗@@ 4097
惠 4097
叶子 4097
生存@@ 4096
非常高兴 4096
批判 4095
娘 4095
投标 4095
珠宝 4094
番@@ 4094
控件 4094
颇为 4093
转换成 4092
郁@@ 4091
刑事@@ 4091
计划@@ 4091
尾巴 4091
一首 4090
更能 4090
网络设备 4089
盘子 4089
罗斯@@ 4089
闪烁 4089
每位 4087
凯特 4087
地球@@ 4086
太过 4086
填 4086
赎@@ 4086
难得 4086
肤@@ 4084
亭 4084
了不起 4083
碟 4082
遥@@ 4082
运输@@ 4082
桂@@ 4082
骚扰 4080
雷士 4080
硕@@ 4080
记录@@ 4080
收藏 4079
阶级 4079
坚固 4077
拉开 4077
每人 4077
跑步 4076
痒 4076
破碎 4075
掠@@ 4075
艾滋病 4073
飞速发展 4073
龟 4073
机电 4072
增量 4072
亦@@ 4072
共计 4072
投资额 4071
ag@@ 4070
TO@@ 4070
循@@ 4069
煎@@ 4069
59 4069
抗生素 4068
征服 4067
远处 4067
幼儿 4067
晃 4066
精子 4066
烃 4065
中小学 4065
慷慨 4065
小区 4065
咨询@@ 4063
DS 4063
誓 4063
适应性 4062
受到@@ 4061
上将 4061
电线 4061
锋@@ 4060
金色 4060
男女 4059
漆@@ 4059
与否 4058
长城 4058
缔@@ 4058
74 4056
多谢 4056
主动@@ 4056
一丝 4055
Lin@@ 4054
大地 4054
串行 4054
泉@@ 4054
f 4053
风扇 4053
起初 4052
缀 4052
关系@@ 4051
局限 4051
比亚 4050
谐波 4048
咯 4048
中将 4048
天文@@ 4047
97 4047
84 4046
吵 4046
锥@@ 4046
深受 4046
剧本 4045
净亏损 4045
楼上 4044
商会 4044
MO@@ 4044
恐怖@@ 4043
官网 4043
不仅如此 4042
疾@@ 4042
尔特 4042
鉴@@ 4040
橙@@ 4040
不多 4040
23.@@ 4039
喧@@ 4039
成因 4038
地产 4038
内部@@ 4038
第三次 4038
合资企业 4038
总局 4038
业务部门 4037
干活 4036
众人 4036
叠加 4036
服从 4035
残忍 4035
蝇 4035
恒星 4034
影子 4034
三维 4033
钻 4032
上海市 4032
娘@@ 4031
音乐会 4031
野生 4030
迈进 4030
单身 4030
选出 4030
老虎 4029
一点儿 4028
集聚 4028
赶快 4028
不合理 4027
支助 4027
年增长率 4026
大增 4026
描@@ 4026
激增 4026
衬底 4025
星期六 4025
迫 4025
馆@@ 4024
坏事 4023
过敏 4023
94 4022
新区 4022
软银 4022
3.0 4021
棘手 4021
单车 4020
欺诈 4020
旭 4020
DR@@ 4020
善良 4018
路面 4018
太久 4017
西藏 4016
廷 4015
出任 4015
辱 4015
人选 4014
措 4014
促@@ 4014
破解 4013
胆 4013
马车 4013
多位 4011
舌 4011
腔@@ 4011
搏@@ 4011
饱@@ 4011
人民法院 4010
野心 4010
艰@@ 4009
推翻 4009
反射@@ 4009
实证 4009
懒@@ 4008
果汁 4007
恶性 4007
咽@@ 4006
家用电器 4005
左边 4005
珠三角 4005
BC 4004
爷 4004
疯@@ 4004
皇 4003
杨 4003
新娘 4002
赋@@ 4002
纲 4002
缴纳 4001
控制权 4001
机组 4000
队@@ 4000
京 3999
走开 3999
24.@@ 3998
募集 3998
一枚 3997
新疆 3997
大自然 3996
皇帝 3995
大大提高 3994
蕾@@ 3994
ac@@ 3993
传动 3993
AppleWatch 3993
会为 3992
修建 3992
消毒 3992
搜索引擎 3992
查理 3992
谈过 3991
眼泪 3991
中科院 3991
尖叫 3991
宿 3990
时常 3990
之道 3988
不堪 3988
81 3988
推广应用 3988
强壮 3988
摩根 3987
铃@@ 3987
空间@@ 3987
辛苦 3986
加之 3984
大片 3983
决定性 3983
堵@@ 3983
危险@@ 3983
胡子 3983
逛 3983
防水 3981
不大 3981
动物园 3981
复合材料 3981
说来 3980
想念 3980
努力@@ 3980
心率 3979
拘留 3978
签证 3978
苏丹 3978
日后 3978
Gbps 3978
扼@@ 3977
可折叠 3976
右边 3975
Note7 3975
联赛 3974
短路 3974
一时间 3973
中心@@ 3973
丽讯 3973
宏观 3971
反对@@ 3971
地层 3971
高涨 3970
波士顿 3968
人事 3966
衍生 3966
Ex@@ 3965
商城 3965
赢@@ 3964
分拆 3964
坚实 3963
称赞 3963
亿个 3963
先锋 3961
知名度 3960
亨@@ 3960
关掉 3959
好极了 3959
斯科@@ 3958
放射@@ 3958
储 3958
可笑 3958
di@@ 3957
禽@@ 3957
us 3956
蜂 3955
绝不会 3955
历经 3954
密钥 3954
兄 3953
获益 3953
咱 3953
四川@@ 3953
构 3952
有所不同 3952
徽@@ 3952
了吧 3952
俄国 3952
羽@@ 3951
另有 3951
1.0@@ 3951
览@@ 3949
濒@@ 3948
认出 3948
IA 3947
LC 3947
回路 3946
会场 3945
排斥 3945
HTC@@ 3945
灭绝 3944
敦@@ 3944
悲观 3943
有史以来 3943
畜 3942
资金@@ 3942
追逐 3941
钉@@ 3941
不适 3941
堡@@ 3941
IR 3940
核准 3940
晶硅 3939
Smart@@ 3938
出发@@ 3938
交换机 3937
通用@@ 3937
推导 3937
主教 3937
唤 3936
泪 3936
钛 3935
缩水 3935
导管 3934
无情 3934
雄厚 3933
160 3933
拉德 3933
菲尔德 3933
Mbps 3932
裁 3932
特征@@ 3932
内需 3932
宗教@@ 3931
专利权 3929
克里斯 3929
2.4 3928
伸出 3927
表征 3926
名声 3926
晃@@ 3925
时报 3925
挪威 3924
传奇 3923
干得 3923
强力 3923
导线 3922
离散 3922
唐 3922
op@@ 3921
93 3921
三安 3921
实习 3921
不锈钢 3921
邮票 3920
殿 3920
身为 3920
野蛮 3920
隶@@ 3920
总有 3919
膝盖 3919
援@@ 3918
并用 3918
网络化 3918
55@@ 3917
ED@@ 3917
起飞 3917
须@@ 3916
绒@@ 3916
有罪 3915
25.@@ 3915
手腕 3915
萧条 3914
华强北 3914
接触@@ 3914
做点 3914
饥@@ 3914
雀 3914
前任 3914
台北 3913
赠@@ 3912
乐器 3912
流传 3912
1.3 3911
酿@@ 3911
万亿元 3910
陷阱 3910
庙 3909
少数民族 3908
科技部 3908
所属 3908
篮 3906
间隙 3906
尚德 3905
监督@@ 3905
但愿 3905
氧气 3905
饲料 3904
银行家 3904
好评 3903
人才培养 3902
高度重视 3901
不应 3901
中药 3900
温室 3899
恼@@ 3899
SP 3899
栅@@ 3898
挑 3897
EP@@ 3897
赞赏 3896
罗马@@ 3896
混合@@ 3896
磁盘 3895
规模@@ 3895
产业基地 3895
加速器 3894
佣@@ 3894
妻 3892
包装@@ 3892
忠实 3892
信息产业部 3892
正要 3892
掏@@ 3892
垂 3891
LED@@ 3891
诊所 3890
抽烟 3890
记忆@@ 3888
身影 3887
逼近 3887
信托 3887
春季 3886
图像处理 3885
Altera 3885
索赔 3885
对华 3885
光片 3885
生态环境 3884
幢 3884
中华人民共和国 3884
man 3884
气管 3884
利亚@@ 3884
胶囊 3883
喷 3883
赞助 3883
细化 3881
全国@@ 3881
编号 3880
挠 3880
说实话 3879
络@@ 3878
精心 3878
指挥官 3878
沿海 3878
涂料 3877
轮廓 3877
援 3877
MS@@ 3876
泰克 3876
残留 3876
津 3876
更糟 3875
法定 3875
角膜 3875
纳米@@ 3874
惯@@ 3873
局限性 3873
潮湿 3872
模特 3872
僵@@ 3872
one@@ 3871
多地 3871
人民政府 3871
拓 3871
AS 3870
ing@@ 3870
热闹 3870
脊髓 3869
鲸 3868
逃离 3868
卡片 3868
区间 3868
衰竭 3868
存放 3867
两点 3867
国人 3866
比喻 3865
应变 3864
悉@@ 3863
第一天 3862
储蓄 3862
款项 3862
大力支持 3861
结构性 3861
数月 3861
职工 3860
嗓@@ 3860
孤立 3860
棚 3859
腐 3859
打赌 3858
鼠@@ 3858
勃勃 3858
劣势 3857
俊 3857
ig@@ 3856
咽 3856
亩 3856
三洋 3855
藉 3855
固件 3855
半导体技术 3853
曹@@ 3852
名人 3852
26.@@ 3851
服务提供商 3851
溶解 3851
协 3850
嘴里 3849
斥资 3848
引人注目 3846
鱼类 3846
叉 3845
招呼 3845
鸟类 3845
眼神 3845
电表 3845
闯@@ 3845
标配 3844
第七@@ 3844
泪@@ 3843
后台 3843
33@@ 3843
博弈 3842
年报 3840
起床 3840
NB 3838
口味 3838
史上 3836
阻挡 3836
急需 3836
产权 3836
假日 3835
丹麦 3834
腹部 3834
起码 3834
骨骼 3834
随机@@ 3833
喜悦 3833
微妙 3831
我妈 3830
已于 3830
从小 3829
联合国@@ 3828
耗电量 3828
八年 3827
氟 3827
陆地 3826
消费性 3826
胸部 3825
余承东 3825
我方 3824
血症 3823
溶 3823
夫妻 3822
水下 3822
让步 3821
蓝图 3819
斯基 3819
玉 3819
贺@@ 3818
入住 3818
侠 3818
档@@ 3816
总收入 3815
场面 3812
裁判 3812
家园 3811
路口 3811
涌入 3811
领军 3811
MOCVD 3810
发货 3809
援引 3809
明朗 3808
道德@@ 3808
海盗 3807
生涯 3807
纳斯达克 3807
糖果 3806
蒙古 3806
本能 3806
剖@@ 3805
Java 3804
胖@@ 3804
凝 3804
造就 3803
相差 3803
下巴 3803
专业人士 3803
nm@@ 3802
积极性 3802
邀 3802
敏捷 3800
敢@@ 3799
845 3798
克尔 3796
变迁 3796
你别 3796
阴谋 3796
医疗保健 3796
境地 3796
浑@@ 3795
电位 3794
IPTV 3794
碑 3793
客气 3793
心肌@@ 3793
童年 3793
妓女 3792
优越 3792
芳 3792
初级 3792
男友 3792
硕 3791
注册@@ 3791
身处 3790
钙@@ 3790
美女 3789
绝缘@@ 3789
太快 3788
愤@@ 3787
不禁 3787
口气 3787
表达式 3786
畏@@ 3786
碱@@ 3786
存货 3786
阐明 3786
变频 3785
填写 3785
阿根廷 3785
大气@@ 3784
LO@@ 3784
赶到 3783
克拉克 3781
街区 3781
终端设备 3780
详情 3778
邻 3778
光灯 3778
渴 3776
四分之一 3776
期内 3775
地形 3775
图标 3775
全套 3773
评定 3772
计算方法 3771
凝胶 3769
祷告 3769
输出功率 3768
失真 3767
渡 3767
建构 3767
倾听 3766
接管 3765
利息 3765
婊子 3764
不怕 3763
甩 3763
债权人 3763
执 3762
一环 3762
45% 3762
摘 3761
鸭@@ 3761
加重 3760
350 3760
滨@@ 3760
开发工具 3760
反击 3760
身材 3759
情愿 3758
年产 3758
有限元 3757
拖延 3756
可为 3756
妄@@ 3756
泰勒 3755
偏离 3755
在技术上 3755
开放@@ 3755
绳@@ 3754
想象力 3754
学术@@ 3753
CD 3753
电影院 3753
兼顾 3752
当选 3751
畜@@ 3751
风险投资 3751
一切都是 3749
沙滩 3749
注视 3749
滑雪 3749
车祸 3749
遣@@ 3749
控制技术 3748
怎@@ 3748
现实@@ 3748
哈利 3748
等候 3748
齐全 3748
79 3747
点钟 3747
荒 3747
会计@@ 3746
醚 3746
电话号码 3746
宽松 3746
MS 3743
前不久 3743
氯 3743
采取措施 3743
截 3742
来得 3741
电容式 3740
讯息 3739
受不了 3739
升温 3738
筋@@ 3738
人均 3737
意向 3737
就是说 3736
尊严 3735
主观 3734
聘 3734
83 3734
回购 3734
尊 3733
蜜蜂 3732
凋亡 3732
网球 3731
购买@@ 3731
十个 3731
拢 3731
系统集成 3731
独一无二 3730
EV@@ 3730
10nm 3730
化疗 3730
神父 3730
it 3730
起草 3729
毛利 3728
高盛 3728
开通 3728
电场 3728
物理学 3728
公平@@ 3727
蜡烛 3727
丛@@ 3727
气息 3727
朵 3726
制动 3726
GSM 3726
准入 3725
爆料 3725
台式 3725
加速度 3725
产业结构 3723
筹备 3722
接待 3722
副本 3722
疑虑 3722
坦言 3721
星期天 3720
消极 3720
也好 3719
抑郁 3719
斯州 3719
谋求 3718
统一@@ 3718
少年 3718
已然 3718
拉里 3716
中称 3715
设计方案 3715
朋@@ 3715
面世 3715
盾 3714
降落 3714
两侧 3713
启发 3713
屠杀 3713
耶路撒冷 3713
计算能力 3713
3.3 3713
几位 3713
碳酸@@ 3712
一小 3712
昌@@ 3712
华尔街日报 3711
勉强 3710
长达 3710
执照 3708
用车 3708
手感 3707
充斥 3707
渲染 3706
宏碁 3706
39@@ 3706
逊@@ 3706
泌@@ 3706
深厚 3705
宾馆 3705
音量 3705
0.5 3705
一九@@ 3705
舌@@ 3704
安妮 3704
服务员 3703
闻名 3703
JDI 3703
染料 3702
水管 3702
核心@@ 3701
马斯克 3701
亚洲@@ 3699
伯特 3699
跻身 3699
粗糙 3699
柳@@ 3698
程式 3697
除去 3697
不许 3697
22% 3696
无处不在 3696
掩饰 3695
1.6 3695
千万@@ 3695
联合会 3694
赞美 3693
城区 3693
娃娃 3692
杖 3692
他来 3692
创新性 3691
行为@@ 3690
马丁 3689
全省 3689
人类@@ 3688
版图 3688
流器 3688
福音 3687
艺术品 3686
新生儿 3685
上任 3685
盛会 3684
19% 3683
迎合 3683
更新换代 3683
炎症 3683
海洋@@ 3683
董@@ 3682
丘 3682
租金 3682
一号 3680
嘴唇 3679
寿@@ 3679
空前 3679
脱颖而出 3679
一年@@ 3679
线缆 3678
大臣 3676
路透社 3675
辆车 3674
而知 3674
美观 3674
报告@@ 3673
绑定 3672
招募 3672
45@@ 3672
片段 3671
驱动力 3670
201@@ 3668
伐@@ 3668
贪婪 3668
前行 3667
ip@@ 3666
经纪人 3665
挫折 3665
dB 3665
侮辱 3663
预后 3663
唤醒 3663
肾上@@ 3663
公共服务 3663
审理 3662
宁波 3662
影视 3662
渗透@@ 3661
房价 3660
夕@@ 3660
特权 3660
学期 3659
磋商 3659
干旱 3659
两岸 3658
蠢 3658
禽 3657
快充 3657
宿舍 3656
掷 3656
光刻 3656
那家伙 3656
正规 3655
隐 3655
定性 3654
之旅 3654
爵@@ 3654
地步 3653
箭 3653
浴缸 3649
石英 3649
集成度 3649
嫌犯 3649
阶@@ 3648
皮细胞 3648
以防 3647
宁静 3647
越大 3646
数学模型 3646
重重 3646
贾 3646
气象 3645
倡导 3645
晒@@ 3644
螺旋@@ 3643
扩建 3642
赐 3642
上司 3642
金融市场 3642
大麻 3641
专有 3641
量级 3640
棉 3640
Marvell 3640
糟@@ 3639
EMC 3638
蚕@@ 3638
局限于 3637
因应 3637
递交 3637
外来 3637
行程 3635
结算 3635
持续@@ 3635
光滑 3634
炒@@ 3633
炭@@ 3631
拷@@ 3631
邦@@ 3630
21.@@ 3630
of@@ 3630
长得 3629
黄金@@ 3628
RE@@ 3628
侦探 3628
27.@@ 3628
棉花 3626
ha@@ 3626
简介 3626
持续性 3626
更进一步 3625
最低@@ 3624
WCDMA 3623
不利于 3623
全局 3623
烹饪 3623
弦@@ 3622
玻@@ 3622
年会 3622
生化 3621
美国公司 3621
克林 3621
平滑 3621
秦@@ 3621
遏制 3619
增资 3619
寓@@ 3619
葬 3618
布尔 3618
议案 3617
赌博 3617
粘 3616
编译 3616
职业生涯 3615
查阅 3615
后代 3614
赏 3613
IG@@ 3613
铭@@ 3612
闷@@ 3612
海报 3611
UI 3611
滑动 3611
付钱 3610
煤炭 3610
捆绑 3610
地向 3609
发给 3608
再现 3608
新鲜@@ 3608
帅@@ 3608
堪称 3606
CR@@ 3606
珀 3606
胰岛素 3605
本地化 3604
代号 3604
棋@@ 3604
大象 3603
Le@@ 3603
信件 3602
通风 3602
州长 3602
告别 3601
优美 3600
格林 3600
予@@ 3599
改为 3599
一双 3599
够@@ 3598
膝@@ 3598
帐篷 3598
丹尼尔 3598
犯人 3598
缓冲@@ 3597
艳@@ 3596
违约 3595
占率 3595
Flash 3594
完备 3594
百万@@ 3593
颇@@ 3593
各界 3593
Open@@ 3592
分辨 3592
宗旨 3591
从根本上 3591
纲要 3591
App 3591
楚 3590
棱@@ 3590
多糖 3590
延期 3590
特质 3589
产业界 3588
大大降低 3588
艰苦 3587
WindowsPhone 3587
07 3586
看成 3586
拆卸 3585
喉@@ 3584
阁下 3584
酰@@ 3583
方向@@ 3582
山上 3581
草原 3581
接受@@ 3580
右侧 3580
第二十@@ 3580
矽@@ 3580
89 3578
WLAN 3578
公关 3578
地下室 3577
训 3577
十年代 3577
7.5 3576
网路 3576
战役 3576
兜@@ 3576
增殖 3575
达州 3575
紫色 3574
一举 3573
中介 3572
吸入 3572
首家 3571
酰胺 3571
接种 3571
透明度 3571
化学品 3571
kHz 3570
薯 3570
巴士 3570
三角 3569
AB 3569
归纳 3569
刊@@ 3568
疮 3568
可用性 3568
病情 3567
推销 3567
此种 3567
正交 3566
肠道 3566
调动 3565
受过 3565
当做 3565
逃脱 3564
X86 3563
矢量 3563
卡拉 3563
传真 3562
性状 3562
不受 3562
打交道 3561
盖茨 3561
全面@@ 3561
安德@@ 3561
串联 3560
拒 3560
上传 3560
ou@@ 3560
颠@@ 3560
字符串 3559
撞击 3559
盈 3558
压迫 3557
转身 3557
肆@@ 3556
氨基酸 3556
转为 3556
光电子 3556
晒 3555
控告 3555
DC@@ 3554
有种 3553
重力 3553
逆变器 3552
蕾 3552
一再 3552
罗永浩 3551
车主 3551
酸性 3550
竭@@ 3550
现任 3550
TD@@ 3548
出新 3547
沉淀 3547
尔森 3546
嚼 3546
棒球 3546
艾伦 3546
厘米 3545
强硬 3544
一切@@ 3544
接手 3543
油田 3543
阴 3543
风味 3543
卷入 3543
笔记 3542
台湾@@ 3542
重返 3541
暴跌 3540
对外@@ 3539
法令 3539
重叠 3539
恢复@@ 3538
垮 3538
战斗@@ 3538
压制 3537
从那@@ 3537
作证 3537
佬 3536
四季度 3536
海啸 3536
激起 3535
泳 3535
不怎么 3534
屎 3533
关键词 3533
说真的 3532
兑 3532
励@@ 3532
动向 3532
Hz 3531
哭泣 3530
夺 3530
乞@@ 3530
哲@@ 3529
订阅 3529
笑容 3529
三名 3529
甩@@ 3528
股票@@ 3528
窝@@ 3528
开发新 3527
比利时 3527
浪费时间 3527
转速 3527
制造厂 3526
SEMI 3526
Siri 3525
半岛 3525
一瓶 3525
慎@@ 3524
国外@@ 3524
打入 3523
古典 3523
预先 3522
提倡 3522
MB 3522
框@@ 3521
高低 3521
电图 3521
源性 3521
动词 3521
之势 3521
PO@@ 3521
音质 3521
端子 3520
车身 3519
很多年 3519
冷冻 3519
测验 3519
For@@ 3519
门店 3518
残 3517
Car@@ 3517
全文 3516
AL@@ 3516
磁共振 3516
签字 3515
郊区 3515
广义 3515
SS@@ 3515
废除 3514
大西洋 3513
li@@ 3513
篮@@ 3513
急于 3513
iPod 3513
下班 3513
缅甸 3512
世人 3512
DA 3511
阀门 3511
芦@@ 3511
越来越@@ 3511
日程 3511
缓冲 3510
彻底@@ 3510
三倍 3510
EMI 3509
沾@@ 3508
积极参与 3508
感到@@ 3508
1.1 3507
鸦 3507
墓@@ 3507
关注度 3507
28.@@ 3507
照明灯 3506
交际 3505
制止 3505
玩意 3505
最受 3505
昆山 3504
这篇 3503
甲骨文 3503
气象@@ 3502
绒 3501
面包@@ 3501
抹@@ 3500
近代 3500
行者 3499
当日 3499
定理 3499
MC 3499
三条 3498
祸 3498
笼 3498
样式 3498
总和 3498
寺 3497
宽恕 3497
勃 3496
水位 3496
社长 3496
狱@@ 3496
可见@@ 3495
衡 3495
开花 3494
三位 3494
长久 3494
嗜@@ 3494
农药 3493
浴@@ 3493
导师 3493
MLCC 3492
这话 3491
几率 3490
抛 3490
装有 3490
责任@@ 3489
德拉 3489
高分辨率 3489
大力发展 3488
题目 3488
不及@@ 3488
张力 3487
诱人 3487
诉求 3487
靶@@ 3487
霍尔 3486
萝卜 3486
老实 3486
Con@@ 3486
字体 3485
先是 3485
收为 3485
这样一来 3484
无知 3484
IO 3484
自私 3484
挑战性 3483
宝座 3483
伪造 3482
鼎 3481
晚饭 3478
始于 3478
1991 3478
希尔 3477
望远镜 3477
央@@ 3476
满意度 3475
调光 3475
失业率 3475
荒谬 3474
EDA 3474
价格下降 3473
侵入 3472
NXP 3472
让人 3472
旱@@ 3471
奶油 3470
不开 3470
特工 3470
卡罗@@ 3470
价值链 3469
晚期 3469
星系 3469
网关 3468
瞬态 3468
契@@ 3468
日记 3468
宏观经济 3468
卤@@ 3467
霉@@ 3466
忽然 3466
仇@@ 3465
解开 3465
发生器 3464
分量 3463
ver@@ 3463
学习@@ 3463
颊 3463
工具@@ 3462
忙碌 3462
一步@@ 3462
仔细@@ 3462
信誉 3462
美食 3461
不能@@ 3461
140 3461
医学@@ 3461
诅咒 3461
共产党 3461
莲 3460
感谢@@ 3460
毁掉 3460
监禁 3460
同伴 3459
驯@@ 3459
开放式 3458
不相@@ 3458
今天下午 3457
高额 3457
舌头 3456
分组 3456
方形 3455
刊登 3455
大都 3455
肮脏 3454
恭喜 3453
动力@@ 3453
开除 3453
商学院 3452
拱@@ 3452
两张 3451
出身 3451
反过来 3451
Air@@ 3450
绝佳 3449
爱人 3449
丹尼 3448
CA@@ 3448
日益@@ 3448
树上 3448
Op@@ 3447
怨 3446
供过于求 3446
谣言 3446
柜台 3446
爱国@@ 3445
策@@ 3445
PA@@ 3444
专题 3444
杯子 3444
执行长 3444
1.4 3444
刷新 3444
纬@@ 3443
阿拉伯@@ 3443
地方@@ 3443
贩 3442
趁@@ 3442
RO@@ 3442
这本 3441
大面积 3441
衰落 3441
对冲 3440
升至 3440
股本 3440
墓 3439
投票@@ 3439
掘@@ 3438
广播电视 3438
惨 3438
虹膜 3438
MicroLED 3437
兆瓦 3437
48@@ 3437
组分 3436
蟹 3436
里亚 3436
静下来 3435
歇 3435
802.11 3435
略有 3435
高位 3434
主持人 3433
尽全力 3433
分层 3432
心跳 3432
宁德 3432
见解 3431
暴风雨 3431
et 3430
举止 3430
作出@@ 3430
簿 3429
洁净 3429
吕@@ 3429
这起 3429
炒作 3428
洛克 3427
捐款 3427
五分钟 3426
内存@@ 3425
一席之地 3425
谜 3425
ess@@ 3424
足球@@ 3424
汉堡 3424
膨@@ 3424
耐用 3423
上限 3423
汞 3423
试用 3423
苦难 3423
球菌 3422
儒@@ 3422
家电@@ 3421
便会 3421
群落 3420
没收 3420
景色 3420
标本 3420
配色 3420
侍@@ 3419
不太@@ 3419
宏达 3419
缓和 3419
巫@@ 3419
血流 3418
头儿 3417
祖 3416
拼命 3416
仍会 3415
其后 3415
勘探 3414
口腔 3414
锯@@ 3414
晴@@ 3414
Ne@@ 3414
谈及 3413
印尼 3413
强制性 3413
中小 3413
坏消息 3412
可信 3411
改革开放 3411
功效 3411
胞@@ 3410
物资 3410
调节@@ 3409
发行@@ 3408
房产 3408
ber@@ 3407
近似 3407
傲慢 3406
参 3406
经受 3405
DDR@@ 3405
周期性 3405
iPhone4S 3405
教导 3405
赞 3404
凌 3404
权威@@ 3403
参议院 3403
万块 3402
电工 3402
报名 3402
印刷@@ 3402
措@@ 3401
共同努力 3401
退化 3400
崭新 3400
罪恶 3400
起伏 3400
敏感性 3399
皂 3399
VC 3399
推移 3398
.@@ 3398
公安@@ 3398
格外 3397
微弱 3397
一口气 3397
赔@@ 3397
电池组 3397
韦尔 3397
随时随地 3396
向量 3396
出价 3396
海湾 3396
监测@@ 3395
实用新型 3395
万亿 3394
外包 3394
23% 3393
罪名 3393
低下 3393
澳@@ 3391
数百万 3391
演说 3391
迟迟 3391
今年年初 3391
源头 3390
称呼 3390
芽@@ 3390
说明书 3390
论点 3389
换成 3388
河南 3388
瓶@@ 3387
参照 3387
多媒体@@ 3387
圣诞@@ 3387
可乐 3386
酸奶 3386
恭@@ 3386
塑 3386
匿名 3386
季节性 3386
施行 3386
滨 3385
开销 3384
一封 3384
新颖 3384
著作 3383
别动 3383
网民 3382
树枝 3381
小儿 3381
资质 3378
粮 3378
打通 3378
村民 3376
礼服 3376
有源 3376
讲座 3376
句话 3375
并于 3375
授 3375
格斯 3373
免受 3373
近乎 3373
密切@@ 3372
局域网 3372
模糊@@ 3372
流域 3371
山谷 3371
风机 3371
上个@@ 3370
瘫痪 3370
总的来说 3370
亿韩元 3369
打死 3369
借着 3369
小偷 3369
简易 3369
奎@@ 3369
店里 3369
楼宇 3368
击中 3368
置评 3368
出名 3367
南韩 3367
洪 3367
呈@@ 3366
嘲@@ 3366
关上 3366
es 3366
绑@@ 3364
21% 3363
贯穿 3362
指甲 3362
省市 3361
腿@@ 3361
笨 3361
人质 3361
惩@@ 3360
位数 3360
霍 3359
打包 3359
慈善@@ 3359
富翁 3358
祥@@ 3357
米尔 3357
呼吸@@ 3357
乙醇 3357
to@@ 3357
精美 3356
途中 3356
吉他 3356
好友 3355
加班 3354
估 3354
不用说 3353
计数 3353
愁 3353
西斯 3353
摩尔 3352
坏人 3352
微观 3351
绩 3351
湿地 3350
妙@@ 3349
挂牌 3346
托管 3344
茅@@ 3344
普通人 3343
难免 3343
客户服务 3342
决不 3342
出局 3342
影音 3340
滥@@ 3340
坦白 3340
希腊@@ 3340
年里 3339
透镜 3339
本报记者 3339
飓风 3339
镇上 3338
鸭 3338
夸大 3338
火山@@ 3338
昭@@ 3338
同方 3337
瓶子 3337
不难@@ 3336
逻辑@@ 3335
偶像 3335
蚂蚁 3335
克拉@@ 3333
厨师 3333
搜集 3333
地为 3333
丙烯@@ 3333
六月 3332
Net@@ 3332
永不 3332
详@@ 3331
回暖 3331
逐步@@ 3331
一千@@ 3330
纺织 3330
寂寞 3329
色谱 3328
肘 3328
好坏 3328
减速 3328
撤离 3327
东北 3327
iP@@ 3326
一端 3326
犹如 3326
LD@@ 3326
相似@@ 3325
股东大会 3325
备用 3324
85% 3324
砖@@ 3324
民营 3324
散发 3323
承包商 3323
牵头 3323
电子器件 3322
抗衡 3322
摔 3321
拆 3320
全方位 3319
朴@@ 3319
RS@@ 3318
农业@@ 3318
曙光 3318
香烟 3318
淹没 3317
幽灵 3317
水量 3317
技术实力 3317
杰夫 3316
随即 3316
追捧 3315
用地 3315
万户 3313
裕 3313
上周五 3313
星期二 3311
氰@@ 3310
膜炎 3310
催生 3310
镶@@ 3309
辣@@ 3309
Tr@@ 3309
缴 3309
屠@@ 3309
赢利 3309
想来 3308
塑性 3308
营地 3307
腕@@ 3307
SI 3307
棕色 3307
市场化 3306
修饰 3306
海地 3306
37@@ 3305
厨@@ 3305
佛教 3304
万亿美元 3303
日本政府 3303
越过 3303
积电 3301
展位 3301
精神病 3301
庇@@ 3301
各有 3301
毅 3300
文书 3300
所得税 3299
训练@@ 3299
风光 3299
电解 3298
娃 3298
小狗 3297
动态@@ 3297
至此 3297
接头 3296
溪 3296
失控 3296
前列@@ 3295
筛@@ 3295
搏 3295
衍@@ 3295
阅 3295
um 3294
上车 3293
索马里 3293
西欧 3292
充电站 3292
识别@@ 3292
保养 3291
雅图 3291
猛烈 3290
打扫 3290
MRI 3290
水资源 3290
ODM 3290
我敢 3290
人意 3289
一到 3289
香味 3288
刹车 3288
常态 3288
帝 3287
照相机 3287
中性 3286
混合物 3286
解答 3286
揍 3286
省份 3285
噪 3285
半导体芯片 3285
标杆 3285
NO@@ 3285
任职 3285
24% 3285
钓鱼 3285
发掘 3285
死亡率 3285
竭 3283
la@@ 3283
留意 3283
杂交 3283
雷斯 3283
血浆 3281
茫 3280
高可靠性 3280
ic 3280
祸@@ 3279
瞎@@ 3277
放出 3275
HP 3274
熄@@ 3272
左侧 3272
否 3272
绵 3271
唔 3271
所处 3271
基石 3271
服务商 3270
变态 3270
纳税人 3270
肾脏 3269
樱@@ 3269
建设@@ 3269
叉@@ 3268
席位 3268
一体机 3268
这有 3268
牵引 3268
邀@@ 3267
纪律 3267
目睹 3267
ul@@ 3266
依次 3266
民事@@ 3265
寿 3265
薪@@ 3265
录像@@ 3265
羽毛 3264
吉利 3264
纱@@ 3264
加紧 3263
澳洲 3262
教材 3262
董 3261
捧 3261
基因组 3260
所长 3260
我试 3260
ve@@ 3260
旗舰机 3260
那场 3259
副作用 3259
一届 3259
不信 3258
构想 3258
冒犯 3258
电讯 3257
懂@@ 3257
激光@@ 3256
液晶屏 3255
私募 3254
诠释 3254
而言之 3253
核查 3253
29.@@ 3252
克林顿 3252
过量 3252
耗费 3251
列举 3250
2.2 3250
手机用户 3250
不成 3249
数千@@ 3249
脓@@ 3249
随身@@ 3248
尽情 3248
高地 3248
贵州 3247
酝酿 3247
SA@@ 3247
棕@@ 3247
听取 3245
妞 3245
关键在于 3244
这时候 3243
迈向 3243
也@@ 3243
向来 3243
合力 3242
过滤器 3242
惧@@ 3241
大举 3241
顺利@@ 3240
Mc@@ 3240
细致 3240
IR@@ 3240
先天性 3239
种群 3239
规避 3239
投向 3239
妊娠 3239
涡 3239
Touch 3238
本土化 3238
按时 3238
RT@@ 3238
昏 3237
宽容 3237
散射 3237
弧 3237
号称 3237
洗澡 3236
Vivitek 3236
最长 3235
暴力@@ 3235
尽头 3235
邮政 3234
窒息 3233
立法会 3233
阻塞 3233
两国@@ 3233
亡@@ 3232
以求 3232
LTPS 3230
船员 3230
三月 3230
爱普生 3229
节省@@ 3229
厌@@ 3229
歧@@ 3229
时髦 3228
五月 3228
日益增长 3227
第六 3226
人造 3226
衡@@ 3226
诸 3226
头疼 3226
三角洲 3226
搅拌 3225
纠缠 3225
早前 3225
一来 3225
嵌@@ 3225
摇 3224
切片 3224
澳门 3223
血性 3222
加固 3222
外汇@@ 3221
抚 3221
颤 3221
天上 3220
展区 3220
公交车 3220
演讲@@ 3218
面具 3218
远高于 3217
玛丽@@ 3217
锂电 3217
重复@@ 3217
何况 3216
千瓦 3216
ES 3216
时代@@ 3216
全力@@ 3216
奇异 3215
流血 3215
署@@ 3215
妇人 3215
代理人 3215
较长 3213
传到 3212
可疑 3212
环绕 3211
稍后 3211
450 3211
出口额 3210
摄 3210
大众@@ 3207
木头 3207
宣传@@ 3207
糊涂 3207
有点儿 3207
SIM卡 3207
教育部 3206
祭 3206
同类产品 3206
乌克兰 3206
复杂度 3204
字节 3204
与会 3204
法测定 3203
我本 3203
云南 3203
无线@@ 3203
基质 3203
强奸 3203
比利 3203
聘请 3202
阔@@ 3202
减肥 3202
募@@ 3202
讲解 3201
慕尼黑 3201
悠@@ 3201
真想 3201
协调@@ 3201
悠久 3201
首度 3201
失衡 3201
WTO 3201
电动机 3201
鉴 3201
旗舰@@ 3201
纸张 3199
抖 3199
匆匆 3199
伐 3199
山羊 3198
带回 3198
非正式 3198
参赛 3198
气流 3197
复活 3197
间断 3197
晓 3197
镁 3197
喜剧 3197
这样的话 3196
路边 3196
威士忌 3194
烫 3194
景点 3194
1300 3194
平均水平 3194
柴 3194
Vi@@ 3194
嫁@@ 3193
难受 3193
院子 3193
仇恨 3193
偏好 3192
me@@ 3192
黎巴嫩 3192
恒大 3192
体系结构 3191
凤@@ 3191
马尔@@ 3191
修补 3191
ma@@ 3191
归功于 3190
得上 3190
高大 3190
大为 3190
蛇@@ 3189
赛灵思 3188
念头 3188
早点 3188
采纳 3188
只用 3188
武装@@ 3187
上尉 3187
Sh@@ 3187
伊丽莎白 3187
症@@ 3186
扯@@ 3186
胀@@ 3186
顶端 3185
没想 3185
一大批 3185
坚持@@ 3185
堵塞 3185
丑 3185
拖累 3185
Micro@@ 3185
乐园 3184
以致 3183
茜 3183
缺血 3182
周刊 3182
二零零@@ 3182
真是太 3182
优惠政策 3182
茂 3181
来回 3181
尼尔 3180
葡萄糖 3180
佼@@ 3180
外汇 3180
毫米波 3180
电子系统 3179
推断 3179
环保@@ 3179
拉夫 3179
变暖 3178
EE@@ 3178
讯号 3178
马克思主义 3178
截然不同 3178
新车 3177
旺@@ 3177
一词 3176
看得@@ 3176
棍@@ 3176
发展潜力 3175
耽@@ 3175
红外线 3175
期刊 3175
隐患 3175
获得成功 3175
审视 3174
Go 3173
哈里 3172
紫外线 3172
祖父 3172
喉 3172
经由 3171
音视频 3171
土豆 3171
事态 3171
太小 3171
SIA 3170
姑@@ 3170
中起 3170
彰显 3170
高原 3170
杆@@ 3170
新版 3169
奖学金 3169
光照 3169
小小 3169
水域 3169
偷走 3168
老朋友 3167
国民@@ 3166
文件@@ 3165
复合@@ 3165
固化 3165
记载 3165
网通 3165
先知 3165
象征@@ 3164
巧合 3164
经营者 3164
猴 3163
再有 3163
伍@@ 3163
场馆 3163
增生 3163
灶 3162
珍惜 3162
玩游戏 3161
国家级 3161
海域 3161
爵 3160
雕刻 3160
额度 3160
Web@@ 3158
各个领域 3158
不足@@ 3158
雨水 3157
婴@@ 3157
弓 3157
猜想 3156
男生 3156
Ver@@ 3156
马克思 3155
iPad2 3155
赌场 3155
抗原 3154
终身 3154
声学 3154
水质 3154
愈发 3153
逸 3153
妆 3151
om@@ 3151
山脉 3151
磷酸@@ 3151
胜任 3151
柜@@ 3151
不下 3150
世博会 3150
发挥作用 3150
沥青 3149
责备 3149
法兰@@ 3149
振荡 3149
反驳 3148
向导 3148
重启 3148
那晚 3148
庞@@ 3148
歌唱 3148
否决 3147
谋杀案 3147
倡议 3147
十几@@ 3147
贿赂 3147
独立@@ 3147
不相同 3146
藤 3146
三项 3146
亲戚 3146
皱 3146
学员 3145
麦克@@ 3145
GaN 3144
织 3144
城市化 3144
少数@@ 3144
推向市场 3144
总能 3143
iz@@ 3143
平原 3143
姐 3142
究@@ 3142
斩@@ 3141
游行 3141
法律法规 3141
万股 3141
肺炎 3141
压电 3140
卢旺达 3139
躯@@ 3139
陛下 3138
一连串 3138
纵观 3136
德克萨@@ 3136
力气 3136
开头 3136
侵害 3136
老牌 3136
悦 3136
悄然 3135
工作室 3135
Be@@ 3135
仪@@ 3134
写下 3133
取向 3133
水晶 3133
泛 3132
熟练 3132
菊@@ 3132
柔和 3131
冯@@ 3131
分析法 3131
打架 3129
逃走 3129
山姆 3129
溢价 3129
地盘 3129
擅@@ 3129
喝醉 3129
关门 3128
Lum@@ 3128
杀人@@ 3126
聘@@ 3126
蠕@@ 3125
铜箔 3125
给定 3125
急速 3125
最终@@ 3125
耻@@ 3125
岁月 3124
梅尔 3124
良品率 3124
盖板 3123
沈阳 3123
门外 3122
发生@@ 3121
智能卡 3121
对立 3120
28% 3120
生日@@ 3119
撰写 3119
IF@@ 3119
梯度 3118
那会 3118
震荡 3118
3DNAND 3118
集团公司 3117
亿片 3117
单晶 3116
光缆 3115
睁@@ 3115
发音 3115
慎 3114
光束 3114
保证@@ 3113
抄@@ 3113
咒@@ 3112
融化 3112
皮瓣 3112
扳@@ 3111
干脆 3111
登场 3110
不顾 3110
信徒 3110
迈 3110
被判 3110
鲨鱼 3108
放射性 3108
27% 3107
飞跃 3107
第八@@ 3107
一则 3107
缘故 3107
品类 3106
去掉 3106
藉由 3105
晶圆@@ 3105
提琴 3105
加勒@@ 3104
湖南 3104
FPC 3104
al 3104
二十年 3104
MB@@ 3103
集中度 3103
出卖 3102
斐@@ 3102
链路 3101
惧 3101
基督徒 3101
罗德 3100
两组 3100
转子 3099
添加剂 3099
绪 3099
专辑 3098
自治区 3098
喉咙 3098
MW 3097
误会 3097
下车 3096
梭 3094
大奖 3094
裂纹 3094
照明@@ 3094
受理 3093
ON@@ 3093
据此 3093
料到 3093
指挥@@ 3093
夏威夷 3092
核电 3092
嫌疑人 3092
吉尔 3091
查尔斯 3091
ADC 3091
tion@@ 3091
飞兆 3090
力求 3090
西省 3090
尼亚@@ 3090
无视 3089
溃疡 3088
硬度 3088
鞘 3087
专访 3087
存量 3087
钦@@ 3087
微波炉 3085
栽培 3085
熬 3085
与会者 3085
加拉@@ 3084
播出 3083
语文 3083
雀@@ 3083
党派 3081
冈@@ 3081
饿@@ 3080
发明专利 3080
仇 3080
不懈 3080
创造@@ 3079
革@@ 3079
比拟 3078
绅士 3077
恰好 3076
继承@@ 3076
托尼 3075
坟墓 3075
吃掉 3075
大笑 3075
由此可见 3074
评判 3074
哮喘 3074
政策@@ 3073
落下 3073
摄影@@ 3073
刚性 3073
骨髓 3073
实施@@ 3073
os 3072
今早 3072
多彩 3071
张汝京 3071
感测 3071
动物@@ 3070
俊@@ 3070
心肌 3069
盟友 3068
手枪 3068
半数 3068
发型 3067
税务 3067
栅极 3067
低压 3067
深圳@@ 3067
出自 3067
周边@@ 3067
莎拉 3066
全息 3066
兑现 3066
阴道 3066
捣@@ 3065
摄影师 3065
捞 3064
中止 3064
杏@@ 3064
电报 3062
爱上 3062
降临 3061
楼下 3061
Ac@@ 3060
警局 3059
国标 3059
郁 3059
做生意 3059
误导 3059
ell@@ 3059
烟雾 3059
耸@@ 3059
劫 3058
傲@@ 3058
双眼 3058
昏迷 3057
嵌入式@@ 3057
说得对 3057
炫@@ 3057
邻近 3056
叠 3056
喇叭 3056
数十年 3055
必定 3055
着陆 3055
揭露 3055
哭@@ 3054
品尝 3054
追溯 3053
派遣 3053
盐酸 3053
匹 3053
总有一天 3053
偷偷 3053
总产值 3052
面孔 3052
大容量 3051
消防 3051
百年 3051
US@@ 3051
Bo@@ 3050
召集 3050
愈合 3050
紧密@@ 3049
均价 3048
旅游业 3048
巷 3048
贫 3048
一阵@@ 3048
坦克 3048
姜@@ 3048
835 3047
趋 3047
毅@@ 3047
全高清 3045
复位 3045
指示@@ 3044
佛山 3044
递 3044
BA 3044
流产 3044
益处 3043
NI 3043
锅炉 3043
我见 3043
国债 3043
工件 3042
往来 3042
事后 3041
合成@@ 3041
卜@@ 3040
闸@@ 3039
岗@@ 3039
李东生 3039
要约 3039
任期 3039
真实性 3038
农产品 3038
巨资 3038
天气@@ 3038
石化 3038
奇妙 3038
本体 3038
尽早 3037
草坪 3037
生殖 3037
皱@@ 3036
伺@@ 3036
挠@@ 3036
江苏省 3035
发烧 3035
旋律 3035
GW 3034
喝一杯 3034
大有 3034
用药 3033
图像@@ 3033
午夜 3033
立足 3033
敦 3033
四月 3033
ra@@ 3032
纲领 3032
块钱 3032
投降 3030
盲 3029
理事长 3028
卡因 3028
并联 3027
胁迫 3027
遗忘 3026
渍 3026
高度@@ 3026
惟一 3026
增进 3025
羡慕 3025
感官 3025
线条 3024
要死 3024
验收 3024
一趟 3023
红细胞 3023
辙 3023
四家 3023
人力@@ 3023
妈@@ 3022
PDP 3022
在线@@ 3022
MWC 3022
怎 3021
塞尔@@ 3021
疫@@ 3021
这为 3021
少女 3021
构件 3021
欢呼 3020
历史性 3020
越高 3019
助于 3018
受访者 3018
极化 3018
30.@@ 3018
匮乏 3018
多功能 3017
袋子 3016
吸毒 3016
出差 3016
to 3016
时说 3016
富人 3015
抵御 3015
皮质 3014
拓宽 3014
际@@ 3014
套餐 3013
测算 3013
米兰 3013
柏 3013
多多 3013
ak@@ 3013
装饰@@ 3012
身心 3012
IPv6 3012
利物浦 3012
倘若 3012
IB@@ 3012
踏 3011
一次性 3011
大类 3011
化学物质 3011
所有者 3011
疲@@ 3010
徘徊 3010
洞穴 3010
贴近 3009
词语 3009
Te@@ 3009
叫声 3008
电价 3008
ri@@ 3008
听证会 3008
不太好 3008
咳嗽 3008
虐待 3008
结盟 3007
甲状腺 3007
悔@@ 3006
贯 3005
异议 3005
光芒 3005
执政 3005
风电 3004
榜样 3004
茄@@ 3004
纹理 3003
肌肤 3003
写信 3002
多长时间 3001
昔日 3001
电阻器 3001
安徽 3001
客观@@ 3001
中世纪 3000
碱性 3000
创客 2999
赛车 2999
隐喻 2999
特派团 2998
券@@ 2998
雕塑 2997
绝对@@ 2997
销售价格 2997
僚 2997
观赏 2996
细微 2996
ISO@@ 2996
讯@@ 2996
病因 2996
何处 2996
蓬@@ 2995
专业知识 2995
看不@@ 2995
砍 2995
闪电 2995
漠@@ 2994
朱 2994
逾@@ 2993
中国芯 2993
挫@@ 2992
褐色 2992
智慧型 2991
装机@@ 2991
物业 2991
举足轻重 2990
矫@@ 2990
一侧 2990
牛排 2990
中标 2989
陵@@ 2989
真实@@ 2989
趾 2989
聊聊 2989
白板 2988
发明@@ 2988
空军 2988
伺服@@ 2987
起着 2987
钛@@ 2987
囊肿 2986
生态圈 2985
百分@@ 2985
克莱 2984
心思 2984
香蕉 2984
焚@@ 2983
WE@@ 2983
加工@@ 2983
植被 2983
竟@@ 2982
後 2982
花粉 2981
闻到 2981
皆@@ 2981
辅导 2980
上马 2980
公交 2980
拨款 2980
迫切需要 2979
期权 2979
差分 2979
临床@@ 2978
05 2978
良心 2977
密切合作 2977
Me@@ 2976
简历 2976
升起 2976
通向 2976
比上 2975
表皮 2975
商业银行 2974
表述 2974
ee@@ 2974
国防部 2974
离子@@ 2973
吃紧 2973
太晚 2973
萤@@ 2971
令人满意 2971
寄存器 2970
重回 2970
并发 2969
巡逻 2969
科学研究 2969
产业政策 2968
傲 2968
下个月 2968
陪伴 2968
绘@@ 2967
家电行业 2967
ill@@ 2966
联系@@ 2966
冈 2965
昧 2965
敏锐 2965
协同@@ 2965
聆听 2965
主办@@ 2965
趟 2964
重于 2963
一无所知 2963
倒下 2963
热度 2963
高速@@ 2962
33% 2962
反应堆 2962
苔@@ 2962
朴 2962
理化 2962
外侧 2962
相邻 2961
人脸 2961
梗@@ 2961
煤矿 2961
贬@@ 2961
粉碎 2961
下乡 2961
儿童@@ 2960
2K 2960
生产率 2960
切口 2960
每种 2960
高等 2959
点评 2959
审讯 2959
逼真 2959
生于 2959
休假 2958
中西部 2958
托马斯 2958
对准 2957
邻国 2957
崇 2957
奥尔@@ 2956
游戏@@ 2956
污泥 2955
业务部 2955
灌木 2955
会计师 2955
友善 2954
孵化 2953
省级 2953
吵架 2953
简短 2953
拉伸 2952
度量 2952
粮@@ 2952
抨击 2951
气球 2951
语言学 2950
合理性 2949
油漆 2949
恩斯 2949
线路板 2948
意识形态 2948
派出 2948
数个 2948
复杂@@ 2948
高品质 2948
一线 2947
泳@@ 2947
烷@@ 2947
正极 2946
表决 2946
刮 2946
骤@@ 2946
携@@ 2946
谁@@ 2945
土壤@@ 2945
亚科 2944
un@@ 2944
牧 2943
01 2943
泊 2943
海边 2942
1.7 2942
膀胱 2942
品味 2941
肝炎 2941
绘图 2940
款式 2940
好了吗 2939
兄弟@@ 2939
碧@@ 2939
啦@@ 2939
经理人 2938
中来 2938
说是 2938
驱逐 2938
器具 2938
可调 2937
仁慈 2937
制药 2937
侣 2937
乳腺癌 2937
葡萄牙 2936
驾 2935
进制 2935
风力 2935
扣除 2935
钝 2935
淀@@ 2934
矮 2934
熏@@ 2933
一大堆 2933
车队 2933
星期四 2933
江西 2933
润滑@@ 2932
奉献 2932
孢子 2932
等离子体 2932
光学@@ 2931
压缩机 2931
悬浮 2931
榜首 2931
昂@@ 2931
经济社会 2931
感染@@ 2931
不好@@ 2930
旅行@@ 2930
鹿@@ 2930
集成@@ 2929
核电站 2929
ick@@ 2929
相符 2928
士学位 2928
5V 2928
铅@@ 2928
异性 2928
产阶级 2928
郑州 2928
非洲@@ 2928
过大 2927
哥伦比亚 2927
注资 2927
一圈 2926
马路 2926
地被 2926
做梦 2926
遣 2925
水解 2924
巧@@ 2924
亚太@@ 2923
店铺 2923
半导体器件 2922
一段@@ 2922
后退 2922
胡 2922
德国@@ 2922
混淆 2922
蛋白酶 2922
酯@@ 2922
无所谓 2921
伤亡 2921
南亚 2921
军用 2921
年时 2921
过渡@@ 2921
人文 2920
EM 2920
点亮 2920
着急 2920
吊 2919
拆除 2918
生产总值 2918
原告 2917
巴斯 2917
弄清楚 2917
听力 2916
Surface 2916
御@@ 2916
墨西哥@@ 2916
粉末 2915
别墅 2915
犯下 2915
勋@@ 2915
闸 2915
巨 2914
膝 2914
半小时 2914
辊 2914
蜡 2914
说不定 2914
采购@@ 2913
济 2913
队列 2913
分级 2913
北省 2912
波导 2912
电话会议 2911
哨 2911
1600 2911
私下 2910
出众 2910
紧迫 2910
无线连接 2909
丢掉 2909
得起 2909
二期 2909
喘@@ 2909
玄@@ 2909
传染病 2909
身子 2909
ta@@ 2908
全程 2907
现出 2907
各个方面 2907
揭开 2907
集装箱 2907
溅 2907
CH@@ 2906
对照组 2906
纳米技术 2906
前置 2906
老公 2905
合作开发 2905
噩梦 2905
巴克 2905
关怀 2905
冗余 2904
努比亚 2903
细腻 2903
大叫 2903
典范 2902
饱 2902
Inc 2902
投入使用 2902
联邦政府 2902
结构设计 2902
手提@@ 2902
开着 2901
入选 2900
信用@@ 2900
轧@@ 2899
撑 2899
巫 2899
场上 2898
带入 2898
纠@@ 2898
评分 2897
任何@@ 2897
祖母 2897
对系统 2897
习俗 2897
所在地 2897
样机 2896
一个个 2896
128@@ 2896
胜出 2896
载荷 2895
解释@@ 2895
白皮书 2894
缺席 2894
大关 2894
招待 2893
故障@@ 2893
计画 2892
杠杆 2892
呼声 2892
培养@@ 2892
保住 2892
9000 2892
臣 2892
乏味 2891
970 2891
为首 2891
TV@@ 2891
机票 2890
听觉 2890
腹腔镜 2890
脑子里 2890
袍 2890
深耕 2889
蝴蝶 2889
一夜 2889
接纳 2889
星期三 2889
梳@@ 2888
紧急@@ 2888
复方 2888
布兰@@ 2887
凶 2887
支持@@ 2887
ASML 2887
羹 2886
领带 2886
之力 2886
保姆 2885
可知 2885
窗帘 2885
广电总局 2885
杉 2885
登记@@ 2884
边上 2884
标注 2884
换代 2883
虹@@ 2883
梗死 2882
不休 2882
峡谷 2882
召唤 2881
过敏@@ 2881
iPhone6 2881
私 2880
滑坡 2880
调查结果 2880
遭@@ 2880
亿颗 2880
谐 2878
更为重要 2878
作风 2878
ch 2878
页@@ 2877
脚下 2877
勒斯 2877
厦@@ 2877
多边 2877
回国 2877
繁忙 2876
不知@@ 2876
代数 2876
繁多 2875
十多年 2875
Ma@@ 2874
夜里 2874
交互@@ 2874
凡是 2874
人眼 2873
隔膜 2873
科技股份 2873
病学 2873
条纹 2872
防守 2872
PD@@ 2872
外星人 2871
特异性 2870
哺乳动物 2870
凯瑟琳 2870
抑郁症 2869
突发 2869
抽屉 2869
教科@@ 2869
敏感@@ 2869
定时 2868
酪 2868
忍 2868
生殖@@ 2868
吩咐 2867
车库 2867
眠@@ 2867
史蒂夫 2866
雕像 2866
菇 2865
邮 2865
大火 2865
工作量 2864
引力 2864
较差 2864
格尔 2864
德国人 2864
两边 2863
照亮 2863
常数 2863
打出 2863
产品销售 2862
怡@@ 2861
锰 2861
特区 2861
临界 2861
废话 2861
一家人 2861
杰克逊 2860
称作 2859
颜@@ 2859
姆斯 2859
DP 2859
高价 2859
曝@@ 2859
薯@@ 2858
天呐 2857
2.1 2857
歪@@ 2857
便利@@ 2856
不振 2856
出炉 2856
创新型 2855
放过 2855
别管 2855
说完 2855
美国商务部 2855
鲜花 2855
感应器 2854
礁 2854
翰 2853
乃@@ 2853
磊 2853
最高法院 2853
潭 2852
DM 2852
咱俩 2852
大涨 2852
人才@@ 2851
诱发 2851
得来 2851
醋 2851
管理体系 2851
UV 2851
纵 2850
一小部分 2850
旷@@ 2850
项链 2849
理工学院 2849
亚当 2849
离去 2848
翘@@ 2848
中说 2848
好比 2848
癫痫 2848
金牌 2848
准时 2848
聚糖 2847
高分子 2847
杂质 2846
老是 2846
专心 2846
雕 2845
检察@@ 2844
法治 2844
CCFL 2844
希捷 2844
肋 2843
各种@@ 2843
120@@ 2843
这颗 2843
Intel@@ 2842
近几年来 2842
新人 2842
赶超 2841
标志性 2841
SiC 2841
中风 2841
正常@@ 2841
柳传志 2840
去年底 2840
内战 2840
准确度 2840
不前 2840
住院 2840
共性 2840
不可否认 2840
顺应 2839
解脱 2839
牢牢 2839
无源 2839
CA 2839
有助 2839
极力 2838
仲@@ 2838
国务@@ 2838
感恩节 2838
联动 2838
专为 2837
排出 2837
选票 2837
柯达 2837
重整 2836
屋子里 2836
2021 2836
这段 2835
侯@@ 2835
警探 2835
着迷 2834
剖析 2834
仔 2833
翼@@ 2833
弓@@ 2832
区内 2831
关键问题 2831
Fl@@ 2831
ESD 2831
显微 2830
Book@@ 2830
蓄 2830
戳 2830
家电产品 2829
鳞@@ 2829
装机 2829
突破口 2829
住宿 2828
批评@@ 2828
革 2828
交会 2828
46@@ 2827
拉丁美洲 2827
备货 2827
各样 2827
悲惨 2827
不容 2826
民营企业 2826
证件 2826
全家 2826
磺@@ 2826
引人@@ 2826
提取物 2826
潜能 2825
喜好 2824
山市 2823
正直 2823
普及率 2822
推动力 2822
相近 2822
名誉 2821
辣椒 2821
跳跃 2820
内置 2820
词典 2819
大幅提高 2819
私有化 2819
柴油 2819
畅 2819
保佑 2818
布里@@ 2818
纯化 2817
竞技 2817
荧光灯 2817
讨论@@ 2817
用户数 2817
证词 2817
开端 2816
韵@@ 2816
趋缓 2816
高尔夫球 2816
游离 2815
刑法 2815
削@@ 2815
清华@@ 2815
硅晶圆 2814
苏珊 2814
预 2814
罕 2813
越发 2813
语句 2813
Pad 2813
RNA 2812
原厂 2812
准备@@ 2811
不至于 2811
碳化硅 2811
切尔 2811
腱 2811
深层 2810
刚刚开始 2810
开幕式 2810
伪装 2810
稀释 2809
反对派 2809
玩意儿 2808
余地 2808
颓@@ 2808
无须 2808
Di@@ 2808
q@@ 2807
付给 2807
学费 2806
诚意 2806
私有 2806
净化器 2806
部委 2806
酸钠 2806
新工艺 2805
寂 2805
香肠 2804
之多 2804
真心 2804
毁坏 2804
贡献@@ 2804
西南 2803
韧带 2802
设厂 2802
动用 2802
阴极 2801
关键性 2801
冷却@@ 2801
细则 2801
好不好 2801
2D 2801
贷@@ 2801
学术界 2800
树叶 2799
凯恩 2799
陀螺仪 2799
成功@@ 2798
过往 2798
换个 2797
铁矿 2797
广西 2797
气温 2797
双胞胎 2796
啶 2796
解剖学 2796
26% 2794
专利@@ 2794
犹太 2794
CCD 2794
AM 2794
两端 2794
监察 2793
弗雷@@ 2793
淤@@ 2793
其一 2793
WAPI 2793
实业 2792
水手 2792
年产值 2792
阈值 2792
灯饰 2792
幕后 2791
喝点 2791
掺@@ 2790
汇聚 2790
先行 2789
并存 2789
靡 2789
唾@@ 2789
蚀@@ 2789
分离@@ 2788
法学 2788
驾车 2788
4K@@ 2788
成本低 2788
恐龙 2787
发票 2787
狂欢 2787
幻觉 2787
普遍@@ 2787
栅 2786
一分@@ 2786
机体 2786
耗电 2786
严苛 2785
终极 2785
坎 2785
1980 2785
DO@@ 2784
Broadcom 2784
健身@@ 2784
祂 2783
06 2783
获得@@ 2783
财团 2783
诈 2783
One 2782
扑 2782
数千 2782
探头 2782
om 2782
萝@@ 2781
洽 2781
奸@@ 2781
毋庸置疑 2781
宪章 2781
疏 2781
危及 2780
一手 2780
宪@@ 2780
不吃 2780
因特网 2779
煽@@ 2778
复发 2778
电池容量 2778
争相 2778
茨@@ 2777
999 2777
下手 2777
剂@@ 2776
最佳@@ 2776
动脉@@ 2776
新任 2776
长电 2776
俄 2775
拥 2775
并非@@ 2775
充实 2774
韩元 2774
时要 2772
深感 2772
选择@@ 2772
打下 2772
瀑布 2772
彰 2772
地质@@ 2772
注释 2771
专长 2771
固定资产 2770
小屋 2770
莲@@ 2770
寄生 2769
喘 2769
虑 2769
走私 2769
乐于 2769
详尽 2769
Qualcomm 2769
高尔夫 2768
迷惑 2768
沙拉 2768
肚@@ 2768
猎人 2768
个案 2767
称号 2767
布拉@@ 2767
理查德 2767
重金属 2767
天地 2767
灿烂 2767
胜过 2767
导体 2766
每隔 2766
丰盛 2766
生产厂家 2766
精简 2765
法拉@@ 2764
油气 2764
甜蜜 2764
狮 2763
纹身 2763
mmx@@ 2763
EL 2762
鲜艳 2762
流出 2762
工作站 2762
样片 2761
at 2761
颠覆性 2761
非常感谢 2761
诉讼@@ 2760
身份@@ 2760
关节炎 2760
挑剔 2760
连结 2760
指着 2760
邱@@ 2759
出租 2759
跑道 2759
乐金 2758
Home 2758
唇@@ 2758
缠 2757
窃取 2757
口碑 2756
语气 2756
介于 2756
溢 2756
制高点 2756
旅途 2756
发科 2755
乏力 2755
献 2755
高手 2755
白血病 2755
训@@ 2755
用心 2754
宽带@@ 2754
资源管理 2753
阳性 2753
楚@@ 2752
往常 2752
咸@@ 2752
无礼 2752
冲击@@ 2752
匪 2751
高中@@ 2750
袜子 2750
改动 2750
悄悄 2750
蜘蛛 2749
阐释 2749
彩电业 2749
司长 2749
破坏性 2749
下称 2749
工业革命 2748
女神 2748
夹克 2748
气质 2748
概况 2747
难关 2747
商标@@ 2747
溪@@ 2746
供应量 2746
振奋 2746
召@@ 2746
官方@@ 2746
化妆品 2746
光刻机 2746
指明 2746
为数@@ 2746
二氧化@@ 2745
装载 2745
程序员 2745
平板@@ 2745
后置 2745
速度@@ 2745
2.3 2744
显出 2744
虚弱 2744
快递 2744
特里 2744
教皇 2743
名片 2743
辈子 2743
vi@@ 2743
驼 2742
波斯@@ 2742
配偶 2742
走低 2741
家庭影院 2741
村子 2741
DDR2 2741
已成 2741
管控 2741
饱受 2741
废旧 2740
铬 2740
断层 2740
描写 2739
迅猛发展 2739
彭博社 2739
三点 2739
卵巢 2739
冰淇淋 2739
旦@@ 2739
初始化 2738
大疆 2738
高水平 2737
互联互通 2737
几款 2737
怪异 2737
贱@@ 2736
佳能 2736
荣获 2736
小事 2735
摆放 2735
戴上 2735
山顶 2735
PL@@ 2734
移除 2734
原发性 2734
陡@@ 2734
AT 2734
苍白 2733
发觉 2733
睹 2733
入境 2732
毛巾 2732
联邦调查局 2732
型机 2732
意大利@@ 2732
珀@@ 2731
丛林 2731
NOR 2731
下令 2731
老百姓 2731
弹簧 2731
培 2731
游说 2731
规划@@ 2730
地下水 2730
流浪@@ 2730
成交 2730
屁@@ 2730
警长 2730
吉米 2730
而后 2730
DI 2729
John@@ 2728
照看 2728
薇 2728
背上 2728
环氧树脂 2728
衰老 2727
神经系统 2727
冲洗 2727
壤 2726
堤 2725
Play 2725
解散 2725
为时@@ 2725
嘴巴 2724
重现 2724
半球 2724
灌注 2723
平息 2723
雷曼 2723
难忘 2723
更佳 2722
握手 2722
妖@@ 2721
额定 2721
附加值 2721
长三角 2721
三星@@ 2721
脆@@ 2720
承接 2720
中科 2720
买方 2720
衔接 2719
高端 2719
雕@@ 2719
市场潜力 2719
清算 2718
发射器 2718
牢固 2718
若干@@ 2718
境界 2717
时序 2717
颌 2716
VA 2715
小丑 2715
调查报告 2715
Gr@@ 2715
竞购 2715
市场推广 2714
走到 2714
纳米管 2714
宅@@ 2714
极性 2714
本法 2714
重庆@@ 2713
FinFET 2713
专门@@ 2713
慌 2712
金字塔 2712
面粉 2712
克劳@@ 2711
语境 2711
慰@@ 2711
盯@@ 2711
国防@@ 2711
某一 2709
磁带 2709
普京 2709
堆叠 2709
野生动物 2709
交互式 2709
洗手间 2709
住手 2708
接收机 2708
国际法 2708
慕@@ 2708
驱动程序 2708
较量 2708
讽 2708
那州 2707
美军 2707
共产@@ 2707
笛 2707
鲸@@ 2707
混沌 2707
lo@@ 2707
PD 2706
同期相比 2706
火车站 2706
零售店 2705
艰巨 2704
珍妮 2704
行车 2704
晓得 2702
西北 2702
营收@@ 2702
滚动 2702
挣 2702
有空 2702
愉悦 2701
诫 2701
陀@@ 2700
掩护 2700
接连 2700
肋@@ 2700
加利福尼亚 2700
踪 2700
150@@ 2699
躲避 2699
大佬 2699
颇具 2699
栈 2699
完工 2699
嫩 2699
举例 2699
礼品 2699
电子报 2699
霾 2698
健康状况 2697
筹码 2697
知晓 2697
式化 2697
Ro@@ 2697
橱 2697
te@@ 2697
文物 2696
ICT 2696
资费 2696
仆 2696
肢体 2696
寥@@ 2695
触及 2695
肆 2695
悠 2694
触点 2694
航空航天 2694
那辆 2694
警察局 2694
孩儿 2694
支气管 2693
致力 2692
中所 2692
知觉 2692
收益率 2692
姚@@ 2692
tel 2692
瓷 2691
哼 2691
老天 2691
残疾人 2691
买单 2691
办事 2691
提供者 2690
余家 2690
数学@@ 2690
伙伴关系 2689
时器 2689
传承 2689
在短期内 2688
配送 2688
吓坏 2688
互相@@ 2688
980 2687
Microchip 2687
以待 2687
单调 2687
热销 2687
忌@@ 2687
牛仔 2687
宽敞 2687
色调 2686
51% 2686
洋葱 2686
Touch@@ 2686
大使馆 2686
该文 2686
服饰 2685
陵 2685
淘宝 2685
竞标 2685
棵 2684
绘 2683
室内@@ 2683
发展势头 2682
年销售额 2682
颤@@ 2682
商量 2682
过早 2682
澡 2682
鲍勃 2681
惯性 2681
黄章 2681
北约 2681
骚 2681
硬件@@ 2681
十分钟 2681
琪 2681
预处理 2680
原体 2680
ARM@@ 2679
CT@@ 2679
解码器 2679
残疾 2679
RGB 2679
伽@@ 2679
导出 2679
Pe@@ 2678
况@@ 2678
殷@@ 2677
扔掉 2677
有效率 2677
盛宴 2676
矿机 2676
澜 2676
抬头 2676
罕@@ 2676
Com@@ 2676
说些 2676
铸造 2675
信封 2675
贫困@@ 2675
户外@@ 2675
自我@@ 2675
热水 2675
歌剧 2674
观察员 2674
满足用户 2674
精明 2674
激怒 2674
救护车 2673
开发计划署 2673
哲学家 2672
书店 2672
德斯 2672
3500 2672
奇特 2672
创投 2671
溜 2671
舱@@ 2671
不齐 2670
注射液 2670
媲美 2670
@ 2669
吞吐量 2669
羊毛 2669
多方 2669
第二章 2669
DE@@ 2668
致电 2668
中等 2667
浓缩 2667
交替 2667
配电 2666
黯@@ 2666
归咎于 2666
电力系统 2666
收敛 2665
免除 2665
CMMB 2665
工作岗位 2665
赚@@ 2665
土地@@ 2665
是否是 2664
合同@@ 2663
载波 2663
惊艳 2663
养殖 2663
终点 2663
各行各业 2662
账单 2662
终端用户 2661
每台 2661
螺 2661
徙 2660
压抑 2660
皮层 2660
病率 2659
解密 2659
ET@@ 2659
想见 2659
直流电 2658
AI@@ 2658
蒜 2658
PH@@ 2657
de@@ 2657
六大 2657
口音 2657
受制于 2657
为人@@ 2657
纳税 2656
入点 2656
55% 2656
鸟儿 2655
叙事 2655
大唐电信 2655
半径 2655
彻 2654
电波 2654
溺@@ 2654
小鸟 2653
经验@@ 2653
计时 2653
添 2652
就业机会 2652
Mic@@ 2652
低谷 2652
星光 2652
摸索 2651
地理@@ 2651
庸 2651
MTK 2650
拇指 2650
代人 2650
萃取 2650
le 2650
寒冬 2649
毛细@@ 2648
契 2648
本该 2648
抄袭 2648
随者 2648
Display 2647
访问@@ 2647
始终@@ 2647
下旬 2647
烧伤 2647
蓝光 2647
慌@@ 2646
双边 2646
羟@@ 2645
UR@@ 2645
基本原理 2644
受限 2644
宅 2643
夺走 2643
荷 2643
侵略 2643
尖端 2642
无与伦比 2642
注册资本 2642
风潮 2642
布什@@ 2642
工商 2642
祭司 2642
兰人 2641
甲板 2641
涩 2641
熟知 2640
De@@ 2640
强烈@@ 2639
盼@@ 2639
七月 2639
认购 2638
钢铁@@ 2638
片式 2638
慧@@ 2638
哥伦@@ 2638
QLED 2638
中外 2638
豁免 2638
扇@@ 2637
违法@@ 2637
个子 2636
产销 2636
亚特兰@@ 2636
Dav@@ 2636
焕@@ 2636
元年 2636
制剂 2636
FET 2636
整洁 2636
致辞 2635
一一 2635
近些@@ 2635
整晚 2635
隔壁 2635
从头@@ 2634
虽说 2634
75@@ 2634
力图 2634
居高不下 2634
Inter@@ 2634
黄油 2634
阳台 2634
65% 2633
发生率 2633
偏低 2633
中期 2632
屏下 2632
举起 2632
坚守 2632
竭力 2632
人气 2632
务实 2631
开关电源 2630
九个 2630
打动 2630
甲基 2630
处长 2630
努@@ 2629
硫酸 2629
家属 2629
甲烷 2629
核实 2628
有者 2628
墨水 2627
购物中心 2627
35.@@ 2627
切尔西 2627
呕吐 2627
专用@@ 2627
逝@@ 2626
耘 2626
共振 2625
阅读@@ 2625
皮革 2625
原则@@ 2625
丑@@ 2624
Sun 2624
降低功耗 2624
柠檬@@ 2623
匈牙利 2623
愤 2623
出错 2623
翻新 2622
方言 2622
自然界 2621
末端 2621
亲切 2621
地平线 2621
之情 2620
麻醉@@ 2620
肺癌 2620
汪@@ 2620
闪光 2619
净利 2619
唯有 2619
世纪@@ 2618
枕头 2617
车轮 2617
动工 2617
外国@@ 2617
悬挂 2617
花朵 2617
SDI 2617
兑换 2617
心血管 2616
门票 2616
必备 2616
悦@@ 2614
水流 2614
就象 2614
追加 2614
立法@@ 2614
挽回 2613
犬@@ 2612
瑜伽 2612
法国人 2611
口语 2611
民事 2611
韩系 2611
失调 2611
霉 2611
除外 2610
纤维素 2610
进驻 2610
同业 2610
处方 2610
厂区 2609
速器 2609
雄心@@ 2608
高峰论坛 2608
脱落 2608
底座 2608
动员 2608
野外 2607
扮演着 2607
头顶 2607
科尔 2607
崔@@ 2607
结实 2607
人有 2606
紧急情况 2605
固态 2605
技术含量 2605
武力 2605
格雷 2605
被困 2604
衷@@ 2604
厌烦 2604
奶牛 2603
悲哀 2603
一团 2603
王者 2603
上路 2603
激光雷达 2602
颌@@ 2602
阵容 2602
纯度 2602
伊斯兰 2602
乾@@ 2602
示范@@ 2602
爪 2601
帷幕 2601
RS 2601
水库 2601
借贷 2601
普遍存在 2600
皂@@ 2600
馅饼 2600
EN@@ 2600
勘@@ 2600
相遇 2600
冷漠 2599
PU 2599
耀@@ 2599
开拓@@ 2599
粗鲁 2599
有限责任 2599
九月 2598
外光 2598
一幕 2597
oc@@ 2597
纳德 2597
合伙 2597
匆忙 2597
奔腾 2597
SA 2597
展上 2596
他家 2596
颈部 2596
献给 2595
藤@@ 2595
管子 2595
休息@@ 2594
制式 2594
背板 2594
韧性 2594
恐吓 2593
敢于 2593
联芯 2593
240 2592
可变 2592
两会 2592
事实证明 2591
口头 2591
说服力 2591
而出 2591
最新消息 2591
新奇 2591
席卷 2589
发货量 2589
归属 2589
分校 2589
选中 2589
蝙@@ 2589
闯入 2589
另一边 2588
击者 2588
三角形 2587
管理工作 2587
腐烂 2587
换机 2587
治安 2587
互联网@@ 2586
复仇 2586
大腿 2586
尤为重要 2586
做饭 2586
存取 2586
PRO@@ 2586
刘 2586
极好 2586
实话 2586
凭证 2586
减产 2585
猪肉 2585
地理位置 2585
湖北 2585
放慢 2585
锚@@ 2585
收看 2585
孤单 2585
开放性 2584
迷失 2584
负债@@ 2584
证监会 2583
阳极 2583
触控@@ 2583
揽 2583
原创 2583
电感器 2582
谷物 2582
被誉为 2582
内阁 2581
灵敏 2581
炸药 2581
电镜 2581
带你去 2580
自然资源 2580
IN 2580
交出 2579
竞争@@ 2579
ob@@ 2579
公爵 2579
僵局 2578
顶峰 2578
Power 2578
36% 2578
36.@@ 2577
海峡 2577
通报 2577
多于 2577
期货 2576
常务@@ 2576
学历 2576
邮箱 2575
购置 2575
上台 2575
遗嘱 2575
睾丸 2575
领头羊 2574
卡斯 2574
蛛@@ 2574
扮 2574
溶性 2573
克鲁@@ 2573
监管部门 2573
约翰逊 2573
林肯 2573
ps 2572
共存 2572
临床意义 2571
PDA 2571
酷乐视 2571
发疯 2571
风头 2571
不规则 2570
all@@ 2570
入围 2570
超车 2569
鹅@@ 2569
欧盟委员会 2569
投机 2569
点火 2569
电视剧 2569
体积小 2568
000@@ 2568
千亿 2568
藉@@ 2568
腺癌 2568
专属 2568
萨姆 2567
放映机 2567
维多利亚 2566
兴奋@@ 2566
遇上 2566
不光 2566
上衣 2566
殖民地 2566
为啥 2566
预备 2566
监护@@ 2565
筹集 2564
表达@@ 2564
mo@@ 2564
领取 2564
违规 2564
点头 2564
所作所为 2563
寸@@ 2563
TM 2563
香水 2563
上级 2563
剩@@ 2562
只想 2562
饱和度 2562
不复@@ 2561
造出 2561
骨干@@ 2561
住所 2560
堕落 2560
逮@@ 2560
巨型 2560
系统性 2560
报废 2559
流氓 2559
地表 2559
ton 2559
很久 2559
活泼 2559
浦 2558
昨天晚上 2558
高密度 2558
时空 2558
成熟度 2558
休克 2557
测试方法 2557
合物 2557
理想@@ 2557
叮@@ 2557
ev@@ 2557
保护区 2557
物理学家 2557
甜心 2557
迈阿密 2556
高贵 2556
皇后 2556
全美 2556
勿 2556
极少 2556
用处 2556
鸡肉 2555
流向 2555
丽丝 2555
著称 2555
虐 2555
天主教 2555
村田 2555
玉米@@ 2554
分流 2554
LP 2554
Ge@@ 2553
650 2553
骆@@ 2553
产地 2553
引来 2552
博世 2552
Q1 2552
坚 2552
液相 2551
32% 2551
档次 2551
火花 2551
盈余 2550
袋@@ 2550
深刻@@ 2550
扁 2550
附带 2550
借用 2550
数次 2550
野兽 2549
触觉 2549
继续@@ 2549
整齐 2549
理工@@ 2549
上空 2548
受众 2548
呵@@ 2548
宠 2548
赛迪 2547
吸取 2547
抬起 2547
幸存者 2547
惠州 2547
锂离子 2547
37.@@ 2547
转基因 2547
慨 2546
安保 2546
鳄@@ 2546
软弱 2546
推送 2545
实惠 2545
第一名 2545
修好 2545
多万 2544
The@@ 2544
养成 2544
后门 2543
肴 2543
潘 2543
生命力 2543
si@@ 2543
座椅 2542
辐射@@ 2542
叨 2542
调解 2542
矫正 2541
CE 2541
买入 2541
IC卡 2541
空缺 2541
层出不穷 2540
畏 2540
平衡@@ 2539
曼联 2539
工作电压 2539
小企业 2539
潜水 2539
孩@@ 2539
管辖 2538
ADAS 2538
能以 2538
中国科学院 2538
威力 2537
众议院 2537
清新 2536
换取 2536
保护主义 2536
实地 2536
寒武纪 2536
求婚 2536
二战 2534
早日 2534
形态学 2534
金斯 2534
锻@@ 2533
5s 2532
地去 2532
大势所趋 2532
安东@@ 2532
侄@@ 2531
co@@ 2531
饲养 2531
攻关 2531
运动会 2531
好笑 2530
Sony 2530
进球 2530
当地人 2530
糕@@ 2530
爱德华 2530
卖方 2530
摩西 2530
面貌 2529
Silicon@@ 2529
搞清楚 2529
盗版 2528
桨 2528
穿透 2528
盗窃 2528
萨拉 2528
亲近 2527
演绎 2527
29% 2526
性命 2526
多月 2526
噪@@ 2525
骸 2525
未曾 2524
目击者 2524
南斯@@ 2524
青蛙 2524
省去 2523
格雷@@ 2523
SRAM 2522
圈子 2522
血小板 2522
那座 2522
滑稽 2521
尼日利亚 2521
活动@@ 2521
人手 2521
问道 2521
提高效率 2520
绪@@ 2520
胆固醇 2519
流量计 2519
接通 2518
之日起 2518
I2C 2518
每晚 2518
而定 2518
株式会社 2518
伊斯兰@@ 2518
点子 2518
郊@@ 2518
矩形 2517
本科 2517
更少 2517
主频 2516
钓@@ 2516
伸 2516
结尾 2515
紧要 2515
裁军 2515
反感 2515
2022 2515
吋 2514
定论 2514
那件事 2514
链条 2514
特殊@@ 2514
顺差 2514
蒂斯 2513
颤抖 2513
专卖店 2512
臂@@ 2512
同年 2512
开关@@ 2512
梨 2512
品牌形象 2511
幼虫 2511
时性 2511
大雨 2510
远远@@ 2510
氮化 2510
魔力 2510
依赖@@ 2510
电子科技 2510
到时候 2509
断言 2509
内衣 2509
腺素 2509
亚利桑@@ 2509
车灯 2508
津贴 2508
印证 2507
自觉 2507
10000 2507
复用 2506
市场部 2506
分散@@ 2506
涅@@ 2506
个月 2505
不说 2505
撤出 2505
插头 2504
踝 2504
降温 2504
紊乱 2504
犯罪现场 2504
肯尼亚 2503
环境污染 2503
Vista 2503
交通事故 2503
GS 2503
谈起 2503
170 2503
殿@@ 2503
拆分 2503
不尽@@ 2503
编译器 2502
韧 2502
匪@@ 2502
此案 2502
同步@@ 2501
吓人 2501
悬崖 2501
舰队 2501
AA 2501
曼哈顿 2501
怀念 2500
统筹 2500
密封@@ 2500
剔@@ 2500
底线 2500
显示@@ 2500
送来 2500
保卫 2500
输入@@ 2499
微量 2499
听从 2499
订货 2499
酚@@ 2499
一经 2499
笑声 2499
hi@@ 2499
游览 2499
凯文 2499
猛进 2498
马里@@ 2498
通行 2498
两块 2498
纽约时报 2498
新来 2498
酗酒 2498
了个 2498
猎物 2497
狐狸 2496
内膜 2496
Hynix 2496
方方面面 2495
成份 2494
极低 2494
附着 2494
蜂蜜 2494
才行 2494
充电@@ 2494
中文@@ 2494
浮动 2494
看清 2493
胞 2493
电化学 2493
每片 2493
分类@@ 2493
某种意义 2493
滥 2493
问及 2492
66@@ 2492
敞开 2492
波及 2492
出人@@ 2492
mm@@ 2491
弗吉@@ 2491
毙 2491
Lo@@ 2491
保持稳定 2491
四条 2491
史蒂@@ 2491
体温 2490
香料 2490
体育馆 2490
为盈 2490
拖欠 2489
寡头 2489
走访 2489
CAN 2489
炫耀 2489
欣 2488
性化 2488
钢板 2488
馈 2488
坏死 2488
星际 2488
提供@@ 2488
抑制作用 2488
江山 2487
君子 2487
肃@@ 2487
魁@@ 2487
传染@@ 2487
汹@@ 2487
橱@@ 2486
大夫 2486
甜点 2486
热器 2486
左转 2486
亲人 2486
CES@@ 2486
半夜 2486
31% 2486
额定@@ 2486
数字家庭 2485
爆发式 2485
平凡 2485
锥 2485
调速 2485
成绩@@ 2484
弊端 2484
最新@@ 2484
歇尔 2484
胃口 2484
力晶 2484
优秀@@ 2483
光栅 2483
有害物质 2483
三者 2483
结石 2483
巴尔@@ 2483
晚安 2482
顺畅 2482
狐 2482
89@@ 2481
爹 2481
关机 2481
波特 2481
限定 2480
垄断@@ 2480
容性 2480
妻@@ 2479
撼@@ 2479
酵母 2479
角逐 2479
创纪录 2478
天鹅 2478
最坏 2478
28nm 2478
尔曼 2477
ROM 2477
雏@@ 2477
蒙特@@ 2477
不大@@ 2477
来电 2476
不曾 2476
特种 2476
等效 2476
奴 2476
今年初 2476
清晨 2476
% 2476
峰@@ 2476
一如既往 2475
眩@@ 2475
虔诚 2475
金山 2475
趋向 2475
雇@@ 2474
十二 2474
提出@@ 2474
浓 2474
随之而来 2473
世界银行 2473
夺取 2473
水肿 2473
引线 2473
镉 2472
Imagination 2472
归属于 2472
紧张@@ 2472
罗拉@@ 2472
谓 2471
认真@@ 2471
抑制剂 2471
AW@@ 2471
服务质量 2471
质感 2471
塌@@ 2470
多层 2470
装满 2470
开业 2470
编织 2470
税务@@ 2470
海豚 2470
我花 2469
美术@@ 2469
静脉@@ 2469
秃@@ 2468
勋 2468
220 2468
唇 2468
气相 2468
冲浪 2467
增长势头 2467
千兆 2467
几句 2467
青春@@ 2466
建设性 2466
生产者 2466
美德 2465
吸收@@ 2465
统治者 2465
国家电网 2465
抬 2465
构筑 2465
淫 2464
携 2464
开机 2463
任天堂 2463
打着 2463
服务平台 2462
被称作 2462
奇梦达 2462
镖 2462
庆典 2462
02 2462
智利 2462
微结构 2462
当心 2461
争执 2461
第二位 2461
括@@ 2460
光彩 2460
顾虑 2460
闪联 2460
优越@@ 2459
47@@ 2459
香槟 2459
共和党人 2458
脂肪酸 2458
发言@@ 2457
痛点 2457
发展壮大 2457
扎克 2457
铭 2457
38% 2457
共同体 2457
花生 2456
详 2456
ard 2456
稳步@@ 2456
雄性 2455
印第安人 2455
知不知道 2455
鬼魂 2455
变数 2455
严谨 2454
水道 2454
集成商 2454
距@@ 2454
31.@@ 2453
括 2452
醋@@ 2452
建筑师 2452
宇航员 2451
绸 2451
很久以前 2451
几小时 2450
湖泊 2450
弯道 2450
有点像 2450
就行 2450
一职 2449
斯洛@@ 2449
取胜 2449
福德 2449
定书 2449
相等 2449
接电话 2449
戴着 2449
防火墙 2448
颜 2448
集会 2448
化解 2448
SOA 2447
中医 2447
隐形 2447
通量 2447
台系 2447
筹划 2446
永久性 2446
照相 2446
担当 2446
放射 2446
可选 2446
Spansion 2445
适于 2445
分会 2444
气囊 2444
一页 2444
Mi@@ 2444
馏 2443
微软公司 2443
宫殿 2443
尤 2443
窦 2443
两地 2443
这门 2442
孕妇 2442
欠缺 2442
芒@@ 2441
情境 2441
不见@@ 2440
感性 2440
狠狠 2440
一味 2440
和物 2439
前身 2439
加利福尼亚州 2439
十月 2439
飞行器 2439
交叉@@ 2437
灌 2437
本性 2437
柔 2436
刻蚀 2436
亿只 2436
漫画 2436
毗@@ 2435
男孩子 2435
小学生 2435
方人 2435
Hu@@ 2434
折射@@ 2433
坚硬 2433
殊@@ 2433
改写 2433
才华 2432
ate@@ 2432
机动@@ 2432
缔约国 2431
疡 2431
前台 2431
免疫系统 2431
拙 2431
铐 2431
集成化 2430
晶电 2430
更多地 2430
Du@@ 2430
巴塞罗那 2429
极小 2429
XP 2428
连锁@@ 2428
下单 2428
编辑@@ 2427
直言 2427
在世界上 2427
期盼 2426
一季 2426
浓厚 2426
植株 2426
反响 2426
今年@@ 2425
人行道 2425
泥土 2425
捡 2425
尖锐 2425
听器 2425
主宰 2425
拓@@ 2424
煮@@ 2424
微粒 2423
USB3.0 2423
抢夺 2423
牡@@ 2422
打来 2422
不管怎么 2422
不乏 2422
三十年 2422
渊@@ 2422
琳@@ 2422
脉搏 2422
大桥 2421
瑕疵 2421
右转 2421
大跌 2420
笋 2420
油脂 2420
前走 2420
荧光@@ 2419
好些 2419
拐 2419
懦@@ 2418
光荣 2418
查出 2417
玩耍 2417
前端 2417
门前 2417
血迹 2417
基础性 2417
往年 2416
外部@@ 2416
淡水 2416
停牌 2416
Nexus@@ 2415
负极 2415
考虑一下 2415
窗外 2415
ne@@ 2415
扰乱 2415
喻 2414
忽 2414
视作 2414
Br@@ 2414
这支 2414
河北 2414
居民@@ 2414
很酷 2413
突起 2413
肺部 2413
羞辱 2413
伯爵 2413
生机 2412
根本原因 2412
薪资 2412
草莓 2412
那一刻 2412
展现出 2412
精确度 2412
查明 2411
卡扎菲 2411
誉@@ 2411
斯托@@ 2411
静止 2411
Max@@ 2410
收盘 2410
H.@@ 2410
视觉效果 2410
芳香 2409
造影 2409
闲 2409
塔利班 2409
TL@@ 2409
难看 2408
阵地 2408
华为公司 2407
汇集 2407
耗尽 2407
钞@@ 2407
侦测 2406
双向 2406
NA 2406
上皮 2406
车厢 2406
纠结 2406
傍@@ 2406
伦斯 2406
社会保障 2405
提振 2405
哈佛 2405
小家伙 2405
圣诞老人 2405
控股@@ 2405
折旧 2404
行动计划 2404
册@@ 2403
安定 2403
室友 2402
会以 2402
第一台 2402
奥利@@ 2402
演唱 2402
攻势 2401
痉挛 2401
带子 2401
佛罗里达 2401
申诉 2401
04 2400
招生 2400
初次 2400
数位 2400
正确@@ 2400
吞 2400
物价 2399
从未@@ 2399
暴雨 2399
棺@@ 2399
莎士比亚 2399
同位素 2398
相爱 2398
脸部 2398
不感兴趣 2398
交通工具 2397
男士 2397
不断完善 2397
美方 2397
趴@@ 2397
巢@@ 2396
珍 2396
10.5 2396
匀@@ 2396
重量级 2396
电路设计 2395
125 2394
99% 2394
承担@@ 2394
压低 2394
建设项目 2394
特殊性 2394
等国 2394
西装 2394
赎 2394
中之@@ 2394
EMS 2394
曲折 2394
居于 2393
们@@ 2393
害羞 2393
肉体 2393
警卫 2393
赠送 2393
连线 2393
第一阶段 2392
莱特 2392
不断创新 2392
维修@@ 2392
ker 2392
消耗@@ 2392
东亚 2392
风险@@ 2391
再也不会 2391
回报率 2391
供选择 2391
人际@@ 2391
Note 2390
柠檬 2390
趁 2390
懒 2390
右手 2389
脱水 2389
RT 2388
吃晚饭 2388
当地政府 2388
毛衣 2388
伍德 2387
降低@@ 2387
迦@@ 2387
亲吻 2387
底板 2387
贺 2387
沼@@ 2387
换言之 2387
置换 2386
Labs 2386
响应@@ 2386
孙子 2386
椰@@ 2385
Twitter 2385
会晤 2385
嫌 2385
遥感 2385
全国性 2385
美好@@ 2385
替代品 2384
走运 2384
绕过 2384
转播 2384
凝聚 2384
起火 2383
土著 2383
Ser@@ 2383
特大 2383
热衷于 2383
非常明显 2383
烹@@ 2383
DDR3 2382
分支机构 2382
1800 2382
匙 2382
小家电 2382
姿 2381
上层 2381
车厂 2381
谎 2381
鸽子 2381
第三章 2381
专项@@ 2381
闲置 2381
垢 2381
忍不住 2381
次级 2380
题材 2380
核算 2379
电性 2379
孕育 2379
电子地图 2379
中立 2379
6.5 2379
丰富@@ 2378
醇@@ 2378
固然 2378
活化 2378
皮肤@@ 2378
光通信 2378
米勒 2378
现存 2378
病毒@@ 2378
射线 2378
通用汽车 2377
倒霉 2377
嫁 2377
断开 2377
朽 2377
2.7 2377
好几@@ 2376
魂 2376
锤 2376
尉 2376
得意 2376
效仿 2375
ant@@ 2375
铝合金 2375
见见 2375
高功率 2375
迷路 2375
心目 2375
堆栈 2375
IPS 2374
惊叹 2374
爆破 2374
剪切 2374
马拉 2374
察觉 2374
打发 2374
基底 2374
恒定 2374
就绪 2374
BS 2373
备案 2373
OPPOR@@ 2373
栓塞 2373
辨别 2373
珊@@ 2373
血栓 2372
业余 2372
一出 2372
这幅 2371
有利@@ 2371
说好 2370
已久 2370
驳@@ 2370
外贸 2370
接替 2370
忆 2369
珍珠 2369
总算 2369
铅笔 2369
忘掉 2369
全景 2368
外科医生 2368
貌似 2368
组网 2368
CF@@ 2368
窟 2367
诵 2367
仪表@@ 2367
增强@@ 2367
崇高 2367
颅 2367
花园里 2367
仙 2366
采取@@ 2366
医学院 2366
她@@ 2366
上下@@ 2366
华人 2366
北极 2365
主控 2365
字典 2365
做工 2364
台厂 2364
此处 2364
新泽@@ 2364
锅@@ 2364
电费 2363
增发 2363
无尽 2363
仔@@ 2363
中游 2363
抗拒 2363
环形 2362
今天@@ 2362
自发 2362
第九@@ 2362
结核 2361
摄像 2361
渠道商 2361
脊 2361
椭@@ 2361
PCI@@ 2361
外语 2361
诀 2361
抉择 2361
屑@@ 2361
停机 2360
FM 2360
有无 2360
清洁@@ 2360
晚宴 2360
外加 2359
捍卫 2359
问候 2359
萎@@ 2359
借给 2359
礼仪 2359
潜艇 2359
惯 2359
患儿 2358
帖 2358
举例来说 2358
障碍@@ 2358
机能 2358
疲力@@ 2357
点心 2357
瓦斯 2357
TSMC 2357
陷入困境 2357
弱势 2357
必会 2357
蚀刻 2356
抛光 2356
转到 2356
交通运输 2355
并不需要 2355
44@@ 2355
国芯 2355
培训@@ 2355
铸 2355
钢筋 2355
韵 2355
椒 2354
蝶@@ 2354
严密 2354
本发明 2354
教士 2354
盛行 2354
表面@@ 2354
86@@ 2354
切实@@ 2354
撰@@ 2354
四十@@ 2353
上下文 2352
大笔 2352
讲究 2352
书中 2352
CC 2352
搁 2352
瑞克 2352
图象 2351
壮观 2351
全自动 2350
VI@@ 2350
来时 2350
他用 2350
贯彻 2350
东风 2350
灾难性 2350
大力@@ 2350
热带@@ 2350
展示@@ 2349
克斯坦 2349
漫游 2349
重度 2348
外人 2348
东北@@ 2348
1987 2348
黑洞 2348
共同开发 2348
征税 2348
保障@@ 2348
联接 2347
呼吸道 2347
岁@@ 2347
屈 2347
苦苦 2347
陕西 2346
冶金 2346
颂 2346
优惠@@ 2346
彦@@ 2345
独 2345
监护 2345
筒@@ 2344
语言@@ 2344
失常 2344
整流 2344
之夜 2344
冠捷 2344
苦恼 2344
第一条 2343
污染@@ 2343
洛斯 2343
可否 2343
研讨 2343
抓紧 2343
可信@@ 2342
借款 2342
印度尼西亚 2342
32.@@ 2342
如此@@ 2341
德州 2341
要花 2340
硕士 2340
1.0 2340
把戏 2340
赵伟国 2340
百分比 2339
本季度 2339
俘@@ 2339
难堪 2339
在必@@ 2339
约束@@ 2339
诺贝尔@@ 2338
北汽 2338
起家 2338
仿 2338
电池板 2338
怎样才能 2337
唤@@ 2337
牌子 2337
pl@@ 2337
血管@@ 2337
会议@@ 2337
驳回 2337
入驻 2336
脸色 2336
液态 2335
修正@@ 2335
不带 2334
懈@@ 2334
So@@ 2333
惟@@ 2332
毯@@ 2332
熬@@ 2332
三方 2332
学说 2332
SK@@ 2332
文艺@@ 2331
吞噬 2330
番茄 2330
蔚@@ 2330
华平 2330
SAP 2330
撬@@ 2330
研磨 2330
av@@ 2329
日趋@@ 2329
34% 2329
鸡尾@@ 2329
阅@@ 2328
属实 2328
ell 2328
收养 2328
太空@@ 2328
解析@@ 2328
微不足道 2328
汇顶 2328
宰 2327
乳腺 2327
价格竞争 2327
基金@@ 2327
海军@@ 2327
南海 2326
w 2326
师生 2326
用例 2326
驱使 2326
芯片业 2325
杀掉 2325
抗性 2325
浙江省 2325
检讨 2325
略微 2325
豫@@ 2324
33.@@ 2324
性能指标 2324
历来 2323
美国国会 2323
抗氧化 2323
细小 2323
资金投入 2323
废弃物 2322
奈米 2321
亚历山@@ 2321
畸@@ 2320
AO@@ 2320
轰炸 2319
带我去 2319
笼罩 2319
巴勒@@ 2319
大衣 2319
视察 2319
养老金 2318
脆 2318
往后 2318
闪光灯 2318
国主义 2318
旗帜 2318
难怪 2318
散布 2317
光泽 2316
水里 2316
文件系统 2316
立足@@ 2316
民生 2315
尼古@@ 2315
年收入 2315
是非 2315
日内瓦 2314
眉 2314
Air 2314
保有量 2314
汉字 2314
批发@@ 2314
ABB 2313
一辆车 2313
演唱@@ 2313
烧结 2313
两者之间 2313
初衷 2313
党员 2313
茄 2313
常识 2313
衬 2312
轨道@@ 2312
充沛 2312
约翰@@ 2312
应收 2311
UT 2311
快门 2311
伸展 2311
出国 2311
握住 2310
十几年 2310
嫌疑犯 2310
观望 2310
管家 2310
1080P 2310
大方 2310
金融时报 2310
忙于 2310
Home@@ 2309
行销 2309
网点 2309
少于 2309
经验丰富 2309
停工 2309
小朋友 2309
传染 2309
天津@@ 2309
全民 2309
数控 2308
受制于人 2308
军工 2307
愈加 2307
筑@@ 2306
栽@@ 2306
紫外 2306
谜@@ 2306
诈骗 2306
款人 2306
赠 2306
无机 2306
别无选择 2306
mAh 2306
娜@@ 2306
小船 2306
异构 2305
分担 2304
加油站 2304
实物 2304
结肠 2304
军团 2304
睿@@ 2304
探针 2304
助推 2303
赞助@@ 2303
颜料 2303
茫@@ 2303
Chro@@ 2303
一匹 2303
私人@@ 2302
渗 2301
保管 2301
挖矿 2301
疲倦 2301
适时 2301
高尚 2301
恨@@ 2301
经济性 2301
界线 2300
习惯于 2300
乏@@ 2299
卑鄙 2299
息息相关 2298
转录 2298
货运 2298
疲惫 2298
粘膜 2298
参阅 2297
劳动者 2297
正确性 2297
散热器 2297
沉积物 2297
乃是 2297
指令集 2297
露面 2297
卫星@@ 2296
我市 2296
寺@@ 2296
酵@@ 2296
矿石 2296
矿床 2296
P10 2295
yn@@ 2295
适配 2294
性爱 2294
喷射 2293
投资银行 2293
资讯科技 2293
2030 2293
规范化 2293
人要 2293
手机电池 2293
指针 2293
平坦 2293
扶 2293
无人@@ 2293
延时 2292
冷战 2292
孵@@ 2292
VO@@ 2292
十字架 2292
哈哈 2292
补丁 2292
格罗 2291
嚷 2291
亦可 2291
较弱 2291
都行 2291
增长幅度 2291
菲利@@ 2291
56@@ 2291
进行@@ 2290
轮机 2290
超大 2290
传给 2290
找回 2290
伴有 2290
裸 2289
试剂 2289
松下@@ 2289
抚养 2289
1400 2289
封面 2288
不惜 2288
一棵 2288
赔偿@@ 2288
我俩 2288
谢谢@@ 2288
关联@@ 2288
自治 2288
无形 2288
衍生物 2288
事要 2287
增加@@ 2287
并不多 2287
模样 2287
无能为力 2287
西雅图 2286
过失 2285
衣物 2285
敌意 2285
谤 2284
路易斯 2284
赌注 2284
斯加 2284
亥@@ 2283
琐@@ 2283
业务流程 2283
纺@@ 2283
北极@@ 2283
辰 2283
高集成度 2283
错误@@ 2282
入网 2282
想必 2282
尔文 2281
脑部 2281
揭晓 2281
晨 2281
经常@@ 2281
am 2281
ITC 2280
爪@@ 2280
殖民@@ 2280
五十@@ 2280
尽量@@ 2280
令人兴奋 2280
三星公司 2279
面市 2279
况且 2279
ter 2279
骄@@ 2278
暑假 2278
脊柱 2278
聘用 2278
索尼@@ 2278
出事 2277
心室 2277
一整套 2277
人去 2277
谅解 2276
脂肪@@ 2276
极有 2276
切开 2276
暖和 2276
使用权 2276
酶@@ 2275
化率 2275
更深 2275
化学反应 2275
访谈 2274
漫步 2273
胚 2273
破灭 2273
八月 2273
海滨 2273
矿业 2273
扫描仪 2273
色谱法 2272
横跨 2272
麻省@@ 2271
获奖 2271
符@@ 2271
分裂@@ 2271
过夜 2271
周期@@ 2270
多普勒 2270
姻@@ 2270
门户 2270
骨干 2270
盏 2270
繁琐 2270
低调 2270
线粒体 2269
食管 2268
财务状况 2268
海里 2267
照料 2267
待会 2267
怀特 2267
佐 2266
货量 2266
起源于 2266
拭@@ 2266
时段 2266
菲特 2266
应得 2265
OR@@ 2265
Rob@@ 2265
套装 2265
麦当@@ 2265
可扩展性 2264
受够了 2264
万盏 2264
驱 2264
菲尔 2264
恕 2264
谎@@ 2264
辞去 2263
扩增 2263
效率高 2263
恢复正常 2263
新手 2262
哟 2262
哪家 2262
蓝海 2262
心病 2261
UPS 2261
决策者 2261
不如@@ 2261
内侧 2261
合一 2261
提速 2261
机车 2261
自然灾害 2260
病房 2260
SL@@ 2260
顺着 2260
巅峰 2259
农作物 2259
牛仔裤 2259
东欧 2258
媒体@@ 2258
易用性 2258
疑惑 2258
一流 2258
不对@@ 2258
AG@@ 2258
在此期间 2257
囚@@ 2257
号召 2257
口径 2257
窘境 2257
智能网 2257
先进@@ 2256
今年底 2256
简单@@ 2256
先驱 2256
Atom 2256
打压 2256
测试仪 2255
婆@@ 2255
参展商 2255
久性 2255
架子 2255
践@@ 2255
分娩 2254
后来@@ 2254
负增长 2254
软件产业 2254
无罪 2254
2.6 2254
厌 2254
从业者 2253
安德鲁 2253
丢弃 2253
DA@@ 2253
复习 2252
维也纳 2252
无一@@ 2252
IE@@ 2252
人间 2251
梵@@ 2251
禁售 2251
纬 2251
800@@ 2251
主营 2251
天猫 2250
精确@@ 2250
熙 2250
灌溉 2250
光环 2250
走高 2249
后方 2249
贴合 2249
下个 2249
大哥 2249
256@@ 2248
工具包 2248
兄@@ 2248
IHSiSuppli 2248
非常简单 2248
口中 2248
制冷 2247
共用 2247
挤出 2247
没人会 2247
并不大 2246
寿命@@ 2246
审计@@ 2246
渺@@ 2246
蹈@@ 2245
追溯到 2245
测定方法 2245
椭圆 2245
布满 2245
择@@ 2244
洛伊 2244
克拉 2244
删@@ 2244
赚取 2244
紧跟 2244
背包 2243
覆盖率 2243
合法性 2243
A股 2243
39.@@ 2242
喋@@ 2242
部手机 2242
SMT 2242
淋巴@@ 2242
安全感 2242
ms 2241
沾 2241
安全带 2241
声波 2241
拾@@ 2241
雅典 2241
留住 2241
前夕 2241
金融服务 2240
不容忽视 2240
肖 2240
多变 2240
方正 2240
正试图 2240
再造 2239
摄入 2239
聋 2239
镀 2239
无穷@@ 2239
荒唐 2239
功课 2239
方便@@ 2238
根基 2238
近几@@ 2238
体操 2238
骑马 2237
电池@@ 2237
布莱尔 2237
枕@@ 2237
穗 2236
当务之急 2236
商界 2235
颜值 2235
转化成 2235
大批量 2235
拟定 2235
热心 2235
难说 2235
山西 2235
极佳 2235
自由主义 2234
适应@@ 2234
数控@@ 2234
迪克 2233
饶@@ 2233
同胞 2233
基数 2233
凸 2233
好几年 2232
氨 2232
看中 2232
坑@@ 2232
ir@@ 2232
般@@ 2232
越来越少 2232
ay 2231
38.@@ 2231
清白 2231
巫师 2231
大有@@ 2231
配对 2231
娇@@ 2230
不能不 2230
tu@@ 2230
纺织品 2230
农民@@ 2230
服务中心 2230
立体声 2229
向着 2229
不快 2229
谨@@ 2229
缆@@ 2228
浑身 2228
延误 2227
新月@@ 2227
意在 2227
务必 2227
无序 2226
稳居 2226
深远 2226
魔术 2226
竞争性 2225
2S 2225
业务收入 2225
这么@@ 2225
头来 2225
货源 2225
不懂 2224
着火 2224
参观者 2224
电镀 2224
取而代之 2224
地基 2223
消息@@ 2223
q 2223
不成@@ 2223
创业@@ 2222
撕裂 2222
人事@@ 2222
争辩 2222
迪科 2221
软体 2221
奥迪 2221
.... 2221
韩国三星 2221
重用 2221
灼@@ 2221
台风 2221
回合 2221
定居 2221
怜悯 2221
虚构 2220
减低 2220
峡@@ 2220
赶走 2219
P20 2219
ax 2219
狙@@ 2219
唯冠 2219
命题 2218
CAD 2218
驴 2218
戏剧性 2218
未婚@@ 2218
创性 2218
区域@@ 2218
特意 2217
回顾性 2217
墓地 2217
体育场 2217
岸线 2216
可悲 2216
EV 2216
绊@@ 2216
挡住 2216
财力 2216
敷@@ 2216
客服 2216
因数 2216
实习@@ 2215
二十 2215
高高@@ 2215
解决@@ 2215
委托人 2215
管理模式 2215
平井 2215
克莱尔 2215
诽@@ 2215
犯错 2214
论者 2214
对话@@ 2214
轻轻地 2214
叙@@ 2214
紧缺 2213
泼@@ 2212
遥遥@@ 2212
狡猾 2212
放手 2212
往前 2212
边缘@@ 2212
温馨 2212
实测 2212
上行 2211
老妈 2211
绍@@ 2211
安全隐患 2211
从业@@ 2211
末日 2211
促进作用 2211
跳动 2211
过错 2210
亲眼@@ 2210
流媒体 2210
Model3 2209
连同 2209
晋华 2209
枪击 2209
据点 2208
勤奋 2208
致死 2208
不起@@ 2208
机种 2208
瞧瞧 2208
一氧化@@ 2208
寂@@ 2208
撤回 2208
琳娜 2207
氯化@@ 2207
即便如此 2207
技术升级 2207
纯洁 2207
食堂 2207
阁@@ 2207
必要@@ 2206
靠着 2206
手机操作系统 2206
法国@@ 2206
三成 2206
两台 2206
时才 2206
盾@@ 2206
CSR 2206
评论家 2206
中央政府 2206
发送@@ 2205
独角兽 2205
人用 2205
铀 2205
Hol@@ 2205
PN@@ 2205
篮子 2205
集中精力 2204
陨@@ 2204
结核@@ 2203
看点 2203
替代@@ 2203
耀眼 2203
引诱 2203
腹泻 2203
憎恨 2203
电子设计 2203
近距离 2203
搞笑 2202
行性 2202
Helio@@ 2202
300mm 2202
追随 2202
学业 2202
国际品牌 2201
塔尔 2201
AN 2201
绚@@ 2201
寄给 2201
回忆@@ 2201
led 2201
酱@@ 2201
安哥拉 2200
入睡 2200
上榜 2199
竣工 2199
宴 2199
肉类 2199
900@@ 2198
房租 2198
瘤@@ 2198
五十 2198
情人节 2198
泪水 2197
重任 2197
紫 2197
全系列 2197
GS@@ 2196
撤退 2196
乖乖 2196
各个环节 2196
水电 2196
螺钉 2196
拉斯@@ 2196
臀部 2195
谨 2195
会话 2195
NT 2195
OT@@ 2195
门锁 2194
现身 2194
共同点 2194
ear@@ 2194
37% 2194
49@@ 2194
嬉@@ 2194
one 2194
深深地 2193
蜡@@ 2193
降压 2193
域名 2193
范例 2193
头衔 2193
出版物 2192
构架 2192
展厅 2192
淫@@ 2191
股票市场 2191
初创 2191
数十亿美元 2190
PE 2190
愈来愈 2190
哈佛@@ 2190
地中海 2190
搁置 2190
无关@@ 2190
乌 2189
帕特@@ 2189
手掌 2189
区域性 2189
莫过于 2189
系统地 2189
矿山 2189
一团糟 2189
梭@@ 2188
RoHS 2188
运河 2188
东地区 2188
正当@@ 2188
ation@@ 2187
尼奥 2187
凤凰 2186
战队 2186
剃@@ 2186
盘点 2185
跟不上 2185
救生@@ 2185
市政 2185
铵 2185
西班牙语 2184
余额 2184
统计学 2183
辑 2183
公用 2183
阿姨 2183
MI 2183
大潮 2183
遍及 2183
弛 2183
并不知道 2182
VGA 2182
偏向 2182
方位 2182
递给 2182
小心翼翼 2182
一家@@ 2181
澳 2181
印制电路 2181
ley 2181
誓言 2181
瑰@@ 2181
To@@ 2181
推进@@ 2180
编码器 2180
兼具 2180
掌声 2180
十一 2180
简约 2180
十五@@ 2179
安心 2179
架构@@ 2179
环境影响 2179
铁矿石 2179
白电 2178
参赛@@ 2178
学习者 2178
开火 2178
墟 2178
吼 2178
企业级 2178
林斯 2177
Verizon 2177
边形 2177
43% 2177
广州市 2177
罢@@ 2177
二人 2177
弗朗@@ 2176
驳 2176
状体 2176
大大的 2176
LV@@ 2176
银色 2176
海伦 2175
浮现 2175
排放量 2175
中枢 2175
攻克 2175
保险丝 2174
城乡 2174
该类 2174
外交部 2174
堆积 2174
厚望 2174
克罗地@@ 2173
电解@@ 2173
电解质 2173
旬 2173
禁用 2172
内疚 2172
牙医 2172
暴风 2172
寄生虫 2171
智商 2171
热水器 2171
播放@@ 2171
球赛 2171
迭@@ 2171
丑陋 2171
集体@@ 2171
火鸡 2171
ET 2170
体力 2170
兽@@ 2170
空闲 2170
竞相 2170
责任感 2169
日产 2169
极其@@ 2169
瞎 2169
棵树 2169
精华 2169
摩根@@ 2169
铺设 2169
管理器 2168
僵尸 2168
灿 2168
气压 2168
忧郁 2168
天体 2168
贫血 2168
懒惰 2168
源泉 2167
ex@@ 2167
功能强大 2167
司法部 2167
到场 2167
国籍 2166
电解液 2166
领跑 2166
蹦@@ 2166
华润 2166
米粉 2165
au@@ 2165
强行 2165
菊 2165
恳求 2165
凯尔 2165
会计准则 2165
海中 2165
着眼于 2165
屈服 2165
兽医 2165
蚊子 2165
突围 2165
独立性 2164
髋@@ 2164
阶段性 2164
Design@@ 2163
调味@@ 2163
抗菌 2163
3.6 2163
尘器 2163
订婚 2163
福建@@ 2163
储量 2163
搬迁 2163
一枪 2162
深信 2162
几项 2162
并行@@ 2162
无家可@@ 2161
掺杂 2161
证券交易所 2161
门人 2160
郊 2160
短语 2160
见识 2160
卫生组织 2160
余力 2160
无线通讯 2160
肯尼迪 2160
前一天 2159
3.2 2159
1988 2159
清华 2159
贴装 2159
搬运 2159
观察家 2158
这么久 2158
唠@@ 2158
绷@@ 2158
身穿 2158
扭 2157
路程 2157
紧接着 2157
陆军 2157
毫无意义 2157
Samsung@@ 2156
光辉 2156
Fab@@ 2156
橘@@ 2156
武士 2156
连续性 2156
租用 2155
粮食@@ 2155
渔业 2155
每家 2155
会员@@ 2155
调低 2155
嗅觉 2155
SN@@ 2155
嫌疑 2154
海地区 2153
碘 2153
ep@@ 2153
冰川 2153
咱@@ 2153
检修 2153
分析家 2152
尼克@@ 2152
铲@@ 2152
工控 2151
Play@@ 2151
无损 2151
定位系统 2151
脑海 2151
显着 2151
侵袭 2150
耕地 2150
麻痹 2150
外地 2150
挚 2150
淋巴细胞 2150
Q2 2150
he@@ 2150
争斗 2150
达到@@ 2149
美化 2149
非常低 2149
骚乱 2149
埋葬 2149
ate 2149
分红 2149
支付宝 2148
紧随其后 2148
销毁 2148
咒 2148
小姑娘 2148
荆@@ 2148
胶片 2147
博士学位 2147
碟@@ 2147
日历 2147
疏散 2147
另据 2147
电磁干扰 2147
枪支 2146
传输速度 2146
加沙 2146
誓@@ 2146
尔默 2146
唉 2146
腺炎 2145
淋巴 2145
Th@@ 2145
比拼 2145
绣 2144
领先水平 2144
周到 2144
退税 2144
缩写 2144
讨 2143
栽 2143
马云 2143
遂 2143
冶@@ 2143
凝固 2142
阿曼 2142
戊@@ 2142
先例 2142
封测@@ 2142
祈求 2141
和谐@@ 2141
活下去 2141
性能@@ 2141
利益@@ 2141
栗 2140
扇门 2140
修道@@ 2140
早上好 2140
飞往 2140
手术室 2140
西西@@ 2139
度高 2139
沦为 2139
湾@@ 2138
敬畏 2138
再用 2138
身旁 2138
窦@@ 2138
适用@@ 2137
核心部件 2137
移交 2137
内镜 2136
信服 2136
上广电 2136
抗议者 2136
大肠@@ 2135
弹药 2135
漂移 2135
该市 2135
77@@ 2135
名列 2135
ke 2134
首脑@@ 2134
护者 2134
海马 2134
自在 2134
检查一下 2134
一队 2133
环路 2133
民族主义 2133
慕 2133
账号 2133
现实生活 2133
玩得 2132
乃 2132
锈 2132
硒 2132
新手机 2131
夺得 2131
PI 2131
力学@@ 2131
长长的 2130
疟疾 2130
Christie 2129
决不会 2129
爱心 2129
颗粒@@ 2129
WP 2129
莓 2129
定为 2129
聪明@@ 2128
沼泽 2128
Super@@ 2128
Display@@ 2128
总产量 2128
击手 2128
冰冷 2128
巷@@ 2127
Phone 2127
抵 2127
葛 2127
洛普 2127
威斯@@ 2126
手可@@ 2126
上门 2126
理所当然 2126
生产厂 2126
合剂 2126
队友 2125
螺丝 2125
ASP 2125
悲痛 2125
well 2124
卸 2124
媚 2124
年份 2124
最小化 2124
强悍 2124
资产阶级 2124
皱纹 2123
枢纽 2123
bo@@ 2123
商讨 2123
邪@@ 2123
成败 2123
烧烤 2122
42@@ 2122
重型 2122
克利@@ 2122
失败@@ 2122
3.1 2121
譬如 2121
枢@@ 2121
油机 2121
酰 2120
联邦@@ 2120
受益@@ 2120
外科手术 2120
想得到 2119
走来 2119
丧生 2119
服役 2119
柯 2119
作法 2118
减压 2118
烫@@ 2118
忏悔 2118
华南 2118
退市 2118
义务教育 2117
奥林匹克 2117
人脑 2117
宝贝儿 2116
xx 2116
疲弱 2116
格鲁吉亚 2115
加值 2115
继续下去 2115
谈会 2115
哄@@ 2115
牧场 2115
函@@ 2115
逆差 2114
85@@ 2114
褪@@ 2114
限期 2114
仅限于 2114
1700 2114
矽品 2114
古典@@ 2114
pe@@ 2114
风能 2114
发展史 2113
101 2113
微博上 2113
新华社 2113
42% 2113
欣慰 2112
槟@@ 2112
胫@@ 2112
vivoX@@ 2112
诺言 2112
转折点 2112
果断 2112
交织 2111
旅 2111
残余 2111
综合症 2111
物件 2110
再来 2110
监 2110
傅@@ 2110
PR@@ 2110
认知@@ 2110
死后 2110
鹦@@ 2109
惜 2109
伊利@@ 2109
1100 2109
朝鲜@@ 2109
当今世界 2109
意想不到 2109
44% 2109
扩容 2109
营养不良 2109
bit 2109
TDK 2108
撇@@ 2108
希特勒 2108
实实在在 2108
1080p 2108
对焦 2107
南美 2107
偏高 2107
宁可 2107
规章 2107
起始 2106
首领 2106
盘价 2106
FC 2106
活儿 2106
刻意 2106
MD 2106
下达 2105
BO@@ 2105
病理学 2105
第二阶段 2105
512@@ 2105
财政补贴 2105
工业生产 2105
落到 2105
互操作性 2105
次世界大战 2105
哑@@ 2105
不知不觉 2104
现实意义 2104
筹资 2103
提早 2103
不全 2103
临床表现 2103
纳斯 2103
夸 2103
低频 2103
侈 2103
马铃@@ 2103
IDT 2102
个人资料 2102
爆出 2101
一模一样 2101
旅行者 2101
庆幸 2101
藻@@ 2101
顶点 2101
购物@@ 2101
入门 2101
靴子 2100
宇宙@@ 2100
Mark@@ 2100
欧德@@ 2100
师傅 2099
粘度 2099
特纳 2099
流水线 2099
珊瑚 2099
宽广 2099
淋巴结 2099
欧洲人 2099
蒸 2099
先天 2098
柬埔寨 2098
痰 2098
49% 2098
粪便 2098
宏斌 2098
受益者 2098
颠 2097
嗡@@ 2097
其间 2097
创业板 2097
发表声明 2097
福州 2097
贝尔@@ 2097
修女 2097
转变成 2096
no@@ 2096
通告 2096
纳粹 2096
剧场 2095
镜片 2095
蒋@@ 2095
本季 2095
亵@@ 2095
身于 2095
金矿 2094
为重要 2094
转过 2094
投资规模 2094
尺@@ 2094
层次@@ 2094
激动人心 2094
要紧 2094
水池 2094
用法 2094
冠状动脉 2094
起身 2094
第一章 2094
手柄 2093
文斯 2093
贤@@ 2093
普尔 2093
纪念品 2093
ash@@ 2093
日经 2093
籽 2092
Phone@@ 2092
ner 2091
ve 2090
幼 2090
榴@@ 2089
03 2088
La@@ 2087
捐 2087
苷@@ 2086
龟@@ 2086
ia 2086
QU@@ 2084
ure@@ 2083
ok@@ 2082
立体@@ 2082
扫描@@ 2079
se@@ 2078
燥 2078
遥 2077
价值@@ 2076
运营@@ 2076
250@@ 2076
慰 2075
赴@@ 2075
IV@@ 2074
5S 2072
噱@@ 2070
Global@@ 2069
眨@@ 2069
GA 2067
卑 2066
电阻@@ 2066
大幅@@ 2065
比亚@@ 2065
满足@@ 2063
嗪 2062
淹@@ 2062
逛@@ 2061
乏 2058
呵 2057
弘@@ 2057
澎@@ 2057
吡@@ 2056
篡@@ 2056
蜗@@ 2056
USB@@ 2055
蛮 2055
溃@@ 2053
毕业@@ 2053
哄 2052
稿@@ 2051
俭 2050
路易@@ 2050
地下@@ 2050
tr@@ 2049
哲 2048
很久@@ 2048
葵 2048
酬@@ 2047
阀@@ 2046
堕@@ 2045
革命@@ 2045
iphone 2045
未有 2044
Col@@ 2043
拽 2043
IGZO 2043
Cor@@ 2043
Ra@@ 2043
STM@@ 2042
QQ 2041
OM@@ 2041
轩 2040
迭 2039
Min@@ 2038
Mobileye 2038
碗@@ 2036
冗@@ 2036
5G@@ 2032
暇 2032
mW 2032
观者 2030
饶 2029
est@@ 2028
杉@@ 2027
概 2027
年轻@@ 2027
ow@@ 2027
杜 2027
坯 2026
总值 2026
毯 2025
be 2025
压缩@@ 2025
4.2 2025
ix 2024
泵@@ 2023
Vis@@ 2023
疱@@ 2023
侏@@ 2022
器械 2021
政府@@ 2021
蹲 2020
筑 2020
马斯 2019
互通 2019
朋 2018
晖 2018
il 2017
高点 2014
投入@@ 2014
棘 2013
党人 2013
蘑@@ 2013
蔡 2013
奈 2012
UN@@ 2012
NT@@ 2012
GF 2011
瘫 2010
Core@@ 2009
拌@@ 2009
int@@ 2009
滔@@ 2009
320 2006
and 2005
tic@@ 2005
Kin@@ 2003
盼 2003
74@@ 2000
亨 1999
凳 1999
领先@@ 1998
整套 1997
疤 1997
揭 1996
190 1994
涤@@ 1994
冤@@ 1994
蝠 1994
狠 1993
Exynos@@ 1993
FP@@ 1993
姨@@ 1993
960 1992
book 1992
IEEE@@ 1992
MOS 1992
GO 1991
睫 1991
PE@@ 1990
sp@@ 1990
SPI 1989
竞 1987
Dat@@ 1986
侯 1985
宰@@ 1985
sh@@ 1984
ph@@ 1983
DV@@ 1982
天性 1982
肛@@ 1982
停车@@ 1980
14nm 1980
尼亚州 1980
260 1980
230 1979
侈@@ 1979
嚣 1978
钳@@ 1974
TP@@ 1974
甘 1973
歉@@ 1973
星期@@ 1973
洒@@ 1972
湃 1972
媒@@ 1972
IO@@ 1971
稚 1970
Sense 1970
穴@@ 1969
询@@ 1969
鹰@@ 1968
鳍 1968
iPadmini 1967
膛 1967
亚历@@ 1966
Surface@@ 1966
蜜 1966
跤 1966
僧@@ 1965
玲 1964
准确@@ 1964
袁@@ 1964
PN 1963
褶@@ 1963
孢@@ 1963
450@@ 1963
45.@@ 1963
旨 1963
腻 1962
差异@@ 1962
PT@@ 1962
TT@@ 1961
FS 1961
挑战@@ 1961
怕@@ 1960
镁@@ 1960
型化 1960
渊 1958
注射@@ 1957
魂@@ 1956
纶 1956
颖 1956
id 1956
ie 1955
屡 1955
悉 1954
咄@@ 1954
悲 1954
成熟@@ 1953
渴@@ 1952
晶体@@ 1952
Ap@@ 1950
逗 1949
智能@@ 1948
VD 1948
华盛@@ 1948
幅@@ 1947
想不到 1947
硼 1947
利于 1946
0.8 1946
睑 1945
炙@@ 1945
翠@@ 1945
捡@@ 1945
Sky@@ 1945
盎@@ 1945
贱 1944
锚 1943
Po@@ 1943
az@@ 1943
Mouser 1942
彬 1942
凄@@ 1942
秆 1940
卦 1939
狩@@ 1939
咕@@ 1939
诟@@ 1937
讳 1937
BOM 1936
卿 1936
捉 1934
栖 1934
敞@@ 1933
810 1933
饵 1932
督 1932
罢 1931
1985 1931
菠@@ 1931
衅 1931
凑 1931
Molex 1931
渎 1929
现金@@ 1928
狮@@ 1927
280 1926
奠@@ 1925
Cl@@ 1924
胱@@ 1923
适 1923
绸@@ 1922
利润@@ 1922
嗜 1922
ITO 1921
发表@@ 1921
Max 1920
涵@@ 1920
铟 1920
恼 1919
AMD@@ 1919
超级@@ 1918
液晶@@ 1918
Bar@@ 1917
陀 1917
辱@@ 1917
舔 1917
Ben@@ 1916
啡 1914
MIX@@ 1913
34.@@ 1912
电动@@ 1912
TB 1911
LEDTV 1911
新生@@ 1911
徐 1909
KB 1909
ler 1908
CS 1908
沐@@ 1908
腓@@ 1907
一无@@ 1906
Vision 1905
粥 1904
GWh 1904
惑@@ 1903
翅@@ 1903
刃@@ 1903
欢 1903
be@@ 1902
750 1902
ind@@ 1901
Per@@ 1901
2.8 1900
芒 1898
机器@@ 1897
耍@@ 1897
褐@@ 1897
ZigBee 1897
凿 1897
喻@@ 1896
Tel@@ 1896
抄 1895
透明@@ 1894
永 1894
搅 1892
舵 1891
盒@@ 1890
絮@@ 1890
HB@@ 1889
贿 1888
4.3 1888
WitsView 1888
缅@@ 1887
高峰@@ 1887
Magic@@ 1887
Hi@@ 1884
pH 1883
920 1883
蜕@@ 1882
GT@@ 1880
LE 1878
da 1876
2C 1874
Q3 1873
泳池 1873
疆 1872
跪 1871
东省 1870
昨天@@ 1869
6s 1868
馀 1868
蹄 1868
吝@@ 1867
Un@@ 1865
CL@@ 1865
靶 1865
定位@@ 1864
Sig@@ 1864
WP@@ 1863
杠 1862
渤@@ 1862
僻 1862
觑 1861
运会 1861
AD 1861
仕 1861
输出@@ 1859
53@@ 1859
彬@@ 1857
爽@@ 1857
Group 1857
接收@@ 1856
秽 1855
Solar@@ 1855
Ste@@ 1855
赦@@ 1854
梢 1854
行业@@ 1854
MP4 1854
捏@@ 1853
而易@@ 1853
挽@@ 1852
迅 1851
胺@@ 1851
矢@@ 1851
驰@@ 1851
化剂 1850
瘟@@ 1850
域@@ 1850
腥 1850
ov@@ 1850
1984 1849
荼 1849
窄@@ 1849
贤 1848
颂@@ 1847
哨@@ 1846
怯 1845
耿@@ 1845
咪@@ 1845
P9 1844
Pl@@ 1844
MM@@ 1843
辄 1842
720@@ 1842
GIS 1842
厉@@ 1841
the@@ 1840
廷@@ 1840
奥林匹@@ 1840
瞻@@ 1840
捏 1839
篷 1839
瞻 1838
姓@@ 1838
崩 1838
EL@@ 1838
EE 1836
糙@@ 1836
稣@@ 1836
No@@ 1835
SOC 1835
戮 1834
厘@@ 1832
鹉 1832
刃 1832
噬@@ 1831
圭 1830
1986 1829
一小@@ 1829
io 1828
DDR 1827
Mobile 1827
erg@@ 1827
稠@@ 1827
脾@@ 1827
CB@@ 1827
僚@@ 1826
疆@@ 1826
BP 1825
且@@ 1825
卒 1825
Blue@@ 1824
洗衣@@ 1824
确 1824
US 1823
斧@@ 1823
Fire@@ 1822
54@@ 1820
ce@@ 1820
660 1820
便携@@ 1820
鄙@@ 1820
悔 1819
950 1819
渣@@ 1818
国产@@ 1817
Go@@ 1817
V2 1816
裹 1816
Log@@ 1814
裤@@ 1813
鲨 1813
Fre@@ 1813
愁@@ 1812
710 1812
der@@ 1810
犀@@ 1810
三角@@ 1809
析@@ 1809
涤 1808
斯达@@ 1807
伙@@ 1805
Har@@ 1805
Nan@@ 1803
坠 1803
Symbian 1802
嗅@@ 1802
锯 1802
0.1 1802
箔 1802
惜@@ 1802
aw@@ 1801
烛@@ 1801
0.6 1801
Gen@@ 1799
UL 1799
SU@@ 1799
ISL@@ 1798
筛 1796
羧@@ 1795
敷 1793
怎么@@ 1793
拧@@ 1792
Jo@@ 1790
操作性 1790
MH@@ 1790
UHD 1790
me 1789
兔@@ 1788
CEO@@ 1787
Gb@@ 1787
4500 1787
代理@@ 1787
揽@@ 1787
co 1786
钩@@ 1786
供应@@ 1785
SS 1783
SF@@ 1782
矛@@ 1782
Nor@@ 1782
Am@@ 1781
1989 1780
ER 1780
相当@@ 1779
睁 1778
稼 1778
700@@ 1778
碾@@ 1777
肇@@ 1776
坤 1776
极管 1776
ModelS 1776
棚@@ 1775
发器 1775
豚@@ 1774
PCI 1774
AVS 1774
簇 1773
210 1773
莽 1772
Samsung 1772
ite 1771
孽 1770
S8 1770
AU@@ 1770
IV 1770
NET 1769
FO@@ 1769
ATI 1767
ry@@ 1766
魅@@ 1764
担 1763
乍@@ 1762
昔 1762
HK 1762
集团@@ 1761
HPLC 1761
MIMO 1760
IF 1758
粪 1758
eg@@ 1756
熵 1756
事业@@ 1755
榄 1755
铂 1755
He@@ 1754
IM 1750
筝 1750
成长@@ 1749
萧@@ 1748
咋 1748
ERP 1746
骚@@ 1746
溴@@ 1746
燕 1745
暑@@ 1745
赔 1745
殴@@ 1745
启 1745
拮@@ 1744
拾 1744
台币 1744
47.@@ 1744
哑 1744
VR@@ 1744
孜@@ 1743
&@@ 1743
酮@@ 1743
FS@@ 1742
3GPP 1741
SDK 1741
汲@@ 1741
绰@@ 1740
畔 1740
CP 1738
翁 1738
涵 1737
MP 1736
坪 1735
改革@@ 1735
您@@ 1734
49.@@ 1734
du@@ 1734
柿 1732
ML 1731
诈@@ 1730
弗兰@@ 1730
鸦@@ 1730
腕 1729
R1 1729
浊 1729
MIUI 1728
102 1727
ics 1727
诞 1727
咯@@ 1727
姬 1727
年人 1727
搁@@ 1726
bi@@ 1726
碘@@ 1724
Express 1724
岌@@ 1723
谭@@ 1723
玫@@ 1723
虹 1722
理会 1721
笔记@@ 1721
缕 1721
抒@@ 1720
TR@@ 1720
砷@@ 1718
漩@@ 1718
搜 1718
轨@@ 1717
喇@@ 1717
aS 1716
印机 1715
坊@@ 1714
辟@@ 1713
撤 1713
分布@@ 1713
Gb 1711
淋 1711
Cadence 1711
一致@@ 1711
捅 1711
ine@@ 1710
Sem@@ 1710
渠 1708
桂 1708
连续@@ 1708
瞒 1708
帖@@ 1708
悼 1708
3G@@ 1707
Tech@@ 1707
秘书@@ 1707
砸@@ 1707
PIC@@ 1706
ey 1706
AppStore 1706
克萨@@ 1704
吗@@ 1704
靴 1703
264 1703
40.@@ 1703
悖@@ 1702
VoIP 1701
俏 1701
OF@@ 1700
手术@@ 1700
翅 1699
闯 1699
强制@@ 1697
Sil@@ 1697
厨 1696
陕@@ 1696
128 1694
nov@@ 1694
IBM@@ 1693
踩@@ 1693
google 1692
琥@@ 1692
One@@ 1692
匿@@ 1691
掩 1691
挨 1691
孢 1690
蕴 1690
ni@@ 1689
脾 1687
柳 1687
1.9 1686
岂 1686
辐@@ 1685
耦 1684
质性 1683
46.@@ 1683
浸 1683
甲状@@ 1683
HS 1682
博会 1681
COM 1681
膳@@ 1681
Java@@ 1681
AG 1681
啥@@ 1681
夕 1680
0.3 1680
囤@@ 1679
Sun@@ 1679
谍@@ 1678
facebook 1678
ta 1677
注意@@ 1677
吟 1677
Q4 1677
BOE 1676
廉 1675
砷 1674
饲@@ 1674
仰 1674
斥@@ 1673
RC 1673
叔 1673
癖 1673
ris@@ 1672
Note3 1671
璨 1671
APU 1670
哎 1670
鄂@@ 1670
膏@@ 1669
FL@@ 1669
咀@@ 1668
芥@@ 1665
0.2 1664
EA 1663
西班牙@@ 1662
Do@@ 1662
ART 1662
DB@@ 1662
倚@@ 1662
Tens@@ 1661
稽@@ 1659
3.4 1657
摒@@ 1657
谣 1657
召 1656
Mini@@ 1655
67@@ 1655
A9 1655
刹@@ 1655
轧 1655
浩 1655
MR@@ 1654
鸥 1654
SanDisk 1653
习惯@@ 1652
Sch@@ 1652
厮@@ 1651
疾 1651
眶 1651
淀 1650
袭@@ 1650
拉丁@@ 1649
魄 1649
衔 1649
by 1648
吼@@ 1648
谘@@ 1648
囱 1647
砰 1646
Tim@@ 1646
则@@ 1645
啮@@ 1644
PFC 1643
Mon@@ 1643
ATA 1643
43@@ 1642
茅 1641
蚁 1640
LCDTV 1640
烙@@ 1640
ed 1639
HDD 1638
篱@@ 1637
粥@@ 1637
Flex@@ 1637
倾 1637
佛罗里@@ 1636
芋 1634
儒 1633
袱 1633
婉 1632
99.@@ 1631
SH@@ 1631
斯科 1631
G3 1630
狠@@ 1630
庸@@ 1629
蔑 1629
赵 1629
奸 1629
姿@@ 1628
梨@@ 1628
PPT 1628
宋 1628
..@@ 1627
CPI 1627
孝@@ 1627
觅 1626
相关@@ 1626
勺 1625
蛮@@ 1625
放量 1625
EEPROM 1624
270 1624
呤 1623
MR 1623
睫@@ 1622
Pix@@ 1622
蔑@@ 1621
袜 1620
辅 1620
na@@ 1620
ut@@ 1620
快速@@ 1619
Fire 1619
啉 1618
QFN 1618
SMD 1618
郎@@ 1618
化器 1616
NC@@ 1615
BG 1615
扮@@ 1615
LL 1615
乙 1615
罩@@ 1613
科学院 1613
冉@@ 1613
捆 1613
DDR4 1613
OTT 1610
78@@ 1610
480 1610
Think@@ 1608
淑@@ 1608
淮@@ 1608
Fr@@ 1608
菱@@ 1608
eon@@ 1607
Bridge 1606
ony@@ 1606
NV@@ 1605
Ed@@ 1605
溴 1605
Mobil@@ 1604
Galaxy 1603
Se@@ 1603
唬 1602
Chin@@ 1601
Sa@@ 1601
PDF 1601
der 1600
椒@@ 1600
秤 1600
琼 1600
1A 1600
犹太@@ 1599
Fi@@ 1599
蛾 1598
裕@@ 1598
Echo 1598
斯克 1598
芙 1597
GA@@ 1596
eM@@ 1595
禅@@ 1595
box@@ 1595
乖 1594
倪 1593
Atmel 1592
垮@@ 1591
RD 1591
Stev@@ 1591
360@@ 1591
ect 1590
TPU 1589
550 1589
子里 1589
痘 1589
76@@ 1589
man@@ 1588
卧 1588
芝 1587
堤@@ 1587
酋@@ 1586
钳 1585
iph@@ 1585
牺@@ 1585
咆@@ 1585
My@@ 1582
Bi@@ 1581
ns 1581
802.@@ 1580
艳 1580
事实@@ 1580
贡 1577
for@@ 1577
Fin@@ 1577
彗@@ 1577
蹭 1576
衍 1576
跪@@ 1575
逐 1574
SC 1573
ster 1572
霞 1572
FT@@ 1571
品率 1570
4S 1569
稀 1569
DIY 1568
艰 1567
歹@@ 1565
Ad@@ 1565
熨@@ 1565
厥 1564
悼@@ 1563
Mat@@ 1563
锗 1563
币@@ 1563
br@@ 1562
Sp@@ 1562
允 1562
HTML 1562
厄 1562
4.4 1561
TPS@@ 1561
广泛@@ 1561
吾@@ 1561
TO 1561
Tom@@ 1561
Pol@@ 1560
嘈@@ 1559
CCB@@ 1559
Tri@@ 1559
OV 1558
Paul@@ 1558
se 1558
VM 1558
粤@@ 1557
+@@ 1556
锣@@ 1555
note@@ 1554
崎@@ 1553
64GB 1553
阁 1551
Sim@@ 1550
Au@@ 1550
栩@@ 1550
仕@@ 1548
ys 1547
Dialog 1547
1970 1547
渐 1546
5.0 1546
0.4 1546
玷@@ 1545
IFA 1545
跨国@@ 1542
Logic 1541
荐@@ 1540
琼@@ 1538
CEC 1537
肢@@ 1537
新兴@@ 1536
骇@@ 1536
Par@@ 1536
RX@@ 1536
ide@@ 1534
逍@@ 1533
IHSMarkit 1533
缆 1533
7Plus 1533
蝉@@ 1532
Fu@@ 1529
鞍@@ 1528
44.@@ 1528
2400 1527
确定性 1527
Edge 1527
舵@@ 1526
通货@@ 1526
燥@@ 1525
105 1525
WiMax 1525
蛋白@@ 1524
err@@ 1524
驼@@ 1524
籽@@ 1524
碑@@ 1523
出租@@ 1523
ine 1521
ino 1521
ac 1521
慧 1520
ba 1520
Mate20 1520
te 1519
SQL 1519
锦 1518
锈@@ 1518
FC@@ 1518
沦@@ 1517
谬@@ 1515
LDO 1515
42.@@ 1513
蔗@@ 1513
Technologies 1513
是说 1513
ang@@ 1513
95@@ 1512
China 1511
莞@@ 1511
12V 1511
贞@@ 1511
轭 1511
暂 1511
337 1510
驭 1510
痊@@ 1510
晰 1510
克兰 1510
爷@@ 1509
锭 1508
呐 1507
羽 1507
ma 1507
48.@@ 1506
MW@@ 1506
橇 1505
健康@@ 1504
冀 1504
参与@@ 1504
旨@@ 1504
峭 1504
姊@@ 1503
迎 1503
per@@ 1503
斧 1503
Mini 1503
增长@@ 1503
柑@@ 1503
楠 1503
Glass 1502
CDMA@@ 1501
ML@@ 1501
end@@ 1501
湛 1500
届@@ 1500
帽@@ 1499
CO 1498
咳 1498
都是 1497
铰@@ 1497
聪 1497
MAX 1496
Note9 1496
窑 1496
San@@ 1496
夯@@ 1495
系列@@ 1495
晋 1494
妒@@ 1494
IE 1494
2200 1492
再也@@ 1492
sc@@ 1492
杭@@ 1492
姜 1492
DD@@ 1491
mar@@ 1491
嘶@@ 1491
长期@@ 1490
USB2.0 1489
叛 1488
螂 1488
馈@@ 1488
41.@@ 1488
笛@@ 1488
陶 1486
夷@@ 1486
iTunes 1486
ing 1486
乒@@ 1486
3.8 1485
凿@@ 1485
卜 1485
无论@@ 1485
缭@@ 1483
爱尔@@ 1483
ud@@ 1482
琢@@ 1481
ry 1480
愧@@ 1480
Cap@@ 1480
3S 1478
dB@@ 1478
芜@@ 1477
0.7 1477
ru@@ 1476
AV 1475
199 1475
BAT 1475
韧@@ 1475
熙@@ 1475
WIFI 1474
Ru@@ 1474
榨@@ 1474
基督@@ 1473
ADS@@ 1472
锤@@ 1472
丐 1472
太平@@ 1471
瓣@@ 1471
Kindle 1471
决策@@ 1471
湘@@ 1468
320@@ 1465
TFTLCD 1465
猴@@ 1465
庞 1465
lin@@ 1464
MA 1464
mini 1464
虏 1463
4GLTE 1463
披 1463
GF@@ 1463
哩 1463
憎@@ 1462
蔓@@ 1462
哮 1461
Alexa 1461
蹄@@ 1461
Su@@ 1461
if@@ 1460
ISC 1459
挥 1459
迹@@ 1459
of 1459
昼@@ 1458
靓@@ 1457
Internet 1456
PXI 1456
CO2 1456
钼 1455
躯 1455
ME@@ 1455
DSL 1455
Vive 1454
Mir@@ 1453
营企业 1453
嚏 1452
do@@ 1452
窖 1452
沉积@@ 1452
ge@@ 1451
Tab@@ 1451
tor@@ 1450
棠 1450
耕 1450
let 1450
ts 1449
po@@ 1449
FDA 1448
俨@@ 1447
ys@@ 1447
硼@@ 1447
FPD 1447
橄@@ 1447
朵@@ 1447
ECU 1446
甸@@ 1446
煎 1446
普及@@ 1445
1978 1444
吱@@ 1444
啤@@ 1444
芙@@ 1444
巴巴 1443
呻@@ 1443
翠 1442
MIP@@ 1441
婴 1441
仪器@@ 1440
皿 1440
ipad 1439
ent 1438
泻 1438
IOS 1438
秒@@ 1438
Gu@@ 1437
沪 1437
顷 1437
Oculus 1436
印第安@@ 1436
钝@@ 1436
Point 1436
宪 1436
溯 1435
械 1435
WM@@ 1434
HC@@ 1433
Kit 1433
ad 1433
绩@@ 1432
inside 1432
108 1431
懊@@ 1430
43.@@ 1429
ens@@ 1429
拦 1428
430 1427
权人 1425
Cloud 1425
窍 1425
岭@@ 1425
ROHM 1425
一点@@ 1425
嘧@@ 1424
8.1 1423
窜 1423
1000@@ 1423
谊 1422
Lu@@ 1422
鱿@@ 1421
跋@@ 1421
袖 1420
j 1420
Wor@@ 1420
橙 1420
sa@@ 1419
倪@@ 1419
肃 1419
ATM 1418
姻 1418
ISP 1417
BCM@@ 1416
Phil@@ 1416
冕 1416
cr@@ 1415
Sol@@ 1415
Uber 1415
Uni@@ 1415
腋@@ 1414
5.1 1414
HDTV 1414
瘾@@ 1414
感器 1414
钮 1411
On@@ 1411
哗@@ 1410
滤 1409
FD@@ 1409
阪 1409
瞰 1408
稻 1407
掠 1407
缉@@ 1407
穆 1407
避 1407
风雨 1407
萝 1405
GTX@@ 1403
汰 1403
悬 1402
S2 1402
Co 1401
侃 1401
FF@@ 1400
ther@@ 1399
Jim@@ 1398
嘌@@ 1397
ann@@ 1397
El@@ 1396
New@@ 1396
Moto@@ 1395
固醇 1395
Bri@@ 1395
4.1 1395
Intersil 1394
Alpha@@ 1394
FBI 1394
昔@@ 1394
anc@@ 1393
Xilinx 1393
徕 1392
103 1391
Syn@@ 1391
隘 1391
豁@@ 1391
森美 1390
最大@@ 1390
Xperi@@ 1389
甫 1389
MD@@ 1389
Light@@ 1389
Qor@@ 1389
B2B 1388
马里 1388
驴@@ 1388
值得@@ 1388
谚@@ 1388
DAC 1387
孚 1386
熏 1386
茱@@ 1386
Arm 1385
绽@@ 1385
循 1385
投影@@ 1385
MBA 1384
ai@@ 1384
疼@@ 1384
陪审@@ 1383
一次@@ 1381
蹲@@ 1381
32GB 1381
吧@@ 1381
葱 1381
宙@@ 1380
4.8 1380
呗 1380
纷 1380
宴@@ 1380
BGA 1379
淮 1379
楔@@ 1379
绊 1378
Nov@@ 1378
惰@@ 1377
MAC 1377
宸 1377
歪 1377
Dan@@ 1376
are 1376
嫩@@ 1376
违 1376
PV@@ 1375
羚@@ 1375
蕊 1375
瑚@@ 1375
XX 1374
淌 1373
颗@@ 1372
克罗@@ 1372
帘 1371
330 1371
S9 1370
关注@@ 1369
辨 1369
Ado@@ 1369
Strateg@@ 1369
TH@@ 1369
PV 1368
悟@@ 1368
MacBook 1368
豌@@ 1368
MIX3 1367
2A 1366
俞@@ 1366
嘎@@ 1365
笆 1365
SW@@ 1365
秦 1365
Technology 1364
由此@@ 1364
O2 1364
惶@@ 1363
咖@@ 1363
YouTube 1362
ty 1362
孩 1361
TDD 1361
S1 1361
MWC@@ 1361
破坏@@ 1361
UI@@ 1361
丫@@ 1360
心脏@@ 1359
Ric@@ 1359
徽 1358
TOP@@ 1358
380 1358
ol 1357
FDD 1357
IEEE 1357
镯 1355
惬@@ 1355
匀 1354
de 1354
Lumia 1354
评论@@ 1353
墩 1352
怜@@ 1352
are@@ 1352
叙 1352
Dig@@ 1351
与此@@ 1351
ack 1351
Skype 1349
Pat@@ 1349
逻@@ 1349
庙@@ 1349
LD 1348
68@@ 1348
蚊 1347
Black@@ 1347
化成 1346
FT 1346
高尔夫@@ 1345
掐@@ 1345
蜥@@ 1344
VM@@ 1344
ass@@ 1344
370 1344
Office 1343
IMF 1342
dries 1341
缪@@ 1341
瀚 1340
AX@@ 1340
卉 1340
58@@ 1340
轰 1338
瞪 1338
ki 1337
奎 1337
拣 1337
飙 1337
兮 1336
ai 1335
ure 1335
挚@@ 1335
置疑 1335
本地@@ 1335
Sam@@ 1335
911 1334
PCR 1334
Snap@@ 1334
猿 1333
FCC 1333
邪 1333
枚@@ 1333
捆@@ 1333
855 1332
拱 1332
潜 1331
醛@@ 1331
Ph@@ 1331
赋 1331
Green@@ 1330
钾@@ 1329
4.7 1328
99@@ 1328
伞@@ 1328
桔@@ 1328
展商 1327
IX 1327
萎 1326
负责@@ 1326
炫 1325
ion@@ 1325
渝 1325
3LCD 1324
ans@@ 1324
骏 1324
邓 1323
蒲@@ 1323
螃@@ 1323
簇@@ 1322
窥 1322
蚊@@ 1322
窘@@ 1322
圩 1322
慑 1321
com@@ 1321
狐@@ 1321
臣@@ 1320
hard@@ 1320
泼 1319
就业@@ 1319
灸 1319
翘 1319
议院 1319
鞭 1318
Ga@@ 1318
劈@@ 1318
dr@@ 1317
3M 1316
舅@@ 1316
Electronics 1316
104 1315
瞧@@ 1315
CFIUS 1315
明书 1314
1982 1314
cm 1313
所在@@ 1313
POS 1313
不知道 1313
扩展性 1312
幔 1312
BIR@@ 1311
董事@@ 1311
沧@@ 1311
湍@@ 1311
ack@@ 1310
LAN 1310
乓@@ 1309
侨@@ 1309
哎@@ 1308
WSTS 1308
纤 1308
Pay 1306
栓@@ 1306
Analytics 1306
股东@@ 1305
FTC 1304
揣@@ 1304
SR@@ 1302
Ta@@ 1302
甸 1302
Foundry 1302
凋@@ 1300
3.7 1300
忱 1299
NX@@ 1299
肤 1299
加拿@@ 1299
ich@@ 1298
钠@@ 1298
Turbo 1298
迥@@ 1298
佛罗@@ 1298
龈 1297
16GB 1297
陋 1297
har@@ 1296
蔽@@ 1296
1979 1295
gr@@ 1295
蹊@@ 1295
苜@@ 1295
蝎@@ 1295
砾 1294
疤@@ 1294
簧@@ 1294
TS 1294
钥 1293
age 1293
睬 1292
岳@@ 1292
Fusion 1292
葬@@ 1292
朦@@ 1292
恍@@ 1291
疣 1291
棘@@ 1291
匿 1291
知名@@ 1289
薛@@ 1288
FM@@ 1288
恳 1288
翔@@ 1287
Wat@@ 1287
枫@@ 1287
P2@@ 1287
宛@@ 1287
辜@@ 1286
850 1286
FaceID 1285
tel@@ 1285
荫@@ 1285
Syst@@ 1285
酪@@ 1285
ear 1284
FTTH 1284
剥 1284
宵 1283
秸@@ 1283
vivoNEX 1283
倡@@ 1283
OK 1282
腮@@ 1282
曳 1281
漠 1281
躺@@ 1280
NC 1280
GUI 1279
垒@@ 1278
As@@ 1278
do 1278
珂 1277
躁@@ 1277
奄@@ 1277
澈 1277
益于 1277
MT65@@ 1276
tex 1276
gra@@ 1276
兜 1275
NS 1275
M2M 1274
电路@@ 1274
su@@ 1274
Synopsys 1274
鹤 1273
蝶 1273
SPA 1272
Cree 1272
贞 1272
砌 1271
po 1271
釉@@ 1271
窍@@ 1270
枕 1270
抖@@ 1270
酐 1270
蹒@@ 1270
否@@ 1270
飘 1269
茧 1269
SiP 1269
PM 1268
Core 1268
Link 1268
骂@@ 1266
ff@@ 1266
梗 1266
控器 1266
1960 1265
NPU 1265
瞥 1264
橘 1264
GALAXY@@ 1264
徵@@ 1262
Man@@ 1262
片机 1262
钓 1262
HTT@@ 1262
Fabless 1262
蓿 1261
CAGR 1261
汁@@ 1261
瞪@@ 1260
乖@@ 1260
惑 1259
ga@@ 1259
Ti@@ 1259
Ber@@ 1258
lex 1258
100G 1258
2.9 1258
Az@@ 1257
310 1257
葫@@ 1257
钞 1256
峡 1256
web 1255
徵 1255
咋@@ 1254
Pre@@ 1254
G2 1254
嘿@@ 1254
Systems 1253
LX@@ 1253
HDI 1253
ea@@ 1253
鳄 1252
描 1252
直流@@ 1251
蜴 1251
ware 1250
PX@@ 1250
妳 1250
磕@@ 1250
VC@@ 1249
吟@@ 1249
240@@ 1249
Fitbit 1249
卒@@ 1248
TrendForce 1247
簸 1247
Por@@ 1247
SOI 1244
啬 1244
Lit@@ 1243
瘢@@ 1242
0.9 1241
bar@@ 1241
扩 1241
怠 1240
捞@@ 1240
主义@@ 1240
87@@ 1239
谊@@ 1239
MIX 1238
TA 1237
株@@ 1237
EX@@ 1235
筷@@ 1235
晤@@ 1235
崭@@ 1235
by@@ 1234
ast@@ 1234
kV 1233
eon 1233
明珠 1233
髁 1232
舟@@ 1232
矛 1231
藐@@ 1231
ich 1231
缤@@ 1230
荫 1229
ant 1228
揉 1228
蓬 1228
姗@@ 1228
ers 1228
1983 1228
Aut@@ 1228
Pen@@ 1228
cal@@ 1227
62@@ 1225
Projec@@ 1225
True@@ 1224
em 1224
ity@@ 1224
ux 1223
疚 1222
频器 1222
猝@@ 1220
A11 1219
HDM@@ 1219
onic 1219
ace@@ 1219
养老@@ 1218
Book 1218
阑@@ 1218
瘘 1218
姬@@ 1217
掀@@ 1217
羞 1215
嗑 1215
音机 1215
ei@@ 1215
馏@@ 1214
Gear@@ 1214
1080 1214
Sprint 1214
CSP 1213
暑 1213
脐@@ 1212
ift 1212
虑@@ 1212
宵@@ 1212
技术上 1211
HT@@ 1210
gdp 1210
AVA 1210
岔@@ 1210
殆@@ 1210
115 1209
GPRS 1209
芯片@@ 1208
BT 1208
蜒 1208
Maxim 1208
嘟@@ 1208
噜 1208
溅@@ 1207
OC 1207
砌@@ 1207
int 1207
bank 1207
JD@@ 1207
point 1207
5.2 1207
SY@@ 1206
ISA 1206
匆@@ 1205
躬 1204
猖@@ 1204
嗒 1203
澜@@ 1203
垦 1203
讥@@ 1203
蜗 1202
纺 1202
天然@@ 1202
压器 1201
qu@@ 1201
蟑@@ 1200
All@@ 1200
micro@@ 1200
pi 1199
59@@ 1199
ket@@ 1197
son@@ 1197
腌@@ 1197
Info@@ 1196
鲑@@ 1195
如说 1195
煲 1195
烬 1195
踵@@ 1195
net@@ 1194
8.6 1193
怡 1193
穗@@ 1193
NO 1193
蚕 1193
妖 1193
加斯 1192
106 1192
尹@@ 1192
ren@@ 1191
喽 1191
倦 1188
钨@@ 1187
ina 1187
Hy@@ 1187
Xbox 1187
申 1187
萃 1186
berg 1185
嗦 1184
ge 1183
翩@@ 1183
汐 1183
PCIe 1182
癣 1182
DRAMeXchange 1182
奚@@ 1182
att@@ 1181
峻@@ 1181
Mate10 1181
磊@@ 1181
毕 1181
扛@@ 1181
胧 1180
坍@@ 1180
Mer@@ 1180
缄@@ 1180
Micros@@ 1180
CCL 1179
铬@@ 1179
煞@@ 1179
俘 1178
菩@@ 1177
吻@@ 1177
863 1176
茸 1176
lon@@ 1176
盔@@ 1176
婉@@ 1176
许可@@ 1175
互 1175
net 1174
总的@@ 1174
VL@@ 1174
TF@@ 1174
NORFlash 1173
Res@@ 1171
尔公司 1171
IPC 1170
荧@@ 1170
弘 1170
vo 1169
裙@@ 1169
姑 1168
催 1168
HV@@ 1168
mV 1167
访者 1167
Rad@@ 1167
不在 1166
辰@@ 1166
tive@@ 1165
Pod 1165
BC@@ 1165
蜿@@ 1164
聋@@ 1164
Ocul@@ 1164
羁@@ 1164
Mee@@ 1163
栗@@ 1163
邵@@ 1163
捧@@ 1162
妄 1162
不管@@ 1162
IDF 1161
榜@@ 1161
112 1161
VIVO 1160
夭@@ 1160
go@@ 1159
腊@@ 1158
ator 1158
浙江@@ 1157
od 1157
趾@@ 1156
跚 1156
涕 1156
昨 1155
ard@@ 1155
纺织@@ 1155
宣 1154
一无所@@ 1153
沫 1153
Thom@@ 1153
娃@@ 1152
Fo@@ 1152
眩 1152
57@@ 1152
Char@@ 1152
丈 1151
闺@@ 1151
hel@@ 1151
A4 1150
逸@@ 1150
厅@@ 1149
拭 1149
98@@ 1148
标志@@ 1148
M1 1147
BI 1147
鹤@@ 1147
0.13 1147
迫切@@ 1146
疝 1146
IQ 1146
奥林@@ 1145
关节@@ 1145
8GB 1145
bl@@ 1145
1981 1145
妆@@ 1143
烽@@ 1143
缪 1143
钦 1143
MIC 1142
钨 1142
羔@@ 1141
斤 1141
PLD 1141
Red@@ 1140
榨 1140
LTE@@ 1140
警察@@ 1140
our@@ 1140
谓@@ 1140
NCP@@ 1139
裹@@ 1139
颞@@ 1139
芦 1139
ick 1139
坝@@ 1139
ital@@ 1139
篱 1138
厉 1138
赦 1137
郭 1137
0.18 1136
啪 1136
Ment@@ 1136
舒 1136
301 1136
导航@@ 1135
Foun@@ 1135
聪@@ 1135
rel@@ 1134
暮@@ 1134
萍 1134
XGA 1134
VCSEL 1134
矽 1134
槽@@ 1133
岂@@ 1133
enn@@ 1133
UC@@ 1132
69@@ 1132
Tizen 1132
溯@@ 1132
play@@ 1131
炖@@ 1131
Ultra@@ 1131
嗅 1131
媚@@ 1130
A12 1130
wi@@ 1130
6.3 1130
Om@@ 1130
泻@@ 1129
螨 1129
榈 1129
uA 1128
IDE 1128
Quick@@ 1127
碍@@ 1127
使馆 1127
臼 1127
纽 1127
ra 1126
ion 1126
搐 1125
ron@@ 1125
眷@@ 1125
NAS@@ 1124
粹@@ 1124
Vol@@ 1124
123 1124
Can@@ 1124
iWatch 1123
MX 1123
Ren@@ 1122
5.7 1122
dre@@ 1122
殊 1122
刨@@ 1122
蹈 1121
Ke@@ 1121
悚@@ 1121
Sand@@ 1120
VoLTE 1119
Val@@ 1119
甾@@ 1118
肱@@ 1118
喃@@ 1118
tu 1118
澳大@@ 1117
Model@@ 1117
A10 1117
蚤 1116
3C@@ 1116
ee 1115
规范@@ 1115
瞄@@ 1115
SDRAM 1114
Times 1114
PK 1114
MSM@@ 1113
we@@ 1113
field 1113
ong 1113
Mo 1113
雹 1113
攀 1113
弊@@ 1112
掘 1112
怠@@ 1111
Poly@@ 1111
Str@@ 1110
沫@@ 1110
821 1110
Micron 1109
T1 1109
榈@@ 1108
Na@@ 1107
Connec@@ 1107
tex@@ 1107
瞳@@ 1107
兮@@ 1106
ifi 1106
崎 1106
ix@@ 1106
Panasonic 1106
GN@@ 1104
ew@@ 1104
OPPOFindX 1104
oS 1104
SZ 1104
匠@@ 1102
锏 1102
飙@@ 1102
里程@@ 1101
Canalys 1101
苟@@ 1101
脲 1100
飞行@@ 1100
Cell 1100
藓 1100
Adren@@ 1100
漓@@ 1099
鑫@@ 1099
DisplayPort 1099
鹏@@ 1098
锆 1098
Vishay 1098
Nok@@ 1098
网膜 1097
鞠@@ 1097
RP 1097
卓 1097
BB@@ 1097
th 1096
cl@@ 1096
黛 1096
PB@@ 1095
iel@@ 1095
Ra 1095
ue 1095
uc@@ 1095
tron 1094
茬 1093
out 1093
Far@@ 1093
Av@@ 1093
Ath@@ 1093
Corp 1092
COB 1092
褒@@ 1091
蕨@@ 1091
P20Pro 1090
Tesla 1090
佣 1089
her@@ 1089
蛎 1088
坷 1088
Jeff@@ 1088
Bur@@ 1088
铲 1088
荐 1088
家用@@ 1087
啃 1087
缉 1086
厢@@ 1086
碍 1086
mo 1086
art@@ 1086
ot 1085
Net 1085
自治@@ 1085
up@@ 1084
Chip 1084
GaAs 1084
孪@@ 1083
嚣@@ 1083
美联@@ 1083
淬@@ 1083
ne 1083
Tur@@ 1082
CFO 1082
Digi@@ 1082
歉 1082
觅@@ 1081
12.5 1080
嫉@@ 1080
Her@@ 1079
V2@@ 1079
蛙 1079
禄@@ 1079
憧@@ 1078
阎@@ 1078
Lens 1078
肚 1078
痕@@ 1078
Agil@@ 1077
有限@@ 1077
PET 1077
201 1077
毋@@ 1076
20Pro 1076
SONY 1076
4A 1076
ISO 1076
钽 1075
QF@@ 1075
windows 1075
域网 1074
绣@@ 1074
org@@ 1074
CTO 1074
迂@@ 1074
寝@@ 1073
Tra@@ 1072
除此@@ 1072
reg@@ 1072
稠 1070
蜷@@ 1069
彭 1069
杏 1069
宙 1069
铣@@ 1068
攸@@ 1068
tics 1068
揉@@ 1068
倚 1068
DMA 1068
眨 1067
坞 1067
滩@@ 1067
Direc@@ 1067
Vir@@ 1066
厢 1066
炔 1066
flix 1065
诋@@ 1065
寄生@@ 1064
dy 1064
渠@@ 1064
攫@@ 1063
铆@@ 1063
630 1063
af@@ 1063
ach@@ 1062
峙 1062
繁 1061
鸽 1061
V8 1060
钮@@ 1060
X1 1060
DL@@ 1060
III 1059
慨@@ 1059
Bixby 1059
Sta@@ 1058
妓 1058
nu@@ 1058
Has@@ 1058
Comp@@ 1057
吱 1057
TPK 1057
4.6 1056
Jam@@ 1056
遗 1056
茵 1056
ore@@ 1056
1973 1055
资企业 1055
Cu@@ 1055
5.6 1055
翰@@ 1054
FLASH 1054
Microsoft 1053
LS 1053
斋@@ 1052
op 1052
锰@@ 1052
Compu@@ 1052
Semic@@ 1052
蔗 1051
Avago 1051
Son@@ 1050
促进@@ 1050
Palm 1050
app 1049
135 1049
罹@@ 1048
AF@@ 1048
WWDC 1048
NAND@@ 1048
荔@@ 1048
呜@@ 1048
清晰@@ 1048
染色@@ 1047
fi@@ 1047
bun@@ 1047
ity 1047
吾 1046
雌 1046
恙 1046
so@@ 1046
4.9 1046
Ultrabook 1045
嚷@@ 1045
Dis@@ 1045
ens 1045
Ram@@ 1042
ise 1042
107 1042
Cypress 1041
裨@@ 1041
僵 1040
憬 1040
ong@@ 1040
熔 1040
莅@@ 1039
XO 1039
Chip@@ 1039
Rambus 1039
图书@@ 1038
Bu@@ 1037
焰@@ 1037
钵 1037
ow 1036
粪@@ 1036
111 1034
羔 1034
占有@@ 1033
郝@@ 1033
ber 1033
ik@@ 1033
Synaptics 1032
秃 1031
斤@@ 1031
Store 1030
祟 1029
靡@@ 1029
牟@@ 1029
AK@@ 1029
DF@@ 1028
丧 1028
Fi 1028
茁@@ 1027
Nokia 1027
Top@@ 1026
tis@@ 1026
狡@@ 1025
煌 1025
饺@@ 1024
稚@@ 1024
3A 1023
谣@@ 1023
屹@@ 1023
Broad@@ 1023
est 1023
微博@@ 1023
睛 1021
亢@@ 1021
琪@@ 1021
转换@@ 1021
妹@@ 1021
僧 1021
Script 1020
逢@@ 1020
侥@@ 1020
目的@@ 1019
釉 1019
伎@@ 1018
汶 1018
roid 1017
肘@@ 1017
镰@@ 1017
前所@@ 1016
ven@@ 1015
drag@@ 1014
鞍 1013
气候@@ 1013
Vivo 1012
con@@ 1011
擘 1011
PPI 1011
mat@@ 1011
Bus@@ 1011
the 1009
S3 1008
竖 1008
Nu@@ 1008
逞 1008
宇航@@ 1007
遴@@ 1007
辟 1007
Christi@@ 1006
承包@@ 1006
妃 1005
par@@ 1005
糕 1004
芹 1004
sch@@ 1004
Fe@@ 1004
ster@@ 1003
剽@@ 1003
谋杀@@ 1003
戏剧@@ 1002
焙 1002
惟 1002
cli@@ 1002
拙@@ 1001
ab 1001
蓉 1001
Time 1001
浇 1000
瞌@@ 1000
256 999
ir 999
斟@@ 999
Deep@@ 999
Media@@ 998
Ag@@ 998
啊@@ 998
浙@@ 998
托人 997
Way@@ 997
Bay 996
刁@@ 996
拧 996
Tech 996
5.8 996
马来@@ 996
Sha@@ 995
诞@@ 995
Works 995
汶@@ 995
ice 995
涅 994
焰 994
蚓 994
士顿 994
霆 993
str@@ 993
拴 993
6.8 993
LabVIEW 993
val@@ 992
甙 992
膀@@ 992
5C 992
霜@@ 991
黎 991
呕 990
兑@@ 990
Wil@@ 990
禾 990
Mal@@ 989
飚 989
视觉@@ 989
獗 989
CIS 988
乾 988
ill 988
BL@@ 988
Ri@@ 988
漂 988
邹@@ 987
拣@@ 987
imf 986
貌@@ 986
谘 986
祀 986
Magic 986
恳@@ 985
ba@@ 985
avi@@ 984
ds 984
Cy@@ 983
凹 983
kW 982
籍@@ 982
Qi 982
菅@@ 982
舅 982
梳 981
Mag@@ 981
说得@@ 981
寨 981
ci@@ 980
珊 979
WB 979
炖 979
UC 978
矩@@ 978
甄@@ 978
VE@@ 977
inc@@ 976
HR 976
IMS 976
澡@@ 976
吁@@ 976
ods 976
侠@@ 975
盹 975
穹@@ 975
镑 974
颚 974
Watch 973
敛@@ 973
加利@@ 973
拂@@ 972
Cre@@ 972
We@@ 972
霖 972
ker@@ 972
PLL 971
攒 971
允@@ 971
臆@@ 970
works 970
7.2 970
ica 970
驱动@@ 969
Or@@ 969
挟 969
灿@@ 969
CNC 969
苛@@ 969
于求 969
芹@@ 968
挪 968
焙@@ 968
禄 968
9.5 968
娴@@ 968
叔@@ 967
蛹 967
洽@@ 967
SIM 967
珥 966
直升@@ 965
俚@@ 965
拌 965
祛@@ 964
遐@@ 964
测定@@ 963
烁@@ 962
tan@@ 962
哌@@ 962
175 962
咸 962
press@@ 962
可视@@ 962
ast 962
枯 961
岔 961
嫌@@ 961
中科@@ 960
苑 960
logo 960
Pi@@ 960
屯@@ 959
惭@@ 959
印第@@ 959
ko@@ 959
dia 959
钧 959
扉 958
虾@@ 958
鳗@@ 958
Micro 958
富士@@ 957
放大@@ 957
Gl@@ 957
睾@@ 956
共和@@ 956
膦 956
睦 956
桶@@ 955
廖@@ 954
mi@@ 954
午 954
努 953
行动@@ 953
汕@@ 953
ak 952
Stra@@ 952
max 951
铎 951
ost 951
tin 951
孰@@ 950
tin@@ 950
彦 950
挹@@ 949
cn 949
募 949
ford 949
迸@@ 948
蜘@@ 948
Oracle 947
Server 947
per 947
酋 947
dna 947
Spr@@ 947
SQ@@ 947
翡@@ 945
帚 945
廓 945
酬 945
赤 944
st 944
灶@@ 944
ish@@ 944
蒜@@ 944
mail 944
颖@@ 944
摧@@ 943
赘 943
抑 943
悖 943
祈@@ 943
竿 942
嗝 942
髂 942
ech 942
觎 941
Del@@ 940
Star@@ 940
篝@@ 940
re 940
flash 940
茉@@ 940
叽@@ 940
疹@@ 939
NVID@@ 939
舷 938
殉@@ 937
沸 937
公交@@ 937
yer 935
mer 935
恭 935
蜚@@ 934
显微@@ 934
寐@@ 934
Em@@ 934
ros@@ 932
疽 932
瘀 930
ang 929
沥@@ 929
age@@ 929
邑 928
蒋 928
哺@@ 927
tre@@ 927
埔 927
萦@@ 926
葱@@ 926
Pal@@ 925
磺 925
砾@@ 924
bug 924
辫@@ 923
声器 922
攒@@ 922
呐@@ 922
ef@@ 922
mon@@ 922
Prim@@ 922
菱 922
多元@@ 922
6.6 921
觊@@ 921
ti 921
Lat@@ 921
S7 921
don 921
mini@@ 920
回顾@@ 920
迦 919
需求@@ 919
特勒 919
旱 919
ole 918
GC 918
莺 918
腭 917
Sens@@ 917
NASA 917
锌@@ 916
tech 916
荚 916
5.3 916
蚁@@ 916
ney 916
晴 916
性恋 915
苇 915
phabet 914
腈 914
tron@@ 913
Bl@@ 913
汪 913
IL@@ 913
Gar@@ 913
Hel@@ 913
ace 913
晦@@ 912
泣 912
Studio 912
小心@@ 911
襟@@ 911
昨@@ 911
踝@@ 910
有化 910
mann 910
薇@@ 910
6.2 910
all 910
昱 909
Met@@ 909
box 908
潢 908
疟@@ 908
瘸@@ 907
Nexus 907
再生@@ 907
lear@@ 907
印制@@ 907
蝗@@ 907
咧@@ 907
绯@@ 906
sa 905
鼬 905
鳞 905
扒 905
罄 905
twitter 905
潇@@ 905
犁@@ 904
谱法 903
勺@@ 903
毫 903
ner@@ 903
3.9 903
帘@@ 903
war@@ 903
lu@@ 903
ams 902
Lake 902
邃 902
毡 901
触摸@@ 901
Cir@@ 901
ilica 901
值得一@@ 901
涎@@ 901
更新@@ 900
枣 899
酌 899
View 898
牵 898
新加@@ 898
褶 898
10.1 898
ho@@ 897
匣@@ 897
under@@ 896
Charg@@ 896
轩@@ 896
意味@@ 894
晟 894
憩 894
悍 893
悴 893
疱 893
酿 893
Mil@@ 893
Semiconductor 892
赣@@ 892
Tok@@ 892
MOS@@ 891
Kir@@ 891
贡@@ 891
箍 891
core 891
ga 890
6.7 890
彼 889
诀@@ 889
7.1 889
蔼 889
俺 888
魏 888
辗@@ 888
Lar@@ 887
Pr@@ 887
World 887
怯@@ 887
蹩@@ 886
fo@@ 886
ire 886
睾 886
Altium 885
Imag@@ 884
tor 884
Ge 883
ink 883
统治@@ 882
Nest 882
憔@@ 882
昆 881
Ve@@ 881
Solar 881
笃@@ 881
咕 880
ata 880
FindX 880
贮 880
匕@@ 880
Ger@@ 880
ock@@ 879
NY@@ 879
铀@@ 879
Don@@ 879
bit@@ 878
祎 878
水器 878
崖 878
桅@@ 877
佑 877
汹 877
禅 877
mac@@ 877
way 877
ly 876
cer@@ 876
在此@@ 876
沼 875
掺 875
fin@@ 875
恤 875
Ter@@ 874
Bas@@ 874
炽@@ 873
暧@@ 873
榆@@ 873
府@@ 872
维加斯 872
倦@@ 872
憎 871
芪 871
雁 870
ane 870
瘠 869
Trans@@ 869
5.4 869
Wav@@ 868
踊@@ 868
琦 868
蝴@@ 868
阜@@ 867
桔 867
侨 867
缔约@@ 866
苣 866
ance 866
岳 866
Elpida 866
啼@@ 865
UT@@ 864
pr@@ 864
7.8 864
虱 863
Ryzen 863
氦 863
惮 862
Auto@@ 862
劈 862
翁@@ 861
Wol@@ 861
嘎 861
Amazon 860
LA 860
颞 860
凳@@ 859
HS@@ 858
PR 858
犁 857
ade 857
扛 857
土耳@@ 856
宛 856
ps@@ 856
殴 856
S4 856
ord@@ 855
ath 855
ko 855
泞 855
get 854
book@@ 854
肽@@ 854
phone 853
爱德@@ 853
Scot@@ 853
my@@ 853
榷 853
芜 852
桡@@ 852
忆@@ 852
Sal@@ 852
ox@@ 852
浊@@ 852
fe@@ 852
Sharp 851
Lee 851
尼日@@ 849
莹 849
van@@ 848
4G@@ 848
疙@@ 848
郑 848
谅 848
罂@@ 848
荨@@ 847
ari@@ 847
夥@@ 847
Kim 847
一下@@ 847
Pic@@ 847
虐@@ 846
ide 846
OPPO@@ 846
Ros@@ 846
Face@@ 846
涎 846
Mark 846
嗤@@ 845
illa 845
赘@@ 844
缔 844
Wo@@ 844
闩 843
Infineon 843
钒 843
辍@@ 843
椅@@ 843
蹴@@ 842
Py@@ 842
Zen 841
Ax@@ 841
曦 841
ley@@ 841
ser@@ 841
炬@@ 840
话说 840
Vo@@ 840
耸 840
筏 840
Ni@@ 839
ham 839
侍 839
娱 839
蔓 838
HUA@@ 838
脐 837
不敢@@ 837
ore 837
晾@@ 837
华尔@@ 837
足轻重 836
hal@@ 836
樟@@ 836
In 836
蜻@@ 836
tion 834
竿@@ 834
恪@@ 834
荟 834
噻@@ 834
car@@ 833
痤@@ 833
化妆@@ 832
朔@@ 832
mc@@ 832
蔬@@ 832
酌@@ 832
璀@@ 831
谭 831
婷 831
Digital 830
寡 830
氙@@ 829
崔 829
巩@@ 829
ax@@ 828
茸@@ 828
ight@@ 828
滋 827
Exynos 827
啰 827
Pixel 827
挝 826
帜 826
檀@@ 826
搓 825
光刻@@ 825
线图 825
楠@@ 825
喙 825
满意@@ 824
忡 824
馅 824
发式 824
fox 824
挟@@ 824
戚@@ 823
懈 823
Ha@@ 823
mer@@ 822
咚 822
驶 822
钡 822
Tes@@ 822
幺 822
珑 822
edge 821
择 821
7.6 821
iv@@ 820
ml 820
瘩 820
Infin@@ 820
腥@@ 819
忡@@ 819
纂 819
丸@@ 819
Freescale 818
瘀@@ 818
塘@@ 818
酥 818
勾 818
col@@ 818
哗 818
榻 817
旷 817
赡@@ 817
卟 817
剿 817
桩@@ 817
龚@@ 817
蛤@@ 817
廊@@ 816
哝 816
蝠@@ 815
ug@@ 815
撕 815
HK@@ 814
阉@@ 814
锂@@ 814
dy@@ 813
Drive 812
ITU 812
桁@@ 812
慷@@ 812
Ful@@ 812
瑕 812
臻 812
6S 811
嘘@@ 811
勉 811
辖 811
各个@@ 811
IOT 810
妓@@ 810
焉 809
kg 809
摩托@@ 809
ron 808
憾 808
挛@@ 808
Spe@@ 808
萜 807
禾@@ 807
ok 807
5.9 806
ech@@ 806
....@@ 806
邸 806
调制@@ 805
芥 805
哼@@ 805
ali@@ 804
潦@@ 804
圭@@ 804
瘙@@ 803
珈 803
Rec@@ 803
痣 803
怂@@ 803
ka 803
rus@@ 802
涸 802
kin@@ 802
盏@@ 802
惋@@ 801
Smith 801
tom@@ 801
7.3 800
斐 800
獭 800
榔 799
紊 798
谛 798
9.7 798
6.1 798
Wal@@ 798
ode 798
畸 797
Saf@@ 797
玲@@ 797
Im@@ 797
监会 797
计划署 796
ce 796
赃@@ 796
ff 796
曹 796
抑制@@ 796
era 796
Mel@@ 795
筐 795
啸 795
霓@@ 794
髌@@ 794
砝@@ 794
嘱@@ 793
sight 793
Pa@@ 792
web@@ 792
han 792
擎@@ 792
唑@@ 791
瀚@@ 791
兢@@ 791
DH@@ 791
Snapdragon 790
ro 789
7.7 789
蘸 789
茜@@ 789
Flow 789
6.4 789
ble@@ 789
ada 787
凤 787
埠 787
华为@@ 787
UH@@ 786
狸 786
mit@@ 786
峻 786
憋@@ 786
ld@@ 785
end 785
ass 784
日常@@ 784
绢 784
Ju@@ 784
涟@@ 784
坟@@ 784
捂@@ 783
苔 782
S5 782
灼 782
骼@@ 782
哀 781
冯 781
诬@@ 780
UA@@ 780
钎@@ 780
Gra@@ 780
Stu@@ 780
Dell 780
桡 779
堰 779
礁@@ 778
绌 778
吠@@ 778
Cat@@ 777
潍@@ 777
ung 777
MO 777
黏 777
ash 777
Alex@@ 776
窑@@ 776
Ner@@ 776
膈 776
忿@@ 775
矗@@ 775
啸@@ 775
Adv@@ 775
News 774
cell 774
傀@@ 774
ver 774
ray 773
狄 773
枸@@ 772
妊@@ 772
Sen@@ 772
MIT 771
den 771
ist 771
眈 770
port 770
裳 770
厩 770
踌@@ 770
惩 770
bc 769
ip 769
闽@@ 769
聆@@ 769
bps 769
糜 768
莠@@ 768
节性 768
搂 768
ten@@ 767
琅@@ 767
醌 766
吏 766
Er@@ 766
眈@@ 766
矢 766
邋@@ 766
Ray@@ 765
言之 765
蜓 765
bu@@ 765
绷 765
瞅 765
馁 765
hin@@ 764
鲤@@ 764
恤@@ 764
cel 764
Jap@@ 764
hi 764
8.8 763
ec 763
唯 763
者之间 763
宕@@ 763
Smart 763
Des@@ 763
诺基@@ 763
失业@@ 762
役@@ 762
愈来@@ 762
un 762
掏 761
6.9 761
办事@@ 761
3V 761
纾 761
斩 760
喹@@ 760
ilot 760
Nav@@ 760
歹 760
8.9 760
洼@@ 760
喃 760
Hor@@ 759
yl@@ 759
注目 759
倔@@ 759
Ba@@ 759
寝 758
vis@@ 758
渥 758
熨 758
vivo@@ 758
ton@@ 757
猥@@ 757
娄@@ 757
岖 757
Part@@ 757
eds 757
矣 757
og 756
务员 756
恿 756
pse 755
DI@@ 755
尧 755
葵@@ 755
诧@@ 755
码器 754
翱@@ 754
仲 753
猕@@ 753
婶 753
哒 752
Bro@@ 752
亭@@ 752
胳@@ 752
Jack@@ 752
曰 752
躬@@ 751
林顿 751
殡@@ 750
Fair@@ 750
戛@@ 750
play 750
bs 750
钰 750
枉@@ 749
揪@@ 749
销商 749
扒@@ 748
峭@@ 748
舆@@ 748
ari 748
姐@@ 748
调查局 747
疸 747
榴 746
Ox@@ 746
彷@@ 746
遢 745
group 745
屿 745
art 744
麝@@ 744
提取@@ 744
刨 744
糜@@ 743
踞 743
呛 743
ans 742
蚯@@ 742
蚴 741
gi@@ 741
嘀@@ 740
oug@@ 740
bo 740
Nic@@ 740
UK 739
萌 739
惚 739
Buil@@ 738
厕 738
Ltd 738
丙 737
ist@@ 737
ram 735
Gig@@ 735
Capital 734
anti@@ 734
Ret@@ 734
弛@@ 734
枣@@ 734
Toshiba 734
ini 734
锑 733
以色@@ 733
cor@@ 733
腔镜 733
Dev@@ 733
esh 732
ey@@ 732
plus 732
Mor@@ 732
Counter@@ 732
At@@ 732
臀 732
瞥@@ 732
飞利@@ 731
癫@@ 731
run@@ 730
咖 730
ach 730
鳌@@ 730
key 730
昙@@ 729
ene@@ 729
ame@@ 729
oss 729
pa@@ 729
Offic@@ 728
拎 728
纫 727
唆 727
窜@@ 727
浣@@ 726
然不同 726
仆@@ 725
烃@@ 725
宏观@@ 725
Eric@@ 725
娟 725
吨@@ 724
粕 724
纲@@ 723
jav@@ 723
chip 723
ice@@ 722
壕 722
蛙@@ 721
dri@@ 721
dem 721
彪 721
癫 720
Gear 720
Ry@@ 720
ye@@ 720
粟 720
tooth@@ 719
Ku@@ 719
互联@@ 719
搪@@ 719
App@@ 718
格鲁@@ 718
di 718
碌 718
Yun@@ 717
oun@@ 717
Swit@@ 717
ock 717
威士@@ 717
掰 717
有点@@ 716
戳@@ 716
崽 716
Ca@@ 715
IPv@@ 715
跛@@ 715
Park 715
comm@@ 715
壤@@ 715
颧@@ 715
渥@@ 715
世界大战 714
SARS 714
咏@@ 714
娥 714
支付@@ 713
AL 713
咏 713
7.4 712
Hen@@ 712
勿@@ 712
骡@@ 711
禧 711
冕@@ 711
fuse 711
ere 711
葡@@ 711
茴@@ 710
喵 710
脯 710
钥@@ 710
Cal@@ 709
釜@@ 709
讪 709
菁 709
ana 708
pic@@ 708
蹬 708
琉@@ 708
掣@@ 707
眯@@ 707
轶@@ 707
匙@@ 707
稼@@ 707
讳@@ 706
rad@@ 706
vo@@ 706
漱@@ 706
ly@@ 705
柚@@ 704
奋 704
ain@@ 704
虔@@ 704
疡@@ 704
崽@@ 704
碧 703
骶 703
缸@@ 703
廓@@ 702
儡 702
力士 702
粱 702
呜 702
汰@@ 702
熠@@ 701
阂 701
board 701
aff@@ 700
咳@@ 700
gu@@ 700
Stre@@ 699
Hyper@@ 699
Memory 699
篷@@ 699
pi@@ 699
na 698
Cur@@ 698
Anal@@ 698
bone 698
ex 698
io@@ 697
Dom@@ 697
ale 696
侃@@ 696
Willi@@ 696
幌@@ 696
谦 696
昼 696
突破@@ 695
1080@@ 695
Lev@@ 694
孟 694
la 694
寥 694
魁 694
玻 694
不论@@ 693
Ali@@ 693
丫 693
艾滋@@ 693
猿@@ 693
舜@@ 693
漪 693
mark 692
蹂@@ 692
肼 692
ence 692
7.9 692
跷 691
悸 691
FA@@ 689
切尔@@ 689
8.2 689
诙@@ 688
tec 688
鸵@@ 688
ki@@ 688
Cra@@ 688
ian 688
Fir@@ 687
匍@@ 687
歼@@ 687
咎 686
Fac@@ 686
Tru@@ 686
躏 686
Sec@@ 686
诲 686
新华@@ 685
WW@@ 685
剃 685
Integr@@ 685
8.7 685
後@@ 685
Penti@@ 685
绎@@ 685
麾@@ 684
俏@@ 684
貂 684
ht@@ 683
冀@@ 683
罗拉 683
谙 682
犊 682
臃@@ 682
疵 682
逮 682
踉@@ 681
win@@ 681
伽 681
Graph@@ 680
饱和@@ 680
彤 680
痒@@ 680
fl@@ 680
戟 680
any@@ 680
不觉 680
land 680
扩展@@ 679
陷入@@ 679
res@@ 679
so 679
Bal@@ 678
ib@@ 678
Ty@@ 678
阱 678
Kar@@ 678
讽@@ 678
褪 677
ence@@ 677
魄@@ 676
hol@@ 676
ext@@ 675
磐@@ 675
镳 674
eti@@ 674
蟹@@ 674
么@@ 674
檐 673
桉@@ 673
纭 672
惫@@ 672
指令@@ 672
胁@@ 671
驹 671
巴马 671
fa@@ 670
铨 669
苟 669
Chi@@ 669
tri@@ 668
Engine 668
掐 668
羰@@ 668
Gol@@ 668
洛杉@@ 667
克力 667
Thin@@ 667
杠@@ 667
莴@@ 666
亢 666
Media 666
蹋 666
ham@@ 666
cc@@ 666
枷@@ 665
枉 665
Jos@@ 665
发现@@ 665
憋 665
star 664
Oc@@ 664
冶 664
波器 663
茵@@ 663
ll@@ 663
Networks 663
蛀@@ 663
彪@@ 663
Phot@@ 663
牠 662
腱@@ 662
睦@@ 662
min@@ 662
Wh 661
骰@@ 661
磅@@ 661
tw@@ 660
Technolog@@ 660
恕@@ 660
ation 660
绅 660
Bus 660
斡@@ 659
炜 659
Spectr@@ 659
啄@@ 659
喱 658
义务@@ 658
屯 658
8.4 658
uk@@ 657
芸@@ 657
陡 657
疮@@ 657
Philips 657
马克@@ 656
腭@@ 656
焱 656
曝 656
鲶@@ 656
犹 656
Dol@@ 656
嘱 656
囚 655
嚎@@ 655
eli@@ 654
Loc@@ 654
Viv@@ 654
ste@@ 653
粟@@ 653
ya 653
times 653
当事@@ 653
溃 653
鹫 653
蹑@@ 652
da@@ 652
瑙 652
Bra@@ 652
邢@@ 651
骋 651
窿 651
慈 650
楷@@ 650
琢 650
与会@@ 650
砺 650
enc@@ 649
氪 649
腆 649
Li 649
Pay@@ 649
蒿 648
当今@@ 648
隙@@ 648
骁@@ 647
过滤@@ 647
淹 647
亵 647
噩@@ 647
ek@@ 647
Amaz@@ 647
den@@ 646
sen 646
stein 646
馨 646
PW@@ 644
骷@@ 644
胰 644
霹@@ 644
Electron@@ 644
ek 644
GM 644
Tal@@ 643
哆@@ 643
鳃 642
叼 642
堺 642
垛 642
ah@@ 642
哺乳@@ 641
pad 641
娠@@ 641
履 641
sk@@ 641
Ze@@ 641
柬 641
CVD 641
奕@@ 640
螯@@ 640
Sw@@ 640
锄@@ 640
矶@@ 640
漱 640
Qual@@ 640
薰@@ 640
alk@@ 639
魇 639
酥@@ 639
off@@ 638
昵@@ 638
叁 638
贻@@ 638
骏@@ 638
ora 637
炳@@ 637
IQ@@ 637
9.6 637
Jac@@ 636
庇 636
负面@@ 636
Smar@@ 636
咔@@ 636
瘪 636
SMIC 636
缎@@ 635
ight 635
苄 635
咀 635
ION 634
阮@@ 634
哇@@ 634
广电@@ 634
虞 634
赃 634
hu@@ 634
漾 634
ah 634
踱@@ 633
莽@@ 633
Oper@@ 633
ail@@ 633
龋 633
Wave 633
over@@ 632
pm 632
镶 632
Day@@ 631
豹@@ 631
Luc@@ 630
Moore 630
颁 630
瞒@@ 630
蔼@@ 630
簧 630
唧@@ 629
斓 629
鹊 629
ain 629
啃@@ 629
夷 628
铈 628
yst@@ 628
eng@@ 628
寇 628
盂 627
呋@@ 627
Ever@@ 627
幂 627
Star 627
愕 627
豚 627
蚜@@ 627
查德 626
2B 626
终端@@ 625
碌@@ 625
诶 625
pc 625
Shi@@ 624
intel 624
Da@@ 624
锢 624
kin 624
洼 623
嘻@@ 623
les 622
bble 621
梏 621
虱@@ 621
Ken@@ 620
Dri@@ 620
poll@@ 620
旳 619
涛@@ 619
袒 619
8.3 618
殃 617
Sy@@ 617
amp@@ 617
FTT@@ 617
姥@@ 617
嵴 616
遂@@ 615
靖@@ 615
Vic@@ 615
桎@@ 615
向市场 615
ft 615
贿@@ 614
john 614
皮书 613
Jun@@ 613
Scale 612
捣 612
ds@@ 612
ara 612
cho@@ 612
瓢@@ 611
巾@@ 611
伶@@ 611
萜@@ 611
撮@@ 611
淤 610
fin 610
蝉 610
鲍 609
tube 609
娇 609
别无@@ 609
ig 609
bee 609
Num@@ 608
初始@@ 608
羚 608
撰 608
im 607
鹜 607
桐 607
撷@@ 607
牒 607
foun@@ 607
饽 606
腌 606
缮 606
獾 605
撩@@ 605
湮@@ 604
Cin@@ 604
缰@@ 604
Ko@@ 604
龛 604
蹦 603
俭@@ 603
ha 603
zz@@ 603
唧 602
咫@@ 602
叨@@ 602
ks 602
pher@@ 602
钽@@ 602
寨@@ 602
通公司 601
Radi@@ 601
Multi@@ 601
饽@@ 601
Spec@@ 601
臀@@ 601
磕 601
某种@@ 600
david 600
渎@@ 600
Appl@@ 599
眺@@ 599
诵@@ 599
巍 599
诱 598
們 598
唷 598
You@@ 598
ori@@ 598
ou 598
一体@@ 598
婶@@ 598
纫@@ 597
琐 597
mel@@ 597
ji 597
励 597
aby@@ 597
撮 596
cu@@ 596
格兰 596
禀@@ 595
ano 595
form@@ 595
死亡@@ 595
眸 595
贲@@ 594
檐@@ 594
lean 594
簿@@ 594
狒 594
汞@@ 593
桦@@ 593
隧@@ 592
滔 592
苞@@ 592
漓 592
吁 591
lake 591
bolt 591
Bet@@ 591
咐 590
皓@@ 590
腼@@ 590
Flu@@ 589
琵@@ 589
km 589
ose 589
毂 589
9.9 589
唆@@ 589
侬 588
鹌@@ 588
las@@ 588
澄@@ 587
less 587
大西@@ 586
呕@@ 586
Gal@@ 586
钕@@ 586
滕@@ 586
龙头@@ 586
卤 586
酣@@ 585
棕 585
氨基@@ 585
Cr@@ 585
啾 585
沪@@ 584
激动@@ 584
俱 583
涯 583
喹 583
雁@@ 583
Mu@@ 583
谕 582
dam@@ 582
鹑 582
惦@@ 582
炊@@ 581
蟀 581
幕式 581
缎 581
range 581
感应@@ 581
ase 581
鼾 580
髅 580
狒@@ 580
arg@@ 580
惺@@ 580
圃 580
bed@@ 580
仑@@ 580
line 580
钼@@ 579
amp 579
he 579
楞@@ 579
wal@@ 579
人道@@ 579
兀 579
贬 579
呱@@ 579
攘 579
怜 578
Box 578
sl@@ 578
悍@@ 578
姚 577
邂@@ 577
掷@@ 577
槌 577
垩 577
Brown 576
蟋@@ 576
解调器 576
汝@@ 576
艘@@ 576
侵 576
对性 576
衫@@ 576
ors 575
shell 575
勉@@ 575
Class@@ 575
脓 574
瓴 574
Centr@@ 574
俩@@ 573
鼹@@ 573
鞘@@ 573
发布@@ 573
孝 572
Devices 572
搜索@@ 572
最小@@ 571
砜 571
芮@@ 571
桐@@ 571
nell 570
撬 570
烩 570
Mur@@ 570
Bit@@ 570
跆@@ 570
pro 569
let@@ 569
phen@@ 569
Bank 569
牦@@ 569
then@@ 569
耙 569
滕 569
ery 568
嘟 568
han@@ 568
Mad@@ 568
act@@ 568
锶 568
舷@@ 567
地利 567
铂@@ 567
踹 567
Cas@@ 567
半导体@@ 566
lip@@ 566
吠 566
铌 566
ath@@ 566
巅 565
low 565
ound@@ 565
监视@@ 565
瞄 564
柚 564
祟@@ 563
砥@@ 563
蔻 563
eap 563
胍 563
锹 563
able 563
上万 563
叮 563
厘 562
寰 562
坯@@ 561
有量 561
dic@@ 561
go 561
讼 561
攘@@ 561
黝@@ 561
zer 560
祷 560
邬@@ 560
Lyn@@ 560
搀@@ 560
袤 560
袜@@ 559
mu@@ 559
Gro@@ 559
yan@@ 559
ank@@ 559
啄 558
逅 558
鹃 558
Work@@ 557
Sensor 557
鹭 557
Ho@@ 557
惶 556
伊斯@@ 556
air@@ 556
拂 556
阿里@@ 555
痢@@ 555
湛@@ 555
糯@@ 555
Hal@@ 555
瑙@@ 555
Pres@@ 555
pro@@ 555
冤 555
Station 554
world 554
Med@@ 554
堪 554
煅@@ 554
rist@@ 554
生动物 553
cher 552
选人 552
sey 552
骺 552
完整@@ 552
瞭@@ 552
举例@@ 552
骶@@ 551
摧 551
Gre@@ 551
烘 550
誉为 550
ning 550
System 550
砧@@ 550
鳕@@ 549
ous@@ 549
sider 549
瑜@@ 549
呦 549
Find@@ 548
ena 548
port@@ 548
eam 548
偎 547
皈@@ 547
叩@@ 547
Mem@@ 546
fab@@ 546
ASM@@ 545
tiv@@ 545
Mol@@ 545
Gor@@ 545
FL 545
羟 545
坪@@ 545
妞@@ 544
ati@@ 544
吆@@ 544
ston 544
liv@@ 543
1.5@@ 543
攥 543
叭@@ 543
Acer 543
敛 543
ama 542
不用@@ 542
wood 542
糠@@ 542
window@@ 542
sky 541
坂@@ 541
普勒 541
沈 541
膺 540
ura 540
褥@@ 540
痘@@ 540
Wh@@ 540
熄 540
崴 540
dic 540
ium 539
Rel@@ 539
裘@@ 539
pu@@ 539
趸 539
Sul@@ 538
Camer@@ 538
啪@@ 538
嘶 538
ger 537
恬@@ 537
谟 537
赝@@ 537
嚼@@ 536
acon 536
Mit@@ 536
绦@@ 536
昭 535
御 535
藩@@ 535
Sing@@ 535
捻 535
bar 534
晦 534
钯 534
ty@@ 534
her 534
Mas@@ 533
Lab@@ 533
噬 533
癖@@ 533
苍 533
谧 533
vi 532
韭@@ 532
祢 532
中兴@@ 532
ze 532
蓓@@ 531
IHS@@ 531
焚 531
幼儿@@ 531
蕉 531
touch 531
腊 531
hen@@ 531
ound 531
Rap@@ 530
膛@@ 530
渭@@ 530
絮 530
ani 530
箝@@ 530
Not@@ 530
蔷@@ 530
Data 530
寇@@ 529
吕 529
遏@@ 529
link 529
ader 529
胼@@ 529
学金 529
腑 529
pha 529
襄@@ 529
mp@@ 529
蛔@@ 528
ca@@ 528
Cam@@ 527
usi@@ 527
CIT@@ 527
min 527
Asia 527
蚜 527
霄@@ 526
ache 526
坟 526
vol@@ 526
爹@@ 525
Nex@@ 525
沦 525
指纹@@ 524
note 524
氡 524
side 524
燔 523
阈@@ 523
讣@@ 523
starter 522
wire 522
蹶@@ 521
雳 521
up 521
颐@@ 521
咻 521
妨 521
yme 520
Den@@ 520
胫 520
ky 520
枫 520
low@@ 520
del@@ 520
ao 520
芝加@@ 519
供货@@ 519
秧@@ 518
鳗 518
睑@@ 518
via 518
摩尔@@ 517
字符@@ 517
War@@ 517
坛@@ 517
XR 517
鞣@@ 516
羁 516
tra@@ 516
湘 516
tify 515
tina 515
劾 515
窟@@ 515
羡 515
Der@@ 514
詹 514
迄今@@ 514
wa@@ 514
蟾@@ 514
itor 514
mi 513
弩@@ 513
ico 513
蒽@@ 513
tur@@ 513
Robo@@ 513
Audio 513
刍@@ 513
志愿@@ 513
谩@@ 513
CCTV 513
hor@@ 512
ski 512
cc 512
Shar@@ 512
主持@@ 512
赊@@ 512
rest 512
derson 512
博物@@ 511
Cer@@ 511
咧 511
pa 511
铋 511
钚 511
恩智@@ 511
蓖@@ 511
樊@@ 510
tice 510
惘 510
ign@@ 509
It 509
掳@@ 508
SMC 508
湄@@ 508
ext 508
喳 508
懋 508
郁症 507
貂@@ 507
西门@@ 507
Sur@@ 507
Mob@@ 507
豫 507
Jan@@ 506
聂@@ 506
ment@@ 506
Wang 506
靖 506
ement@@ 506
诣 506
疲 506
fer@@ 505
揣 505
嬗@@ 505
蝌@@ 505
斯拉 504
删 504
City 504
Corporation 504
痹@@ 504
Center 504
rer 504
Sum@@ 503
葩 503
蛾@@ 503
Dar@@ 503
弈@@ 503
tar 502
Hot@@ 502
蚪 502
悯 502
igh@@ 501
ym@@ 501
啜@@ 501
Dre@@ 501
唏@@ 501
烊 500
竺@@ 500
祉 500
sal@@ 499
ye 499
滇@@ 499
坨 499
ita 499
Space 499
蚌@@ 498
ian@@ 498
甲骨@@ 498
氰 498
糠 498
暇@@ 497
Motorola 497
滓 497
殖 497
牲 496
dis@@ 496
yn 496
EU 495
崖@@ 495
bus 495
child 494
戊 494
lit@@ 494
痔 494
鲱@@ 493
恺@@ 493
釜 493
痔@@ 492
GR 492
祁@@ 492
can@@ 492
鄙 492
铛 492
gar@@ 492
杞@@ 492
杞 491
昧@@ 491
翩 491
ison 491
ri 490
玺 490
ii 490
嫖@@ 490
chron@@ 490
巍@@ 490
萘@@ 489
襟 489
ov 489
麟 489
Han@@ 489
Wireless 489
Ob@@ 489
High@@ 489
kins 488
1.8@@ 488
桦 488
胭@@ 488
煞 488
砰@@ 488
脯@@ 488
柿@@ 488
跄 487
ander 487
ram@@ 486
Cisco 486
馒@@ 486
Mul@@ 486
妾 486
腻@@ 486
缀@@ 485
琶 485
ier 485
镭 485
佰@@ 485
Soft@@ 484
來 484
ame 484
Ly@@ 484
辆@@ 484
onomy 484
存器 484
哮@@ 484
扦@@ 484
Stan@@ 484
you@@ 484
眷 484
Sign@@ 484
高尔@@ 483
厦 483
assi@@ 483
ded@@ 483
Design 483
ile 483
gl@@ 483
人民共和国 483
渍@@ 483
肱 482
tivity 482
eak 482
栈@@ 482
gen@@ 482
time 482
Pan@@ 480
light 480
蜱 479
加利福@@ 479
棱 479
eller 479
ons 479
沓 479
胛 478
Gi@@ 478
配器 478
hn 478
Euro@@ 478
uck@@ 478
ero@@ 477
新西@@ 477
oto 477
sta 477
昊 477
ap 477
use 476
Cla@@ 476
僻@@ 476
Tom 476
涓@@ 475
障@@ 475
ark 475
哉 475
Tre@@ 475
sen@@ 474
丈@@ 474
NEX 473
{ 473
Future 473
孰 473
Bol@@ 473
刽@@ 472
cast 472
匝@@ 472
俐 472
瞠@@ 472
彝@@ 472
bia 472
汀@@ 471
Nasdaq 471
壹 471
za 471
can 470
掀 469
Global 469
ush@@ 469
癜 469
Watson 469
} 468
vana 468
钕 467
ald 467
暮 467
淘 467
mar 467
bert 467
昕 467
emiconduc@@ 467
比利@@ 466
mir@@ 466
人节 466
bas@@ 466
Clar@@ 465
Energy 465
麋@@ 465
cd 465
ric@@ 465
揪 465
Bluetooth 465
May@@ 464
轿@@ 464
Up@@ 464
etr@@ 464
蛭 464
煜 464
work@@ 463
John 463
rix 463
盥@@ 463
瑜 463
Dem@@ 463
撇 463
剁 463
信部 463
陌@@ 463
懦 462
Ford 462
涝 462
铵@@ 462
ema@@ 462
镧 461
庐@@ 461
experi@@ 461
Force 461
mil@@ 461
钇 460
愣 460
bor@@ 460
遛@@ 460
eas@@ 460
洗手@@ 460
裴@@ 460
die 460
lock 459
蕃@@ 459
歧 459
皓 458
醺 458
峦 458
痴 458
lin 457
Es@@ 457
Lenovo 457
top@@ 457
捎 457
Rus@@ 457
痂 456
old 456
妃@@ 455
force 455
粤 455
嬷 455
矸@@ 455
斋 454
吲@@ 454
sil@@ 454
space 454
fee 454
ycl@@ 453
甥 453
喳@@ 453
楂 453
Appli@@ 453
奕 453
铉 453
毡@@ 453
app@@ 452
dar@@ 452
秤@@ 452
ano@@ 452
沓@@ 452
out@@ 451
锻 451
沁@@ 451
ka@@ 451
ners 451
les@@ 450
mic@@ 450
蜥 450
ary 450
ger@@ 450
窘 449
sist@@ 449
ll 449
ony 449
nation@@ 449
ates 449
Chen 449
bench 449
兢 449
噶@@ 448
诫@@ 448
air 448
耿 448
dison 448
怦@@ 448
辈@@ 448
跷@@ 448
昊@@ 447
eo 447
擒@@ 447
搂@@ 447
愉 447
壹@@ 446
痫 446
量计 446
阐@@ 446
than@@ 446
chip@@ 446
晾 446
相比@@ 446
BY@@ 446
翌@@ 446
Nik@@ 445
潭@@ 445
人行@@ 444
骇 444
製 444
kar@@ 444
渔 444
Insights 444
ran@@ 443
Bul@@ 443
忒 443
祷@@ 443
萘 443
观设计 443
哚 443
恰 443
Hit@@ 442
霞@@ 442
资讯@@ 442
Ir@@ 442
au 442
鬣@@ 442
忐@@ 442
蔬 441
恢@@ 441
巴基@@ 441
坳 441
麟@@ 441
Fil@@ 441
Mot@@ 440
闫@@ 440
以太@@ 439
颐 439
ello 438
wan@@ 438
view 438
星人 438
蝇@@ 438
than 438
sh 437
屿@@ 437
诃@@ 437
妨@@ 437
哽@@ 437
International 437
町 437
嫦@@ 436
嘲 436
gro 436
谄@@ 436
燎@@ 435
over 435
掳 435
鳌 435
Dal@@ 435
奂 435
铣 434
可靠@@ 434
off 434
凛@@ 434
con 434
pol@@ 434
惴@@ 434
磐 434
ies 433
闵@@ 433
袍@@ 433
暨@@ 433
所得@@ 433
ady 432
挽 432
憩@@ 432
逞@@ 432
朽@@ 432
umin@@ 432
row@@ 431
lie 431
杭 431
夭 431
eman 431
ala 430
River 430
孤 430
Sto@@ 430
姥 430
溺 430
贼@@ 430
iller 430
199@@ 430
Mos@@ 430
拴@@ 430
蓟@@ 429
Tor@@ 429
在我@@ 429
Fit@@ 429
雯 428
茎@@ 428
蒲 428
Acc@@ 427
脲@@ 427
萧 427
遏 427
hing@@ 427
娼@@ 427
mul@@ 426
铠@@ 426
酊@@ 425
ave 425
Bell 424
isa 424
峨@@ 424
tica 424
Ham@@ 424
odes 424
fre@@ 423
Frank@@ 423
犷 423
碉@@ 423
诅 422
SON@@ 422
Ab@@ 422
之急 422
li 422
摁 422
ins@@ 422
hy@@ 422
殃@@ 422
雍@@ 422
Manager 422
michael 421
有线@@ 421
uro@@ 421
除术 421
Otellini 421
Bre@@ 421
残疾@@ 420
醺@@ 420
箴@@ 420
妒 420
镫 420
跖@@ 420
集装@@ 420
Hand@@ 419
俑 419
蛰@@ 419
ted@@ 419
匐 419
贪 419
辫 419
search 419
mal@@ 419
萼 418
镕 418
jo@@ 418
fr@@ 418
Hon@@ 418
dc 418
缕@@ 418
沛@@ 418
Health 417
park 417
涯@@ 417
蝎 417
械@@ 417
King 417
bon@@ 417
university 417
dem@@ 416
beta 416
ree 416
鹃@@ 416
ur 416
wis 416
躇 416
va 415
佰 415
yne 415
Rol@@ 415
薰 415
Soft 415
汛 415
隅 415
垩@@ 414
箍@@ 414
俾@@ 414
盔 414
蜢 414
Io@@ 414
nap 414
甫@@ 414
Dr 414
ben@@ 413
ret@@ 413
麓 413
蓟 413
穹 413
ego 413
哺 413
awa 413
Cad@@ 413
Tem@@ 413
韬 412
產@@ 412
氩 411
ene 411
浚 411
禧@@ 411
speed 411
札@@ 411
蜍 411
砼 411
胛@@ 410
榕@@ 410
叱@@ 410
毙@@ 410
wave 410
搽 410
陋@@ 410
rit@@ 410
Bel@@ 410
Jack 410
des@@ 410
Sym@@ 410
bec@@ 409
Johnson 409
ynam@@ 409
read@@ 409
wit@@ 409
ZigB@@ 408
蛆 408
rid@@ 408
cur@@ 408
槐 408
饲 408
ny 408
agn@@ 408
阪@@ 407
gh@@ 407
缜@@ 407
模块@@ 407
ory 407
arri@@ 407
不久@@ 406
stone 406
褐 406
欺 406
墣 406
荃@@ 406
Cook 406
gre@@ 406
魅 406
ado 405
no 405
蹿@@ 405
蜀@@ 405
dat@@ 405
抠 405
楣 405
ome 405
啁@@ 404
yo 404
笺 403
Tek@@ 403
Ker@@ 403
vision 403
驮 403
鲈@@ 402
lev@@ 402
Tang@@ 402
噼@@ 402
tim@@ 402
轻重 402
罔@@ 402
溉@@ 401
Musk 401
唬@@ 401
Pack@@ 401
孚@@ 400
栀@@ 400
蟒 400
為 400
桨@@ 400
镍@@ 399
microLED 399
藜 399
嗡 399
鼾@@ 398
浑 398
dia@@ 398
Medi@@ 398
sta@@ 398
IH@@ 398
邱 398
Zig@@ 397
毓@@ 397
iti@@ 397
ars 397
home 397
娱@@ 397
obama 397
Ji@@ 397
酩@@ 397
Blue 396
推广@@ 396
燃料@@ 396
棺 395
槲@@ 395
舀 395
Out@@ 395
ergy 395
摞 395
個 395
咨@@ 394
ut 394
刹 394
bro@@ 394
置信 394
ond 393
ank 393
inger 393
win 393
採@@ 393
龈@@ 393
ss 393
Aer@@ 393
Mari@@ 393
梧@@ 393
髋 393
之为 392
now@@ 392
Squ@@ 392
柘 392
硝 392
铼 392
Veg@@ 392
吮@@ 392
its 392
vic@@ 392
龌@@ 391
mor@@ 391
臻@@ 391
鸠@@ 391
勘 391
酵 391
霄 391
鸽@@ 391
hard 391
环氧@@ 391
泾@@ 390
螟 390
cel@@ 390
漉 390
oh 390
嘣 390
Key 390
house 389
恣@@ 389
莹@@ 389
屌@@ 389
Source 389
ance@@ 389
乍 388
Dou@@ 388
帷@@ 388
ble 388
维多@@ 388
pin 388
亚马@@ 388
霎@@ 387
LCD@@ 387
巯@@ 387
筵@@ 387
吮 387
Lex@@ 387
讧 387
褛 387
克逊 387
Honey@@ 386
摹 386
Jobs 386
University 386
cil 386
踮@@ 386
Board 386
ken 386
Ol@@ 386
pd@@ 386
ystems 386
BMW 385
dle 385
蚱@@ 385
^ 385
擎 384
lat@@ 384
擂@@ 384
Sub@@ 384
Tran@@ 384
press 384
有害@@ 383
榛@@ 383
serv@@ 383
阈 383
impl@@ 383
朔 383
犀 382
even@@ 382
埔@@ 382
nano 382
遮 382
mesh 382
袒@@ 382
sion@@ 382
nas@@ 381
layer 381
谚 381
捻@@ 381
咩 381
擂 381
螈 381
玮 380
bur@@ 380
疽@@ 380
Bos@@ 380
猬 380
ean@@ 380
ja 380
遨@@ 379
镊@@ 379
Rem@@ 379
隋@@ 379
铯 379
嚎 378
rop@@ 378
龋@@ 378
sol@@ 378
阿富@@ 378
onics 378
bed 378
Sup@@ 378
2.5@@ 378
跖 378
囔 378
pin@@ 377
褴@@ 377
枭 377
ris 377
lab 377
ats 377
放映@@ 377
振荡@@ 377
ph 377
big 376
ome@@ 376
枢 376
Inf@@ 376
lan@@ 376
West@@ 376
啼 376
Lea@@ 375
bel 375
ios 375
楞 375
asc@@ 375
china 375
餮 374
坩@@ 374
敝 374
饥 374
Bec@@ 374
鳖 374
蛛 374
鲤 374
bre@@ 374
厕@@ 374
帧@@ 373
拷 373
凰@@ 373
Ka@@ 373
tic 372
Tun@@ 372
绥@@ 372
撵@@ 372
谑 372
率高 372
2M 372
讬 372
ays 371
藓@@ 371
无处@@ 371
ous 371
腓 371
ck 371
饕@@ 371
amb@@ 370
龊 370
垦@@ 370
oo 370
tro@@ 369
cre@@ 369
瘘@@ 369
综 369
rap@@ 369
胝 369
浙 369
孀 369
瞬 369
慑@@ 369
肟 368
UN 368
苞 368
for 368
nor@@ 368
ju@@ 368
矾 368
ca 368
hr 368
West 368
碲 367
pre@@ 367
band 367
這@@ 367
jo 367
联想@@ 367
Things 367
镭@@ 367
篓 367
荞@@ 367
蜃@@ 367
inter@@ 367
wards 367
phere 366
亘 366
伦比 366
嬷@@ 366
ench 366
蕨 366
uck 365
辘 365
eans 365
漉@@ 365
褥 365
躇@@ 365
徜@@ 364
焉@@ 364
分辨@@ 364
office 364
power 364
炯@@ 364
缚 364
Jones 364
brid@@ 364
sit@@ 363
Ban@@ 363
藜@@ 363
log@@ 363
嚓 363
Pu@@ 363
PROM 363
Dong@@ 363
埚 363
蛊@@ 362
oul@@ 362
髂@@ 362
寞 362
楷 362
DRAM@@ 362
Atl@@ 362
tal@@ 362
si 361
ini@@ 361
姨 361
Pac@@ 361
kit 361
尼西亚 361
chin@@ 361
ple@@ 361
绍 361
交道 360
匡@@ 360
麼 360
撂@@ 360
嗷 360
Vit@@ 360
Premi@@ 360
雯@@ 360
Zone 360
ical 360
news 360
靓 359
昇 359
旺达 359
藩 359
arm@@ 359
嘻 359
As 359
黔@@ 359
缬@@ 359
螳@@ 359
娓@@ 358
蟒@@ 358
Sar@@ 358
yp@@ 358
佯@@ 358
sec 358
秽@@ 358
aqu@@ 358
une 357
ding@@ 357
[...]
